#include "magic_wand_model_data.h"

// We need to keep the data array aligned on some architectures.
#ifdef __has_attribute
#define HAVE_ATTRIBUTE(x) __has_attribute(x)
#else
#define HAVE_ATTRIBUTE(x) 0
#endif
#if HAVE_ATTRIBUTE(aligned) || (defined(__GNUC__) && !defined(__clang__))
#define DATA_ALIGN_ATTRIBUTE __attribute__((aligned(4)))
#else
#define DATA_ALIGN_ATTRIBUTE
#endif




const unsigned char g_magic_wand_model_data[] DATA_ALIGN_ATTRIBUTE = {

  0x08, 0x00, 0x00, 0x00, 0x54, 0x46, 0x4c, 0x33, 0x62, 0xff, 0xff, 0xff,
  0x03, 0x00, 0x00, 0x00, 0x10, 0x00, 0x00, 0x00, 0x24, 0x00, 0x00, 0x00,
  0x78, 0x00, 0x00, 0x00, 0x24, 0x00, 0x00, 0x00, 0x05, 0x00, 0x00, 0x00,
  0x78, 0x05, 0x00, 0x00, 0xb0, 0x04, 0x00, 0x00, 0xe0, 0x02, 0x00, 0x00,
  0x60, 0x02, 0x00, 0x00, 0x54, 0x01, 0x00, 0x00, 0x01, 0x00, 0x00, 0x00,
  0x78, 0x00, 0x00, 0x00, 0x13, 0x00, 0x00, 0x00, 0x18, 0x30, 0x00, 0x00,
  0x14, 0x30, 0x00, 0x00, 0x20, 0x2f, 0x00, 0x00, 0xa8, 0x2e, 0x00, 0x00,
  0x3c, 0x2e, 0x00, 0x00, 0xec, 0x11, 0x00, 0x00, 0x98, 0x10, 0x00, 0x00,
  0xbc, 0x0e, 0x00, 0x00, 0x60, 0x06, 0x00, 0x00, 0xfc, 0x05, 0x00, 0x00,
  0x78, 0x05, 0x00, 0x00, 0xec, 0x2f, 0x00, 0x00, 0xe8, 0x2f, 0x00, 0x00,
  0xe4, 0x2f, 0x00, 0x00, 0xe0, 0x2f, 0x00, 0x00, 0xdc, 0x2f, 0x00, 0x00,
  0xd8, 0x2f, 0x00, 0x00, 0xd4, 0x2f, 0x00, 0x00, 0xd0, 0x2f, 0x00, 0x00,
  0x0f, 0x00, 0x00, 0x00, 0x4d, 0x4c, 0x49, 0x52, 0x20, 0x43, 0x6f, 0x6e,
  0x76, 0x65, 0x72, 0x74, 0x65, 0x64, 0x2e, 0x00, 0x00, 0x00, 0x0e, 0x00,
  0x18, 0x00, 0x04, 0x00, 0x08, 0x00, 0x0c, 0x00, 0x10, 0x00, 0x14, 0x00,
  0x0e, 0x00, 0x00, 0x00, 0x14, 0x00, 0x00, 0x00, 0x5c, 0x00, 0x00, 0x00,
  0x60, 0x00, 0x00, 0x00, 0x64, 0x00, 0x00, 0x00, 0x84, 0x00, 0x00, 0x00,
  0x12, 0x00, 0x00, 0x00, 0x48, 0x2f, 0x00, 0x00, 0xe4, 0x2e, 0x00, 0x00,
  0x3c, 0x2e, 0x00, 0x00, 0xd8, 0x2d, 0x00, 0x00, 0x70, 0x2d, 0x00, 0x00,
  0x1c, 0x11, 0x00, 0x00, 0xc0, 0x0f, 0x00, 0x00, 0xe4, 0x0d, 0x00, 0x00,
  0xa0, 0x05, 0x00, 0x00, 0x3c, 0x05, 0x00, 0x00, 0xb0, 0x04, 0x00, 0x00,
  0xe8, 0x03, 0x00, 0x00, 0x38, 0x03, 0x00, 0x00, 0xa4, 0x02, 0x00, 0x00,
  0x10, 0x02, 0x00, 0x00, 0x90, 0x01, 0x00, 0x00, 0xfc, 0x00, 0x00, 0x00,
  0x80, 0x00, 0x00, 0x00, 0x01, 0x00, 0x00, 0x00, 0x00, 0x00, 0x00, 0x00,
  0x01, 0x00, 0x00, 0x00, 0x11, 0x00, 0x00, 0x00, 0x08, 0x00, 0x00, 0x00,
  0x1c, 0x04, 0x00, 0x00, 0x58, 0x03, 0x00, 0x00, 0xc8, 0x02, 0x00, 0x00,
  0x24, 0x02, 0x00, 0x00, 0xac, 0x01, 0x00, 0x00, 0x10, 0x01, 0x00, 0x00,
  0x94, 0x00, 0x00, 0x00, 0x10, 0x00, 0x00, 0x00, 0x04, 0x00, 0x00, 0x00,
  0x6d, 0x61, 0x69, 0x6e, 0x00, 0x00, 0x00, 0x00, 0x8e, 0xff, 0xff, 0xff,
  0x00, 0x00, 0x00, 0x09, 0x04, 0x00, 0x00, 0x00, 0x1c, 0x00, 0x00, 0x00,
  0x10, 0x00, 0x00, 0x00, 0x04, 0x00, 0x00, 0x00, 0x0a, 0xd2, 0xff, 0xff,
  0x00, 0x00, 0x80, 0x3f, 0x01, 0x00, 0x00, 0x00, 0x11, 0x00, 0x00, 0x00,
  0x01, 0x00, 0x00, 0x00, 0x10, 0x00, 0x00, 0x00, 0xf6, 0xfb, 0xff, 0xff,
  0x00, 0x00, 0x00, 0x19, 0x01, 0x00, 0x00, 0x00, 0x8a, 0xd1, 0xff, 0xff,
  0x10, 0x00, 0x00, 0x00, 0x12, 0x00, 0x00, 0x00, 0x14, 0x00, 0x00, 0x00,
  0x20, 0x00, 0x00, 0x00, 0x02, 0x00, 0x00, 0x00, 0x01, 0x00, 0x00, 0x00,
  0x04, 0x00, 0x00, 0x00, 0x08, 0x00, 0x00, 0x00, 0x49, 0x64, 0x65, 0x6e,
  0x74, 0x69, 0x74, 0x79, 0x00, 0x00, 0x00, 0x00, 0xc4, 0xd1, 0xff, 0xff,
  0x00, 0x00, 0x0e, 0x00, 0x18, 0x00, 0x08, 0x00, 0x0c, 0x00, 0x10, 0x00,
  0x07, 0x00, 0x14, 0x00, 0x0e, 0x00, 0x00, 0x00, 0x00, 0x00, 0x00, 0x08,
  0x03, 0x00, 0x00, 0x00, 0x18, 0x00, 0x00, 0x00, 0x0c, 0x00, 0x00, 0x00,
  0x04, 0x00, 0x00, 0x00, 0x98, 0xd1, 0xff, 0xff, 0x01, 0x00, 0x00, 0x00,
  0x10, 0x00, 0x00, 0x00, 0x03, 0x00, 0x00, 0x00, 0x0f, 0x00, 0x00, 0x00,
  0x05, 0x00, 0x00, 0x00, 0x02, 0x00, 0x00, 0x00, 0x02, 0xd2, 0xff, 0xff,
  0x10, 0x00, 0x00, 0x00, 0x11, 0x00, 0x00, 0x00, 0x14, 0x00, 0x00, 0x00,
  0x30, 0x00, 0x00, 0x00, 0x02, 0x00, 0x00, 0x00, 0x01, 0x00, 0x00, 0x00,
  0x04, 0x00, 0x00, 0x00, 0x1a, 0x00, 0x00, 0x00, 0x73, 0x65, 0x71, 0x75,
  0x65, 0x6e, 0x74, 0x69, 0x61, 0x6c, 0x2f, 0x64, 0x65, 0x6e, 0x73, 0x65,
  0x5f, 0x31, 0x2f, 0x42, 0x69, 0x61, 0x73, 0x41, 0x64, 0x64, 0x00, 0x00,
  0xf4, 0xd1, 0xff, 0xff, 0xd6, 0xfd, 0xff, 0xff, 0x00, 0x00, 0x00, 0x08,
  0x03, 0x00, 0x00, 0x00, 0x24, 0x00, 0x00, 0x00, 0x18, 0x00, 0x00, 0x00,
  0x0c, 0x00, 0x00, 0x00, 0x00, 0x00, 0x06, 0x00, 0x08, 0x00, 0x07, 0x00,
  0x06, 0x00, 0x00, 0x00, 0x00, 0x00, 0x00, 0x01, 0x01, 0x00, 0x00, 0x00,
  0x0f, 0x00, 0x00, 0x00, 0x03, 0x00, 0x00, 0x00, 0x0e, 0x00, 0x00, 0x00,
  0x04, 0x00, 0x00, 0x00, 0x01, 0x00, 0x00, 0x00, 0xfe, 0xfc, 0xff, 0xff,
  0x00, 0x00, 0x00, 0x09, 0x01, 0x00, 0x00, 0x00, 0x92, 0xd2, 0xff, 0xff,
  0x10, 0x00, 0x00, 0x00, 0x10, 0x00, 0x00, 0x00, 0x14, 0x00, 0x00, 0x00,
  0x2c, 0x00, 0x00, 0x00, 0x02, 0x00, 0x00, 0x00, 0x01, 0x00, 0x00, 0x00,
  0x10, 0x00, 0x00, 0x00, 0x15, 0x00, 0x00, 0x00, 0x73, 0x65, 0x71, 0x75,
  0x65, 0x6e, 0x74, 0x69, 0x61, 0x6c, 0x2f, 0x64, 0x65, 0x6e, 0x73, 0x65,
  0x2f, 0x52, 0x65, 0x6c, 0x75, 0x00, 0x00, 0x00, 0xd8, 0xd2, 0xff, 0xff,
  0x00, 0x00, 0x0a, 0x00, 0x10, 0x00, 0x04, 0x00, 0x08, 0x00, 0x0c, 0x00,
  0x0a, 0x00, 0x00, 0x00, 0x02, 0x00, 0x00, 0x00, 0x10, 0x00, 0x00, 0x00,
  0x04, 0x00, 0x00, 0x00, 0x01, 0x00, 0x00, 0x00, 0x0e, 0x00, 0x00, 0x00,
  0x02, 0x00, 0x00, 0x00, 0x0d, 0x00, 0x00, 0x00, 0x03, 0x00, 0x00, 0x00,
  0x7a, 0xfd, 0xff, 0xff, 0x00, 0x00, 0x00, 0x16, 0x01, 0x00, 0x00, 0x00,
  0x0e, 0xd3, 0xff, 0xff, 0x10, 0x00, 0x00, 0x00, 0x0f, 0x00, 0x00, 0x00,
  0x14, 0x00, 0x00, 0x00, 0x30, 0x00, 0x00, 0x00, 0x02, 0x00, 0x00, 0x00,
  0x01, 0x00, 0x00, 0x00, 0x70, 0x00, 0x00, 0x00, 0x1a, 0x00, 0x00, 0x00,
  0x73, 0x65, 0x71, 0x75, 0x65, 0x6e, 0x74, 0x69, 0x61, 0x6c, 0x2f, 0x66,
  0x6c, 0x61, 0x74, 0x74, 0x65, 0x6e, 0x2f, 0x52, 0x65, 0x73, 0x68, 0x61,
  0x70, 0x65, 0x00, 0x00, 0x00, 0xd3, 0xff, 0xff, 0xe2, 0xfe, 0xff, 0xff,
  0x00, 0x00, 0x00, 0x05, 0x01, 0x00, 0x00, 0x00, 0x38, 0x00, 0x00, 0x00,
  0x2c, 0x00, 0x00, 0x00, 0x14, 0x00, 0x00, 0x00, 0x00, 0x00, 0x0e, 0x00,
  0x14, 0x00, 0x00, 0x00, 0x10, 0x00, 0x0c, 0x00, 0x08, 0x00, 0x04, 0x00,
  0x0e, 0x00, 0x00, 0x00, 0x03, 0x00, 0x00, 0x00, 0x01, 0x00, 0x00, 0x00,
  0x03, 0x00, 0x00, 0x00, 0x01, 0x00, 0x00, 0x00, 0x01, 0x00, 0x00, 0x00,
  0x0d, 0x00, 0x00, 0x00, 0x01, 0x00, 0x00, 0x00, 0x0c, 0x00, 0x00, 0x00,
  0x9e, 0xd3, 0xff, 0xff, 0x10, 0x00, 0x00, 0x00, 0x0e, 0x00, 0x00, 0x00,
  0x1c, 0x00, 0x00, 0x00, 0x40, 0x00, 0x00, 0x00, 0x04, 0x00, 0x00, 0x00,
  0x01, 0x00, 0x00, 0x00, 0x07, 0x00, 0x00, 0x00, 0x01, 0x00, 0x00, 0x00,
  0x10, 0x00, 0x00, 0x00, 0x22, 0x00, 0x00, 0x00, 0x73, 0x65, 0x71, 0x75,
  0x65, 0x6e, 0x74, 0x69, 0x61, 0x6c, 0x2f, 0x6d, 0x61, 0x78, 0x5f, 0x70,
  0x6f, 0x6f, 0x6c, 0x69, 0x6e, 0x67, 0x32, 0x64, 0x5f, 0x31, 0x2f, 0x4d,
  0x61, 0x78, 0x50, 0x6f, 0x6f, 0x6c, 0x00, 0x00, 0xa0, 0xd3, 0xff, 0xff,
  0xc2, 0xfe, 0xff, 0xff, 0x00, 0x00, 0x00, 0x01, 0x24, 0x00, 0x00, 0x00,
  0x18, 0x00, 0x00, 0x00, 0x04, 0x00, 0x00, 0x00, 0xb4, 0xfe, 0xff, 0xff,
  0x01, 0x00, 0x00, 0x00, 0x01, 0x00, 0x00, 0x00, 0x00, 0x00, 0x00, 0x01,
  0x01, 0x00, 0x00, 0x00, 0x0c, 0x00, 0x00, 0x00, 0x03, 0x00, 0x00, 0x00,
  0x0b, 0x00, 0x00, 0x00, 0x07, 0x00, 0x00, 0x00, 0x09, 0x00, 0x00, 0x00,
  0x2e, 0xd4, 0xff, 0xff, 0x10, 0x00, 0x00, 0x00, 0x0d, 0x00, 0x00, 0x00,
  0x1c, 0x00, 0x00, 0x00, 0x2c, 0x00, 0x00, 0x00, 0x04, 0x00, 0x00, 0x00,
  0x01, 0x00, 0x00, 0x00, 0x15, 0x00, 0x00, 0x00, 0x01, 0x00, 0x00, 0x00,
  0x10, 0x00, 0x00, 0x00, 0x0c, 0x00, 0x00, 0x00, 0x74, 0x66, 0x6c, 0x2e,
  0x63, 0x6f, 0x6e, 0x76, 0x5f, 0x32, 0x64, 0x31, 0x00, 0x00, 0x00, 0x00,
  0x74, 0xd4, 0xff, 0xff, 0x00, 0x00, 0x0e, 0x00, 0x1a, 0x00, 0x08, 0x00,
  0x0c, 0x00, 0x10, 0x00, 0x07, 0x00, 0x14, 0x00, 0x0e, 0x00, 0x00, 0x00,
  0x00, 0x00, 0x00, 0x05, 0x01, 0x00, 0x00, 0x00, 0x3c, 0x00, 0x00, 0x00,
  0x30, 0x00, 0x00, 0x00, 0x14, 0x00, 0x00, 0x00, 0x00, 0x00, 0x0e, 0x00,
  0x18, 0x00, 0x17, 0x00, 0x10, 0x00, 0x0c, 0x00, 0x08, 0x00, 0x04, 0x00,
  0x0e, 0x00, 0x00, 0x00, 0x03, 0x00, 0x00, 0x00, 0x03, 0x00, 0x00, 0x00,
  0x03, 0x00, 0x00, 0x00, 0x03, 0x00, 0x00, 0x00, 0x00, 0x00, 0x00, 0x01,
  0x01, 0x00, 0x00, 0x00, 0x0b, 0x00, 0x00, 0x00, 0x01, 0x00, 0x00, 0x00,
  0x0a, 0x00, 0x00, 0x00, 0x46, 0xff, 0xff, 0xff, 0x00, 0x00, 0x00, 0x11,
  0x01, 0x00, 0x00, 0x00, 0xda, 0xd4, 0xff, 0xff, 0x10, 0x00, 0x00, 0x00,
  0x0c, 0x00, 0x00, 0x00, 0x1c, 0x00, 0x00, 0x00, 0x40, 0x00, 0x00, 0x00,
  0x04, 0x00, 0x00, 0x00, 0x01, 0x00, 0x00, 0x00, 0x15, 0x00, 0x00, 0x00,
  0x01, 0x00, 0x00, 0x00, 0x08, 0x00, 0x00, 0x00, 0x20, 0x00, 0x00, 0x00,
  0x73, 0x65, 0x71, 0x75, 0x65, 0x6e, 0x74, 0x69, 0x61, 0x6c, 0x2f, 0x6d,
  0x61, 0x78, 0x5f, 0x70, 0x6f, 0x6f, 0x6c, 0x69, 0x6e, 0x67, 0x32, 0x64,
  0x2f, 0x4d, 0x61, 0x78, 0x50, 0x6f, 0x6f, 0x6c, 0x00, 0x00, 0x00, 0x00,
  0x34, 0xd5, 0xff, 0xff, 0x00, 0x00, 0x0e, 0x00, 0x14, 0x00, 0x00, 0x00,
  0x08, 0x00, 0x0c, 0x00, 0x07, 0x00, 0x10, 0x00, 0x0e, 0x00, 0x00, 0x00,
  0x00, 0x00, 0x00, 0x01, 0x30, 0x00, 0x00, 0x00, 0x24, 0x00, 0x00, 0x00,
  0x10, 0x00, 0x00, 0x00, 0x0c, 0x00, 0x10, 0x00, 0x00, 0x00, 0x04, 0x00,
  0x08, 0x00, 0x0f, 0x00, 0x0c, 0x00, 0x00, 0x00, 0x01, 0x00, 0x00, 0x00,
  0x01, 0x00, 0x00, 0x00, 0x00, 0x00, 0x00, 0x01, 0x01, 0x00, 0x00, 0x00,
  0x0a, 0x00, 0x00, 0x00, 0x03, 0x00, 0x00, 0x00, 0x00, 0x00, 0x00, 0x00,
  0x06, 0x00, 0x00, 0x00, 0x08, 0x00, 0x00, 0x00, 0x00, 0x00, 0x0a, 0x00,
  0x0c, 0x00, 0x07, 0x00, 0x00, 0x00, 0x08, 0x00, 0x0a, 0x00, 0x00, 0x00,
  0x00, 0x00, 0x00, 0x03, 0x01, 0x00, 0x00, 0x00, 0x9e, 0xd5, 0xff, 0xff,
  0x10, 0x00, 0x00, 0x00, 0x0b, 0x00, 0x00, 0x00, 0x1c, 0x00, 0x00, 0x00,
  0x28, 0x00, 0x00, 0x00, 0x04, 0x00, 0x00, 0x00, 0x01, 0x00, 0x00, 0x00,
  0x40, 0x00, 0x00, 0x00, 0x03, 0x00, 0x00, 0x00, 0x08, 0x00, 0x00, 0x00,
  0x0b, 0x00, 0x00, 0x00, 0x74, 0x66, 0x6c, 0x2e, 0x63, 0x6f, 0x6e, 0x76,
  0x5f, 0x32, 0x64, 0x00, 0x88, 0xd5, 0xff, 0xff, 0x7e, 0xd6, 0xff, 0xff,
  0x04, 0x00, 0x00, 0x00, 0x40, 0x00, 0x00, 0x00, 0x80, 0xd6, 0x03, 0xbf,
  0x09, 0xa4, 0x76, 0xbf, 0x7a, 0x67, 0x1e, 0xbe, 0xdc, 0x2c, 0xbb, 0x3f,
  0x44, 0x58, 0xaf, 0x3f, 0x27, 0xa4, 0x08, 0x40, 0xda, 0x80, 0xf1, 0xbf,
  0x0d, 0xb2, 0x6e, 0x3e, 0x2b, 0x95, 0x3e, 0xbe, 0xeb, 0xfa, 0x96, 0x40,
  0xf8, 0xaa, 0xd0, 0xbd, 0x32, 0x50, 0x45, 0x3f, 0x04, 0xf9, 0x32, 0xbe,
  0x89, 0xa9, 0x3f, 0xc0, 0x19, 0x84, 0x44, 0xc0, 0xac, 0x58, 0x0f, 0xbe,
  0x26, 0xd6, 0xff, 0xff, 0x10, 0x00, 0x00, 0x00, 0x0a, 0x00, 0x00, 0x00,
  0x10, 0x00, 0x00, 0x00, 0x20, 0x00, 0x00, 0x00, 0x01, 0x00, 0x00, 0x00,
  0x10, 0x00, 0x00, 0x00, 0x0d, 0x00, 0x00, 0x00, 0x73, 0x74, 0x64, 0x2e,
  0x63, 0x6f, 0x6e, 0x73, 0x74, 0x61, 0x6e, 0x74, 0x31, 0x00, 0x00, 0x00,
  0x08, 0xd6, 0xff, 0xff, 0xfe, 0xd6, 0xff, 0xff, 0x04, 0x00, 0x00, 0x00,
  0x20, 0x00, 0x00, 0x00, 0x93, 0xea, 0x01, 0xc0, 0xf6, 0x2b, 0x7c, 0xbc,
  0x4c, 0x1d, 0xca, 0xbf, 0x54, 0x3c, 0xaf, 0x3e, 0x0b, 0x47, 0xce, 0xbf,
  0xc0, 0x56, 0x63, 0xc0, 0xa7, 0x9a, 0x17, 0xbe, 0xc4, 0x82, 0xcd, 0xbf,
  0x86, 0xd6, 0xff, 0xff, 0x10, 0x00, 0x00, 0x00, 0x09, 0x00, 0x00, 0x00,
  0x10, 0x00, 0x00, 0x00, 0x20, 0x00, 0x00, 0x00, 0x01, 0x00, 0x00, 0x00,
  0x08, 0x00, 0x00, 0x00, 0x0c, 0x00, 0x00, 0x00, 0x73, 0x74, 0x64, 0x2e,
  0x63, 0x6f, 0x6e, 0x73, 0x74, 0x61, 0x6e, 0x74, 0x00, 0x00, 0x00, 0x00,
  0x68, 0xd6, 0xff, 0xff, 0x5e, 0xd7, 0xff, 0xff, 0x04, 0x00, 0x00, 0x00,
  0x00, 0x08, 0x00, 0x00, 0x70, 0xca, 0xe7, 0xbe, 0x38, 0x45, 0x98, 0xbb,
  0xcb, 0x6f, 0x4a, 0xbe, 0x15, 0xc5, 0xbe, 0xbe, 0x9a, 0x0f, 0x5a, 0xbe,
  0x5d, 0x24, 0x94, 0xbe, 0x9a, 0xa5, 0x62, 0xbe, 0x3a, 0x2c, 0x33, 0xbe,
  0x6e, 0xd8, 0xad, 0x3e, 0x09, 0x31, 0xaf, 0xbc, 0xec, 0x5a, 0xe4, 0x3c,
  0x38, 0x46, 0xdf, 0xbd, 0x8c, 0xc0, 0x00, 0xbe, 0x1f, 0xb5, 0x9a, 0xbe,
  0x80, 0xde, 0x33, 0xbe, 0x61, 0xfb, 0xf5, 0xbe, 0xe3, 0x9e, 0x0b, 0x3f,
  0xf8, 0xab, 0x4a, 0x3d, 0x47, 0x45, 0x50, 0xbd, 0x6d, 0x27, 0x17, 0x3e,
  0x31, 0x71, 0x74, 0xbd, 0x05, 0x07, 0x27, 0x3e, 0x05, 0x2d, 0x97, 0xbe,
  0x03, 0xd5, 0x5a, 0x3c, 0x97, 0x77, 0x5e, 0xbe, 0xad, 0x52, 0x4b, 0xbc,
  0x4e, 0x02, 0x40, 0xbe, 0xd9, 0xe8, 0x6c, 0xbd, 0x8f, 0x71, 0x34, 0xbe,
  0xbd, 0x26, 0x4c, 0x3e, 0xa0, 0xb5, 0x27, 0xbe, 0x75, 0xb6, 0x3c, 0x3d,
  0x40, 0x68, 0xda, 0x3e, 0x05, 0x08, 0x88, 0xbd, 0x19, 0x5f, 0x19, 0xbe,
  0x45, 0xd1, 0x28, 0xbe, 0x80, 0x0d, 0x31, 0xbd, 0xce, 0x05, 0x8d, 0xbe,
  0x76, 0x31, 0x67, 0xbe, 0x7c, 0x8d, 0x73, 0xbe, 0xff, 0x8e, 0x06, 0x3e,
  0x8f, 0x74, 0x7a, 0xbd, 0xd1, 0x94, 0xd5, 0xbd, 0x97, 0x29, 0xf5, 0xbc,
  0xb4, 0x1b, 0xd8, 0xbe, 0x94, 0x08, 0xc8, 0x3e, 0x27, 0xc9, 0x70, 0xbf,
  0x84, 0xb6, 0x3e, 0xbd, 0x7c, 0x49, 0x17, 0xbf, 0xb6, 0x0f, 0x81, 0x3d,
  0x8f, 0x5f, 0xea, 0xbd, 0xce, 0x1c, 0x52, 0x3e, 0xc2, 0x4b, 0x4f, 0xbe,
  0x5d, 0x5c, 0x2e, 0x3e, 0x34, 0x48, 0x31, 0xbd, 0xa5, 0x29, 0x43, 0x3e,
  0xa9, 0xac, 0x5c, 0xbe, 0x7c, 0x59, 0xea, 0x3c, 0xb5, 0x1b, 0x95, 0xbc,
  0x1a, 0x59, 0x5b, 0xbd, 0xa2, 0x98, 0x9f, 0x3d, 0x76, 0x13, 0x02, 0x3e,
  0xc2, 0xd5, 0x43, 0x3e, 0xda, 0x9b, 0x5b, 0xbd, 0xaf, 0x9a, 0x21, 0x3f,
  0x0b, 0x35, 0x9b, 0x3c, 0xbe, 0x97, 0xc6, 0xbe, 0x28, 0x37, 0xb4, 0xbd,
  0xe8, 0xdc, 0x9c, 0xbe, 0x41, 0x30, 0x81, 0x3d, 0xf5, 0x82, 0xa1, 0xbd,
  0x8a, 0xc2, 0x10, 0x3e, 0x3b, 0xe3, 0x21, 0x3e, 0x40, 0x7b, 0x42, 0x3d,
  0xfc, 0xd7, 0xa5, 0xbe, 0x8c, 0xe0, 0x39, 0x3e, 0x33, 0x15, 0xbe, 0xbe,
  0x1b, 0x44, 0x50, 0x3e, 0x19, 0x7a, 0x59, 0xbe, 0xff, 0x1d, 0x60, 0x3e,
  0x45, 0x02, 0x3f, 0xbd, 0xd3, 0xfd, 0xaa, 0xbd, 0x0b, 0xb5, 0x99, 0xbe,
  0x48, 0xc1, 0xdf, 0x3c, 0x9e, 0xa9, 0xb9, 0xbe, 0x35, 0xa3, 0x8b, 0x3e,
  0xb3, 0x1f, 0xff, 0xbd, 0xcf, 0xbf, 0x95, 0xbd, 0x89, 0x8c, 0x1a, 0x3e,
  0x80, 0x4c, 0xd4, 0xbd, 0xfb, 0x21, 0x3f, 0xbe, 0x21, 0x25, 0x05, 0x3e,
  0x4c, 0x10, 0x2c, 0xbe, 0xc9, 0x5e, 0x0e, 0x3e, 0x04, 0x09, 0x64, 0x3c,
  0x77, 0xab, 0xae, 0x3e, 0xb8, 0xcc, 0xbe, 0x3d, 0x69, 0x84, 0x83, 0x3e,
  0x4b, 0x84, 0x86, 0xbc, 0x94, 0x2e, 0xf8, 0x3d, 0xdf, 0xec, 0x9f, 0xbd,
  0xe8, 0x07, 0x3b, 0x3e, 0xb3, 0xcf, 0xbb, 0xbd, 0x35, 0xa0, 0x46, 0xbe,
  0xa9, 0x73, 0xa8, 0xbd, 0xba, 0xc7, 0x5f, 0xbd, 0xcb, 0xcc, 0xb2, 0xbd,
  0x56, 0x7b, 0xc4, 0x3c, 0xe0, 0x52, 0x15, 0xbe, 0x6d, 0x24, 0x51, 0xbd,
  0x8c, 0xb1, 0x1b, 0xbe, 0x18, 0x7c, 0x7e, 0x3e, 0x78, 0xea, 0x8e, 0xbd,
  0xcf, 0x38, 0x17, 0x3e, 0x92, 0x16, 0x83, 0xbd, 0xbf, 0x67, 0x4e, 0x3d,
  0x19, 0x0a, 0x95, 0xbd, 0xfd, 0x50, 0x3a, 0x3e, 0xd1, 0x29, 0x0d, 0xbd,
  0xb9, 0x25, 0xc2, 0xbd, 0x9f, 0xe4, 0x04, 0x3e, 0xc8, 0xe2, 0xca, 0xbc,
  0xf8, 0xf1, 0xbe, 0xbc, 0xd3, 0x47, 0x93, 0xbc, 0x76, 0x14, 0x8f, 0xbd,
  0xf7, 0xe0, 0x78, 0x3c, 0x09, 0x38, 0x01, 0x3d, 0x5a, 0x22, 0x63, 0xbe,
  0x30, 0xd2, 0x23, 0x3e, 0x0e, 0xde, 0x36, 0xbb, 0x93, 0x99, 0x4a, 0x3d,
  0x36, 0x24, 0x0a, 0xbd, 0xd9, 0x08, 0xa9, 0x3d, 0xdb, 0x4c, 0x7a, 0xbd,
  0x01, 0xa5, 0xf1, 0x3c, 0xf2, 0xca, 0xa5, 0x3b, 0x31, 0xf6, 0x73, 0x3e,
  0xcb, 0x19, 0x18, 0x3d, 0x3d, 0xc6, 0x20, 0x3c, 0xa3, 0x45, 0x0f, 0xbe,
  0x2a, 0xd8, 0x24, 0xbe, 0x8e, 0x20, 0x55, 0xbd, 0x5a, 0x82, 0x8c, 0x3e,
  0xb8, 0xa2, 0xf1, 0xbd, 0x2d, 0xf1, 0x44, 0xbe, 0x54, 0x39, 0xf8, 0xbd,
  0xa0, 0xa6, 0x1b, 0xbe, 0x84, 0x80, 0xab, 0x3d, 0x7d, 0x92, 0xcd, 0x3d,
  0xb7, 0x03, 0xa7, 0x3c, 0xf7, 0x8c, 0x20, 0x3e, 0xf6, 0x36, 0xd9, 0xbd,
  0xe6, 0x25, 0x88, 0xbd, 0xa9, 0x9b, 0xef, 0xbd, 0xed, 0xfc, 0xf1, 0x3d,
  0xe3, 0x9e, 0x62, 0xbd, 0x52, 0x75, 0x40, 0xbe, 0xcf, 0xf8, 0x92, 0xbd,
  0xe2, 0xa2, 0x27, 0xbd, 0x20, 0x42, 0x8d, 0xbd, 0x2b, 0xe3, 0x9a, 0x3e,
  0x14, 0x4c, 0x92, 0xbe, 0x24, 0x77, 0x88, 0x3d, 0x45, 0x50, 0x05, 0x3e,
  0x52, 0xce, 0x93, 0xbc, 0xde, 0x72, 0xe0, 0xbd, 0x88, 0x73, 0x76, 0xbf,
  0x54, 0xed, 0x34, 0xbc, 0xfb, 0x37, 0xa4, 0x3e, 0x88, 0x82, 0xbf, 0xbe,
  0x24, 0x03, 0x64, 0x3e, 0x34, 0x33, 0xf0, 0x3c, 0x7b, 0xcf, 0x9c, 0xbd,
  0x06, 0xd1, 0xd6, 0x3e, 0x63, 0x84, 0x7b, 0xbf, 0xb9, 0xe8, 0xb2, 0xbd,
  0x30, 0x6f, 0x1b, 0xbe, 0x91, 0xf7, 0x08, 0xbf, 0xfd, 0x83, 0x28, 0xbd,
  0xdf, 0x81, 0x22, 0x3c, 0x62, 0x85, 0x0e, 0x3e, 0x01, 0x8e, 0xd5, 0xbc,
  0xb0, 0x81, 0xba, 0xbf, 0xcc, 0xed, 0x27, 0x3b, 0x3d, 0x98, 0x65, 0xbe,
  0xd3, 0x96, 0x19, 0xbf, 0xdd, 0x36, 0xa3, 0xbd, 0x0a, 0xbd, 0x61, 0x3e,
  0xbc, 0x1d, 0x27, 0xbd, 0xfb, 0x7b, 0x67, 0x3d, 0xc5, 0x3a, 0xa3, 0xbf,
  0x53, 0xcb, 0x6d, 0x3e, 0xb3, 0xd5, 0x55, 0x3f, 0xfe, 0x64, 0x54, 0xbd,
  0xbf, 0x68, 0xb7, 0xbc, 0x52, 0xd3, 0x87, 0xbd, 0x20, 0xd7, 0xf7, 0x3d,
  0x12, 0xa6, 0x6c, 0xbe, 0x9b, 0x7d, 0x50, 0x3e, 0xfe, 0x19, 0x6d, 0xbe,
  0xd0, 0x4f, 0x9b, 0xbd, 0xc5, 0xdc, 0x67, 0xbd, 0x47, 0x04, 0xc4, 0xbd,
  0x70, 0xbd, 0x0e, 0xbe, 0x17, 0xa2, 0x1a, 0xbe, 0xe5, 0xad, 0x85, 0x3d,
  0x86, 0xc8, 0xaf, 0xbd, 0x49, 0x8b, 0x78, 0xbe, 0xd9, 0xb5, 0x06, 0x3d,
  0x19, 0x23, 0x77, 0xbc, 0x4e, 0xa5, 0x5f, 0xbd, 0x73, 0x8f, 0x90, 0xbd,
  0x4b, 0x75, 0xfa, 0xbd, 0x8b, 0x6b, 0x9d, 0xbd, 0x4f, 0xf4, 0xf9, 0xbd,
  0xb4, 0x48, 0x82, 0xbe, 0x68, 0xb4, 0xd5, 0xbd, 0x87, 0x27, 0xcf, 0x3d,
  0x5e, 0xb9, 0x4c, 0xbd, 0xe4, 0xd3, 0x04, 0xbc, 0xd6, 0xc9, 0x0b, 0xbe,
  0x9d, 0x08, 0x52, 0xbd, 0x6b, 0x01, 0x23, 0xbe, 0x09, 0x1c, 0x4c, 0x3d,
  0xc8, 0x20, 0xcd, 0xbe, 0x3a, 0x94, 0x9e, 0xbe, 0x30, 0x7b, 0x83, 0x3d,
  0xe4, 0x2e, 0xdf, 0xbe, 0x20, 0x75, 0x90, 0x3d, 0x5d, 0x66, 0x0f, 0x3d,
  0xc8, 0x94, 0xfd, 0xbd, 0xda, 0xff, 0x1a, 0xbc, 0x29, 0xf1, 0xcd, 0xbd,
  0x2f, 0x08, 0x89, 0xbe, 0x37, 0xc8, 0x1d, 0xbe, 0xd3, 0x03, 0x10, 0xbf,
  0xc5, 0x36, 0x62, 0xbd, 0x97, 0x46, 0x0e, 0x3d, 0x4b, 0x38, 0xf4, 0xbc,
  0xd7, 0xc5, 0x3f, 0x3e, 0x63, 0xbe, 0xff, 0x3d, 0x1f, 0xb2, 0x60, 0xbe,
  0x43, 0x0e, 0xdb, 0x3d, 0x82, 0x3e, 0x14, 0xbf, 0xd0, 0xa6, 0xd0, 0xbd,
  0x3d, 0xaf, 0x63, 0x3e, 0x7d, 0xee, 0x37, 0x3e, 0x9a, 0xd9, 0x9e, 0x3d,
  0xaa, 0x9a, 0xdd, 0x3d, 0x81, 0x46, 0xa8, 0xbe, 0x35, 0x57, 0x51, 0xbd,
  0xd8, 0x57, 0x02, 0xbe, 0x36, 0xfb, 0x98, 0xbd, 0x68, 0xcf, 0x49, 0x3e,
  0xc5, 0x4b, 0xf0, 0x3d, 0xf7, 0x87, 0x93, 0x3d, 0x6d, 0xd3, 0x11, 0xbe,
  0x88, 0x53, 0xa0, 0x3d, 0x14, 0x31, 0x8b, 0xbd, 0xfe, 0xe3, 0x0d, 0xbe,
  0x94, 0xed, 0x59, 0xbe, 0x4b, 0x81, 0x54, 0x3d, 0x08, 0x55, 0xf2, 0xb9,
  0x57, 0x4c, 0x14, 0xbe, 0xe5, 0x71, 0xf7, 0xbd, 0x8a, 0xfd, 0x16, 0xbe,
  0xd5, 0x49, 0xab, 0x3c, 0x8d, 0x89, 0xb6, 0xbe, 0xd8, 0x1f, 0x38, 0xbe,
  0x02, 0xf5, 0x75, 0xbe, 0x52, 0xcd, 0x52, 0xbd, 0xf8, 0x25, 0x9c, 0x3d,
  0x7a, 0x6c, 0x20, 0xbd, 0x66, 0x93, 0xba, 0xbd, 0x42, 0xd6, 0x7b, 0x3d,
  0xfc, 0x20, 0xac, 0x3b, 0xb0, 0xcd, 0xa5, 0xbe, 0xe1, 0x37, 0x85, 0x3d,
  0x78, 0xe9, 0x81, 0xbe, 0x39, 0xfa, 0x6a, 0xbe, 0x6d, 0x64, 0x59, 0xbc,
  0x14, 0xc9, 0xd8, 0xbc, 0x86, 0xad, 0x1a, 0xbe, 0x05, 0x05, 0x90, 0xbd,
  0xd2, 0x28, 0x3d, 0xbe, 0x53, 0xbd, 0x93, 0xbe, 0x15, 0x41, 0x81, 0xbe,
  0x9a, 0x38, 0x51, 0x3c, 0xe3, 0xf3, 0x12, 0x3f, 0xdd, 0x6e, 0x30, 0x3d,
  0xb9, 0x5c, 0x43, 0xbe, 0xb2, 0xf8, 0xc0, 0xbd, 0xbe, 0x78, 0xda, 0xbe,
  0x3a, 0x2e, 0xdf, 0x3e, 0x50, 0xf5, 0x1c, 0xbf, 0x7e, 0x0a, 0x16, 0x3d,
  0x97, 0xf5, 0x1d, 0xbf, 0x2f, 0x71, 0xe1, 0xbc, 0x0a, 0x3a, 0x6b, 0xbe,
  0x35, 0xbb, 0x82, 0x3e, 0x69, 0x15, 0x85, 0xbe, 0x71, 0xa5, 0x33, 0x3d,
  0x5c, 0xe5, 0x16, 0xbe, 0x81, 0xf8, 0x3e, 0x3d, 0xc3, 0x04, 0x03, 0xbd,
  0xd0, 0xee, 0x38, 0xbd, 0x07, 0x11, 0xfb, 0x3a, 0xe8, 0xdb, 0xa4, 0x3d,
  0xa1, 0xd1, 0x40, 0x3d, 0x38, 0x4d, 0x11, 0xbe, 0xc1, 0x78, 0x12, 0x3d,
  0x82, 0x6d, 0x70, 0x3e, 0x73, 0xc9, 0xb5, 0xbd, 0xb7, 0x6d, 0x5f, 0xbd,
  0xda, 0x7d, 0x3e, 0xbd, 0xd4, 0x2b, 0x9e, 0xbe, 0xe8, 0xdf, 0x7a, 0x3d,
  0xf2, 0x94, 0xb4, 0xbe, 0x5f, 0x6f, 0x7e, 0x3d, 0x7b, 0xee, 0xca, 0xbe,
  0xeb, 0x9d, 0x37, 0x3e, 0xa0, 0x41, 0xba, 0xbe, 0x5f, 0xde, 0xba, 0x3b,
  0x02, 0x70, 0x7a, 0xbd, 0x56, 0x11, 0xd0, 0xbd, 0x33, 0x90, 0x86, 0x3e,
  0x88, 0xfd, 0x97, 0x3d, 0xe0, 0x9f, 0x89, 0x3d, 0xf7, 0x4a, 0x39, 0x3e,
  0x8a, 0xd3, 0xe2, 0xbe, 0xa9, 0xcf, 0x2b, 0x3e, 0x74, 0xa9, 0x07, 0x3e,
  0xc6, 0x7c, 0x50, 0x3e, 0x0e, 0xff, 0x3b, 0x3c, 0x0f, 0x5a, 0x87, 0xbd,
  0xeb, 0xbb, 0xd6, 0xbd, 0xdc, 0x63, 0x2e, 0x3e, 0x76, 0x77, 0xa5, 0xbe,
  0x51, 0x1c, 0x62, 0x3d, 0xb9, 0xdd, 0x52, 0x3e, 0xe0, 0xcd, 0x0a, 0xbc,
  0x41, 0xe4, 0x29, 0x3e, 0x36, 0xc9, 0xa1, 0xbe, 0x47, 0x29, 0xbe, 0x3c,
  0x75, 0xe0, 0x5f, 0x3e, 0x9e, 0x57, 0x8c, 0xbe, 0xca, 0x42, 0x49, 0x3d,
  0x31, 0x53, 0xae, 0xbc, 0x75, 0x13, 0xcd, 0xbd, 0x3d, 0x76, 0x8b, 0x3d,
  0xb3, 0x17, 0xdd, 0xbe, 0xa1, 0x02, 0xfa, 0x3d, 0xd2, 0x17, 0xf5, 0x3d,
  0xde, 0x2b, 0x06, 0xbe, 0xca, 0x56, 0xc4, 0xbd, 0x1f, 0xa3, 0x57, 0xbe,
  0x7d, 0x14, 0x9e, 0xbd, 0xab, 0x03, 0x5d, 0xbf, 0xc3, 0x62, 0x58, 0xbd,
  0x94, 0xd3, 0x1a, 0xbf, 0x1c, 0xe6, 0x3e, 0xbe, 0x53, 0xee, 0x9c, 0xbd,
  0x13, 0x15, 0xe3, 0xbd, 0x93, 0xeb, 0x76, 0xbe, 0x07, 0xda, 0x02, 0xbe,
  0xaa, 0x42, 0x7d, 0xbe, 0xa4, 0x81, 0x9e, 0xbd, 0x70, 0x5a, 0x94, 0xbe,
  0x1f, 0xe3, 0x41, 0x3d, 0x30, 0xa4, 0x33, 0xbc, 0x4c, 0x48, 0x4b, 0xbd,
  0x45, 0x67, 0xa9, 0xbd, 0xe8, 0x3f, 0xb7, 0xbd, 0xee, 0x5c, 0x26, 0x3f,
  0x8c, 0xa6, 0x40, 0xbd, 0x61, 0xc7, 0xad, 0x3d, 0x1e, 0x7e, 0x46, 0x3d,
  0x70, 0xa8, 0xa0, 0xba, 0x16, 0x4d, 0x63, 0x3e, 0x34, 0x17, 0x47, 0xbe,
  0x0e, 0x00, 0x49, 0x3d, 0x6b, 0x8f, 0x86, 0x3e, 0x94, 0x24, 0x06, 0x3e,
  0x12, 0x63, 0x51, 0x3f, 0xbf, 0x78, 0x71, 0x3e, 0x19, 0x74, 0x3c, 0x3c,
  0x94, 0x96, 0x02, 0xbf, 0x87, 0xb7, 0x38, 0x3e, 0x59, 0x54, 0x0f, 0xbf,
  0xeb, 0x6a, 0x6d, 0x3e, 0x12, 0xfb, 0xb4, 0x3c, 0xf8, 0x7e, 0x4f, 0x3e,
  0x8c, 0x23, 0x36, 0xbe, 0x79, 0x7e, 0xea, 0xbd, 0x0e, 0xc5, 0xe0, 0xbe,
  0xad, 0x4e, 0xab, 0x3e, 0x61, 0x8d, 0x99, 0xbe, 0x08, 0x70, 0x17, 0x3c,
  0xe4, 0x77, 0xf5, 0xbc, 0x6d, 0x1c, 0xac, 0x3e, 0xb5, 0x24, 0x88, 0x3e,
  0xac, 0xb2, 0x18, 0xbc, 0x3f, 0x6c, 0xc3, 0xbe, 0xed, 0xea, 0x15, 0xbe,
  0x08, 0x44, 0x34, 0xbe, 0xa6, 0x27, 0x03, 0xbe, 0x85, 0x1b, 0xbf, 0x3d,
  0x2d, 0x67, 0xc0, 0x3c, 0xb1, 0xbb, 0xf2, 0x3d, 0xc9, 0x35, 0xeb, 0xbc,
  0x8c, 0x42, 0xc0, 0xbe, 0x2c, 0x21, 0x28, 0xbd, 0x54, 0x25, 0x4d, 0xbe,
  0x04, 0xd4, 0x83, 0x3e, 0x27, 0x1c, 0x70, 0xbd, 0x8a, 0x21, 0x12, 0x3e,
  0xb3, 0x5e, 0x16, 0xbf, 0xcf, 0xa6, 0xa0, 0xbc, 0xec, 0x29, 0x11, 0xbd,
  0x1e, 0x5d, 0x3a, 0xbe, 0x55, 0x50, 0x11, 0xbe, 0xe2, 0x66, 0x7f, 0xbe,
  0x23, 0x74, 0xa5, 0xbd, 0xe5, 0xc6, 0x82, 0xbe, 0x45, 0xaa, 0xb3, 0xbe,
  0x28, 0x22, 0x32, 0xbd, 0x6e, 0x72, 0xf0, 0xbc, 0xf5, 0x2e, 0x31, 0xbe,
  0x1e, 0x34, 0xd7, 0xbd, 0x6b, 0x5b, 0xc2, 0x3e, 0x70, 0x81, 0x43, 0xbc,
  0xef, 0xad, 0xe0, 0xbb, 0xf1, 0x42, 0xa5, 0x3e, 0x71, 0x9c, 0x08, 0xbd,
  0x8d, 0x14, 0xc5, 0xbc, 0x1d, 0x3f, 0xf8, 0xbd, 0xa1, 0x2d, 0x49, 0xbd,
  0x48, 0xdc, 0x83, 0x3e, 0x71, 0x7e, 0x54, 0x3c, 0xd3, 0xe0, 0x1c, 0x3f,
  0x79, 0xf4, 0xa0, 0x3e, 0xf9, 0xcb, 0xdc, 0xbb, 0xbb, 0xca, 0xd4, 0x3c,
  0x3e, 0x4a, 0x7a, 0x3e, 0xf1, 0xb9, 0xcc, 0x3b, 0x30, 0xaf, 0xd2, 0x3c,
  0x2f, 0xb3, 0xa1, 0x3b, 0x8b, 0xd9, 0x59, 0xbe, 0x50, 0x22, 0x07, 0x3c,
  0xc7, 0x63, 0x0d, 0xbe, 0x65, 0x8b, 0xa6, 0xbd, 0x1c, 0x56, 0xaf, 0xbe,
  0xb3, 0x29, 0x33, 0xbe, 0x5a, 0x2c, 0xa6, 0xbe, 0xc3, 0x8e, 0xe1, 0xbd,
  0x45, 0xa2, 0x5e, 0x3d, 0x8b, 0x64, 0x65, 0x3e, 0x68, 0x9e, 0x77, 0xbd,
  0xf7, 0xb2, 0x9b, 0xbc, 0x17, 0xbf, 0x6b, 0xbe, 0x56, 0x81, 0xdb, 0xbd,
  0xcc, 0xf2, 0x3a, 0x3f, 0x64, 0x36, 0xc2, 0x3b, 0x7b, 0x00, 0xd2, 0xbc,
  0xa5, 0x17, 0x33, 0x3e, 0xde, 0xdb, 0x71, 0xbd, 0x63, 0x75, 0x0f, 0x3d,
  0xfa, 0x9a, 0x07, 0xbe, 0x2e, 0x14, 0x2e, 0xbd, 0xf0, 0xb4, 0x17, 0xbd,
  0x46, 0x45, 0x4d, 0x3d, 0x4e, 0xb4, 0xf8, 0x3e, 0xbe, 0xfb, 0xf1, 0x3d,
  0xff, 0x47, 0x8d, 0xbd, 0xca, 0x35, 0x63, 0xbd, 0x75, 0x33, 0x82, 0xbe,
  0xec, 0x04, 0x48, 0xbc, 0x77, 0x69, 0x16, 0xbf, 0x67, 0xca, 0x77, 0x3d,
  0x87, 0x8a, 0xe3, 0xbe, 0x1a, 0x8c, 0xdb, 0x3d, 0x79, 0xea, 0x3e, 0xbd,
  0xd2, 0xa2, 0xaf, 0xbe, 0x44, 0xf2, 0x1d, 0x3a, 0xf1, 0x3b, 0x99, 0xbc,
  0xd8, 0x76, 0xc5, 0xbc, 0xdf, 0x12, 0x27, 0xbe, 0x05, 0x37, 0x87, 0x3d,
  0xd0, 0x37, 0xc6, 0xbd, 0xe8, 0x72, 0xed, 0x3d, 0xf2, 0x73, 0x0a, 0xbf,
  0x18, 0xe3, 0x81, 0x3e, 0x22, 0x61, 0x88, 0xbd, 0x87, 0xcc, 0x14, 0xbe,
  0xac, 0xe2, 0x34, 0x3e, 0x96, 0xdd, 0x3f, 0xbe, 0xd9, 0x7d, 0xaf, 0xbd,
  0x74, 0x6e, 0xd0, 0xbd, 0x3c, 0x04, 0xbb, 0xbe, 0x3c, 0xad, 0x3b, 0x3d,
  0x5f, 0x78, 0x67, 0xbe, 0x6f, 0x44, 0x88, 0xbc, 0x87, 0xe3, 0x22, 0x3e,
  0x2a, 0x6a, 0x60, 0xbb, 0x46, 0x31, 0x53, 0xbd, 0x03, 0xec, 0x0b, 0x3e,
  0x67, 0x9f, 0x18, 0xbe, 0x60, 0x1c, 0xec, 0x3d, 0xe5, 0x20, 0x0a, 0xbe,
  0x79, 0x9a, 0xa3, 0xbd, 0xc2, 0x73, 0xb4, 0x3d, 0xb3, 0x6d, 0xea, 0x3d,
  0xc6, 0xde, 0xff, 0xff, 0x10, 0x00, 0x00, 0x00, 0x08, 0x00, 0x00, 0x00,
  0x1c, 0x00, 0x00, 0x00, 0x38, 0x00, 0x00, 0x00, 0x04, 0x00, 0x00, 0x00,
  0x10, 0x00, 0x00, 0x00, 0x04, 0x00, 0x00, 0x00, 0x01, 0x00, 0x00, 0x00,
  0x08, 0x00, 0x00, 0x00, 0x1a, 0x00, 0x00, 0x00, 0x73, 0x65, 0x71, 0x75,
  0x65, 0x6e, 0x74, 0x69, 0x61, 0x6c, 0x2f, 0x63, 0x6f, 0x6e, 0x76, 0x32,
  0x64, 0x5f, 0x31, 0x2f, 0x43, 0x6f, 0x6e, 0x76, 0x32, 0x44, 0x00, 0x00,
  0xc0, 0xde, 0xff, 0xff, 0xb6, 0xdf, 0xff, 0xff, 0x04, 0x00, 0x00, 0x00,
  0x80, 0x01, 0x00, 0x00, 0xe6, 0x6d, 0x93, 0xbb, 0xb5, 0x90, 0x45, 0xbe,
  0xab, 0x84, 0xce, 0xbc, 0x31, 0x6d, 0x80, 0xbd, 0xca, 0x42, 0xf4, 0xbe,
  0x48, 0xad, 0xaa, 0xbe, 0x46, 0x36, 0xa7, 0xbd, 0x9c, 0xca, 0x84, 0x3e,
  0x68, 0xcb, 0x57, 0xbd, 0x3a, 0xa4, 0x26, 0x3e, 0x23, 0x4c, 0xc5, 0x3e,
  0x3b, 0x8e, 0xcf, 0x3e, 0x1f, 0x21, 0xc6, 0x3e, 0x10, 0xe0, 0x46, 0xbd,
  0x14, 0xaa, 0x20, 0x3e, 0x7d, 0xf6, 0xbe, 0x3e, 0x50, 0xf0, 0x20, 0xbe,
  0x44, 0x78, 0xe0, 0x3c, 0x89, 0x3b, 0xe7, 0x3c, 0xfe, 0x0d, 0x95, 0x3d,
  0x60, 0x81, 0x2e, 0xbe, 0x06, 0x60, 0x17, 0xbd, 0x6b, 0x4f, 0xcd, 0xbb,
  0xfe, 0x15, 0x2b, 0xbe, 0x14, 0x3a, 0xb3, 0xbd, 0xfd, 0xbe, 0xbf, 0xbc,
  0x25, 0x98, 0x93, 0x3d, 0xa5, 0xf3, 0xb1, 0xbd, 0x79, 0x0f, 0x41, 0x3d,
  0x75, 0x62, 0xa7, 0x3c, 0x7a, 0xe5, 0xb5, 0xbc, 0x34, 0x38, 0x8e, 0x3d,
  0xb8, 0x70, 0xdf, 0xbc, 0x0b, 0xbb, 0x2f, 0xbd, 0x41, 0x87, 0x98, 0x3d,
  0x91, 0x40, 0x4e, 0xbc, 0x3b, 0xce, 0xd3, 0xbc, 0xb7, 0xd3, 0x86, 0x3e,
  0xd4, 0xc9, 0x18, 0x3e, 0x6a, 0xc8, 0x26, 0x3d, 0x85, 0xfd, 0x57, 0xbe,
  0x94, 0xfd, 0x8b, 0x3e, 0x78, 0xd1, 0x73, 0x3d, 0x32, 0x5f, 0x8d, 0xbb,
  0x62, 0xe2, 0x86, 0xbe, 0xee, 0x18, 0x31, 0xbb, 0x48, 0xe6, 0xda, 0x3d,
  0x63, 0x3d, 0x4b, 0xbd, 0x0b, 0xa8, 0xe1, 0xbd, 0x91, 0x77, 0xd3, 0xbc,
  0xa7, 0x1a, 0xac, 0x3d, 0x8a, 0x62, 0x07, 0xbd, 0xb7, 0x62, 0x8e, 0x3b,
  0x7f, 0x9a, 0xd4, 0x3c, 0x1a, 0xa8, 0xfe, 0xbc, 0x9c, 0x75, 0x09, 0x3d,
  0x04, 0x24, 0xbb, 0x3b, 0x2e, 0x1e, 0x81, 0xbd, 0xff, 0x4f, 0x41, 0x3d,
  0x15, 0x92, 0xf1, 0x3c, 0x9b, 0xc7, 0xa4, 0x3c, 0x84, 0x7d, 0xb0, 0xbc,
  0x68, 0xa6, 0x98, 0xbc, 0xe7, 0x4b, 0x15, 0x3f, 0xca, 0xe5, 0x41, 0x3e,
  0x83, 0x28, 0xad, 0x3d, 0xba, 0x2b, 0x42, 0xbe, 0x6b, 0x7c, 0xe0, 0xbd,
  0xd8, 0x0b, 0x52, 0x3d, 0x77, 0x3f, 0xd2, 0xbe, 0x73, 0xb7, 0xa0, 0xbd,
  0x76, 0x9a, 0xc0, 0xbd, 0x3d, 0xd3, 0x6d, 0x3d, 0xf0, 0x91, 0x00, 0xbe,
  0xd8, 0xb8, 0x2a, 0xbe, 0xdd, 0x5b, 0x2e, 0xbc, 0xca, 0x2f, 0x98, 0xbe,
  0x0b, 0x8e, 0xfb, 0xbb, 0x04, 0xef, 0xa1, 0xbd, 0x62, 0x1d, 0x01, 0xbd,
  0xe5, 0x20, 0xd2, 0x3d, 0x70, 0xb0, 0x01, 0xbe, 0xff, 0x95, 0x9b, 0x3b,
  0x6d, 0x71, 0x88, 0x39, 0x01, 0x4a, 0xc6, 0x3d, 0x69, 0x82, 0x13, 0x3f,
  0x33, 0x88, 0x8f, 0x3d, 0x05, 0xa6, 0x5b, 0x3e, 0x50, 0x18, 0xeb, 0xbd,
  0x44, 0x91, 0x23, 0x3e, 0xf9, 0xf3, 0x84, 0xbe, 0xec, 0x19, 0xbb, 0xbe,
  0xc7, 0x29, 0x49, 0xbe, 0xdf, 0x9b, 0x81, 0xbc, 0x81, 0x8d, 0xa5, 0xbd,
  0xe8, 0xfd, 0x9b, 0xbd, 0x9e, 0xe0, 0xff, 0xff, 0x10, 0x00, 0x00, 0x00,
  0x07, 0x00, 0x00, 0x00, 0x1c, 0x00, 0x00, 0x00, 0x38, 0x00, 0x00, 0x00,
  0x04, 0x00, 0x00, 0x00, 0x08, 0x00, 0x00, 0x00, 0x04, 0x00, 0x00, 0x00,
  0x03, 0x00, 0x00, 0x00, 0x01, 0x00, 0x00, 0x00, 0x18, 0x00, 0x00, 0x00,
  0x73, 0x65, 0x71, 0x75, 0x65, 0x6e, 0x74, 0x69, 0x61, 0x6c, 0x2f, 0x63,
  0x6f, 0x6e, 0x76, 0x32, 0x64, 0x2f, 0x43, 0x6f, 0x6e, 0x76, 0x32, 0x44,
  0x00, 0x00, 0x00, 0x00, 0x98, 0xe0, 0xff, 0xff, 0x8e, 0xe1, 0xff, 0xff,
  0x04, 0x00, 0x00, 0x00, 0x00, 0x01, 0x00, 0x00, 0x43, 0xb7, 0xed, 0xbc,
  0x75, 0x7f, 0x7e, 0x3e, 0x05, 0x4b, 0x08, 0xbf, 0x66, 0x2f, 0xfd, 0x3d,
  0x1e, 0xbf, 0xf8, 0xbe, 0x97, 0x7c, 0x4d, 0xbe, 0xd5, 0x23, 0xe1, 0x3e,
  0x61, 0x38, 0x8d, 0x3d, 0xda, 0x92, 0xa2, 0x3d, 0x7d, 0x61, 0xa3, 0x3a,
  0x85, 0xe3, 0x16, 0x3e, 0x6a, 0xc9, 0x60, 0xbe, 0x78, 0xa1, 0x1e, 0xbf,
  0xe8, 0x9a, 0x3f, 0xbc, 0xaf, 0xf4, 0x50, 0x3d, 0x02, 0xe8, 0x06, 0xbf,
  0x12, 0x8f, 0x1b, 0x3d, 0xa3, 0x57, 0x98, 0x3e, 0x53, 0xab, 0xaa, 0x3d,
  0x9a, 0x6e, 0x24, 0x3e, 0x21, 0xb9, 0x90, 0xbe, 0xc9, 0xa5, 0x6e, 0xbe,
  0x64, 0xb4, 0xea, 0x3e, 0x02, 0x26, 0x14, 0x3d, 0x44, 0x18, 0x5d, 0x3e,
  0x76, 0xdf, 0x1f, 0xbe, 0x89, 0x68, 0x1f, 0xbf, 0xcb, 0xbe, 0x32, 0xbe,
  0x42, 0xed, 0xd7, 0xbc, 0x57, 0xdd, 0xf7, 0x3c, 0x2c, 0xb8, 0x21, 0x3e,
  0xe1, 0x47, 0x8c, 0xbe, 0x94, 0xa2, 0x0e, 0xbe, 0xd5, 0x4d, 0xdf, 0xbd,
  0x84, 0x4f, 0xb9, 0xbe, 0xa8, 0x1a, 0x82, 0xbf, 0xcc, 0x51, 0x92, 0xbd,
  0x3e, 0x25, 0xbc, 0xbe, 0x3d, 0x03, 0x31, 0xbf, 0x5e, 0x59, 0x88, 0xbe,
  0xed, 0x3f, 0x36, 0xbe, 0xd2, 0x47, 0x00, 0xbe, 0x6f, 0x37, 0xd0, 0x3e,
  0xc2, 0xd7, 0x49, 0xbe, 0xbf, 0x26, 0xe9, 0x3d, 0x2f, 0x08, 0x94, 0xbf,
  0xe8, 0x76, 0x25, 0x3e, 0x8d, 0x30, 0xbf, 0xbd, 0xdc, 0x2f, 0xb3, 0x3d,
  0x7c, 0xbf, 0x82, 0x3e, 0x8e, 0x9c, 0xce, 0x3d, 0xef, 0x80, 0x77, 0x3d,
  0x6a, 0x69, 0x16, 0xbe, 0x34, 0x7b, 0x90, 0xbe, 0xd3, 0xb1, 0x9d, 0x3e,
  0x70, 0xb4, 0x1d, 0x3c, 0x44, 0x8f, 0x73, 0x3e, 0x3b, 0x35, 0x21, 0x3e,
  0x4e, 0xc6, 0xa8, 0x3d, 0x9d, 0xef, 0xe6, 0xbd, 0xd8, 0xdd, 0x67, 0x3e,
  0x8c, 0xd4, 0x75, 0xbd, 0xcb, 0xea, 0x8e, 0x3e, 0x71, 0x30, 0xff, 0x3c,
  0xf6, 0xe1, 0xff, 0xff, 0x10, 0x00, 0x00, 0x00, 0x06, 0x00, 0x00, 0x00,
  0x14, 0x00, 0x00, 0x00, 0x30, 0x00, 0x00, 0x00, 0x02, 0x00, 0x00, 0x00,
  0x04, 0x00, 0x00, 0x00, 0x10, 0x00, 0x00, 0x00, 0x19, 0x00, 0x00, 0x00,
  0x73, 0x65, 0x71, 0x75, 0x65, 0x6e, 0x74, 0x69, 0x61, 0x6c, 0x2f, 0x64,
  0x65, 0x6e, 0x73, 0x65, 0x5f, 0x31, 0x2f, 0x4d, 0x61, 0x74, 0x4d, 0x75,
  0x6c, 0x00, 0x00, 0x00, 0xe8, 0xe1, 0xff, 0xff, 0xde, 0xe2, 0xff, 0xff,
  0x04, 0x00, 0x00, 0x00, 0x00, 0x1c, 0x00, 0x00, 0x47, 0x50, 0xe4, 0xbd,
  0x80, 0x84, 0xc5, 0xbd, 0xa3, 0xab, 0x74, 0xbd, 0x35, 0xf3, 0x55, 0x3d,
  0x62, 0x2e, 0x2d, 0x3d, 0x49, 0x74, 0x9a, 0xbe, 0x75, 0xb4, 0x06, 0xbf,
  0xa4, 0x8f, 0x14, 0x3e, 0x76, 0xad, 0xa9, 0xbc, 0x3d, 0xa9, 0x2f, 0xbe,
  0xb3, 0x27, 0x95, 0xbe, 0xc1, 0x1a, 0xad, 0xbd, 0x11, 0x84, 0x26, 0x3e,
  0x64, 0xd8, 0xc3, 0xbe, 0xae, 0xea, 0xf0, 0xbe, 0x10, 0x60, 0x87, 0x3e,
  0x5a, 0x6d, 0xca, 0xbb, 0xbc, 0xb0, 0x5f, 0xbe, 0xb3, 0xd3, 0x28, 0x3e,
  0x9e, 0x55, 0x46, 0x3d, 0x2a, 0x11, 0x3f, 0x3d, 0xe3, 0x73, 0x00, 0xbf,
  0xa2, 0x55, 0x98, 0xbe, 0xf0, 0xfc, 0xac, 0xbc, 0x06, 0xe5, 0x16, 0x3d,
  0xea, 0xe4, 0x86, 0xbd, 0x13, 0x6e, 0x1d, 0xbe, 0x64, 0x16, 0xb3, 0xbd,
  0xf0, 0xac, 0x65, 0x3e, 0x10, 0xc8, 0x08, 0xbe, 0xa3, 0xfd, 0x1d, 0x3e,
  0x15, 0xbb, 0x4d, 0x3e, 0x10, 0xa8, 0xac, 0x3b, 0xdf, 0x4e, 0x51, 0xbe,
  0x03, 0x31, 0x65, 0x3e, 0x74, 0x3a, 0xf5, 0xbc, 0x04, 0x22, 0xab, 0x3d,
  0x7c, 0x99, 0x96, 0xbe, 0x8d, 0x82, 0x9a, 0xbc, 0xd4, 0x27, 0xb1, 0x3d,
  0xe2, 0xc4, 0x16, 0xbd, 0xdb, 0x57, 0x2a, 0xbd, 0x4f, 0x4d, 0xa9, 0xbd,
  0x2a, 0xa0, 0xf6, 0xbd, 0xa1, 0xc6, 0xec, 0x3e, 0x48, 0x1e, 0x0f, 0xbe,
  0x8f, 0x6a, 0x1d, 0xbd, 0xff, 0x2f, 0xac, 0x3e, 0x97, 0x6b, 0x49, 0x3e,
  0x46, 0x2a, 0xa7, 0xbd, 0xdc, 0xd6, 0x93, 0x3e, 0x93, 0x02, 0x82, 0x3d,
  0xfa, 0xa6, 0x16, 0x3d, 0xc2, 0x1b, 0x37, 0xbd, 0xd0, 0x10, 0xf7, 0x3c,
  0x23, 0xff, 0xaf, 0x3d, 0xbf, 0xcb, 0x3c, 0xbe, 0x48, 0x31, 0x09, 0x3d,
  0x82, 0x8d, 0x08, 0xbe, 0x1a, 0xfe, 0x2b, 0xbe, 0xed, 0x1e, 0xe2, 0x3e,
  0x7f, 0xd2, 0xbb, 0xbd, 0x7a, 0x48, 0x67, 0xbd, 0x6d, 0x01, 0xd1, 0x3e,
  0x51, 0x34, 0x67, 0x3b, 0x42, 0x3e, 0x70, 0x3d, 0xda, 0xa2, 0xa9, 0x3e,
  0x76, 0x6a, 0x46, 0x3d, 0x21, 0xa1, 0x33, 0xbc, 0xf2, 0xb9, 0x8f, 0xbd,
  0xb7, 0x21, 0x86, 0xbd, 0x6e, 0x48, 0x6c, 0x3e, 0xd7, 0x1c, 0xe1, 0x3d,
  0x24, 0x8d, 0x63, 0x3c, 0x6e, 0x7f, 0xa0, 0xbd, 0x1d, 0x8b, 0x33, 0xbe,
  0x38, 0x83, 0x31, 0x3e, 0x7c, 0xf7, 0x39, 0xbe, 0xe8, 0xad, 0x88, 0xbe,
  0x6e, 0x3c, 0xab, 0x3e, 0xc9, 0xa8, 0x9a, 0xbc, 0x42, 0x4b, 0x84, 0xbe,
  0xa6, 0xf4, 0x49, 0x3e, 0xf8, 0x60, 0x6d, 0xbc, 0x99, 0x79, 0xc1, 0x3c,
  0x91, 0xe6, 0xf7, 0x3d, 0x5a, 0x12, 0xf1, 0xbd, 0x6a, 0x87, 0x87, 0x3d,
  0xed, 0x22, 0x7b, 0xbd, 0x56, 0xcb, 0xe1, 0xbd, 0x42, 0xfb, 0xf0, 0xbd,
  0x84, 0x90, 0x0d, 0xbf, 0xf1, 0x66, 0x4a, 0x3e, 0xd2, 0x7f, 0xdf, 0xbe,
  0xc5, 0xee, 0xb8, 0xbe, 0x23, 0x85, 0xd0, 0x3e, 0x9c, 0x09, 0x8d, 0xbb,
  0x2a, 0x63, 0x41, 0xbe, 0x7a, 0xce, 0x8f, 0x3c, 0x77, 0x69, 0x5b, 0x3d,
  0xae, 0xe0, 0x7a, 0x3d, 0xf0, 0x00, 0xf2, 0x39, 0xbd, 0x51, 0x0b, 0xbe,
  0xe5, 0xae, 0xd7, 0x3d, 0x80, 0xd6, 0xe3, 0x3c, 0x32, 0xf7, 0x39, 0x3d,
  0x2d, 0x68, 0x0d, 0x3d, 0x12, 0x79, 0xdf, 0xbe, 0x6d, 0x0e, 0x51, 0x3d,
  0xc0, 0xdb, 0x06, 0xbc, 0x19, 0x1b, 0x18, 0xbe, 0x13, 0x2b, 0x2c, 0x3e,
  0xad, 0x28, 0xac, 0x3e, 0xf6, 0x41, 0x9b, 0x3e, 0x6d, 0x60, 0x4c, 0x3e,
  0xe0, 0xea, 0x5a, 0x3e, 0xa3, 0xb8, 0x06, 0xbe, 0x66, 0xcd, 0xb4, 0x3d,
  0x97, 0x4f, 0x94, 0x3d, 0xe0, 0xd9, 0x9c, 0xbe, 0x92, 0x47, 0x7a, 0xbd,
  0x67, 0xbc, 0x6f, 0x3e, 0x45, 0xe2, 0x5e, 0xbe, 0x8a, 0x81, 0x40, 0x3c,
  0x01, 0x0b, 0x2f, 0x3d, 0xc1, 0x96, 0xac, 0x3c, 0xc3, 0xda, 0x01, 0xbd,
  0x7c, 0xc6, 0x41, 0xbe, 0xc2, 0x74, 0x94, 0xbd, 0xa5, 0x13, 0x88, 0xbe,
  0x42, 0x7a, 0xb5, 0xbe, 0x83, 0xf5, 0xb2, 0xbc, 0x02, 0x7e, 0x81, 0xbb,
  0xfb, 0xaf, 0x8d, 0xbd, 0xc0, 0xed, 0x00, 0x3d, 0xb7, 0xe7, 0x0e, 0x3e,
  0xac, 0x0b, 0xe7, 0x3d, 0xfc, 0x6e, 0x84, 0xbe, 0x7f, 0x0b, 0x29, 0xbe,
  0x9a, 0x51, 0xc6, 0xbe, 0x64, 0x90, 0x20, 0x3e, 0xc8, 0xd6, 0x4e, 0x3e,
  0x34, 0xde, 0xa9, 0x3c, 0x12, 0x3b, 0x8a, 0xbd, 0xa8, 0x0d, 0x26, 0x3e,
  0xbd, 0xc3, 0x20, 0xbf, 0x1e, 0x2e, 0x0f, 0xbf, 0x57, 0x1b, 0x48, 0xbd,
  0x21, 0x65, 0x75, 0x3d, 0x67, 0xe3, 0x38, 0xbd, 0x11, 0x05, 0xc5, 0x3b,
  0x1c, 0x42, 0x70, 0x3c, 0xa5, 0x8a, 0xa0, 0x3d, 0x86, 0x85, 0x7e, 0xbe,
  0x2b, 0xab, 0xb3, 0xbd, 0xc0, 0xb4, 0x6e, 0xbf, 0x6c, 0xee, 0x93, 0xbe,
  0xa3, 0xf4, 0x3d, 0xbe, 0x46, 0x15, 0x7a, 0xbd, 0xd7, 0x30, 0xf3, 0xbd,
  0x82, 0x66, 0x3e, 0xbd, 0x2f, 0xf1, 0x6e, 0xbe, 0xeb, 0xb4, 0xcb, 0xbe,
  0x52, 0xbb, 0x8a, 0xbd, 0x9b, 0x95, 0x01, 0xbb, 0xfd, 0xc5, 0xf4, 0xbd,
  0x9b, 0xc0, 0x8a, 0xbe, 0x9c, 0x20, 0x25, 0x3c, 0x3c, 0x8f, 0x3f, 0xbc,
  0x22, 0x4d, 0xbb, 0xbe, 0x35, 0x6a, 0xcf, 0x3c, 0x45, 0x67, 0x57, 0xbf,
  0x56, 0x51, 0xbf, 0xbe, 0x89, 0xd4, 0xf3, 0xbe, 0x74, 0x7c, 0x97, 0xbe,
  0x51, 0x14, 0xdd, 0xbd, 0xcd, 0xb3, 0x5f, 0x3d, 0x03, 0x7c, 0x62, 0xbe,
  0x8b, 0x5e, 0x22, 0xbd, 0x87, 0x04, 0x1b, 0xbd, 0x96, 0x22, 0xc5, 0x3a,
  0x7c, 0x1b, 0xa5, 0x3d, 0x79, 0xee, 0x9a, 0xbe, 0x43, 0x06, 0xe3, 0x3c,
  0x81, 0x5b, 0xf4, 0xbc, 0xaf, 0x7d, 0x9d, 0xbe, 0x1c, 0x6b, 0x87, 0xbd,
  0xaa, 0x39, 0x9f, 0xbe, 0x96, 0x65, 0x3d, 0x3c, 0xb3, 0x21, 0x03, 0xbf,
  0x04, 0xaf, 0x3f, 0xbe, 0xd3, 0x9d, 0x75, 0xbe, 0xdd, 0x3f, 0x21, 0xbe,
  0x35, 0x0d, 0xaa, 0xbe, 0xb3, 0xca, 0x41, 0xbe, 0x5c, 0x99, 0x5c, 0xbd,
  0x27, 0xae, 0xfe, 0xbc, 0xf5, 0xaa, 0xbb, 0x3c, 0x7e, 0xf0, 0x83, 0xbe,
  0xde, 0x8c, 0xc8, 0xbd, 0x8b, 0x89, 0x55, 0x3e, 0x16, 0xbf, 0x3b, 0x3d,
  0x63, 0x90, 0x0f, 0xbd, 0x4f, 0x69, 0x2d, 0xbe, 0x03, 0x84, 0x9c, 0xbe,
  0x18, 0x20, 0x8b, 0xbe, 0x80, 0x42, 0x15, 0xbe, 0xf3, 0x51, 0x96, 0xbe,
  0xd2, 0x86, 0x50, 0xbe, 0xa0, 0x69, 0xb6, 0x3d, 0x7d, 0x5e, 0x10, 0xbe,
  0x5b, 0x89, 0xec, 0x3c, 0x6d, 0x5a, 0xc6, 0xbd, 0x04, 0x76, 0x9b, 0xbd,
  0xbb, 0x5d, 0xb7, 0xbd, 0x19, 0xc8, 0xac, 0x3d, 0x4c, 0x46, 0x05, 0xbe,
  0x5b, 0x73, 0xa3, 0xbe, 0x14, 0xfb, 0xb0, 0xbc, 0xe4, 0x32, 0xc1, 0xbd,
  0x01, 0x23, 0xcd, 0xbd, 0xc5, 0x85, 0x51, 0xbd, 0x97, 0x03, 0x2d, 0x3c,
  0xe8, 0xf5, 0x92, 0xbe, 0xe8, 0x90, 0x96, 0xbd, 0x6e, 0xa1, 0xe5, 0x3d,
  0x69, 0x78, 0xe3, 0xba, 0x29, 0xea, 0x19, 0x3e, 0x7d, 0x78, 0xa3, 0xbd,
  0xf9, 0x92, 0x1c, 0xbe, 0xa1, 0x37, 0x47, 0xbe, 0xaf, 0x02, 0x68, 0xbd,
  0x3c, 0xe7, 0xd2, 0x3d, 0x10, 0x06, 0xed, 0xbc, 0xe7, 0xcc, 0x6e, 0xbd,
  0x3b, 0xe2, 0x0e, 0xbe, 0xfd, 0xce, 0xbf, 0xbd, 0x6b, 0x4c, 0x0e, 0xbe,
  0x27, 0x45, 0x38, 0xbe, 0x7b, 0xce, 0x3c, 0x3e, 0xc9, 0xa3, 0x0f, 0x3d,
  0x34, 0xaf, 0xb9, 0xbc, 0x0a, 0x2c, 0xf0, 0x3c, 0xf8, 0x9d, 0x94, 0x3e,
  0x70, 0x0d, 0x43, 0xbe, 0x8d, 0x7f, 0x33, 0xbe, 0xd6, 0x13, 0x02, 0xbe,
  0x95, 0x72, 0x1e, 0x3e, 0x81, 0x27, 0x18, 0xbe, 0xaa, 0xb9, 0x03, 0xbe,
  0xe2, 0xbc, 0x49, 0xbe, 0x4e, 0x98, 0x57, 0xbd, 0x61, 0x90, 0x59, 0x3e,
  0xd5, 0xb4, 0xc8, 0xbd, 0x8a, 0x06, 0x4c, 0xbe, 0xeb, 0x35, 0x37, 0x3e,
  0x4c, 0x14, 0xc7, 0x3d, 0xf4, 0x58, 0x19, 0x3e, 0x55, 0x8c, 0xf2, 0x3d,
  0x23, 0x6c, 0x8d, 0xbd, 0x0f, 0x63, 0x07, 0x3d, 0x88, 0x9d, 0x04, 0x3c,
  0x6d, 0xde, 0x13, 0x3e, 0x48, 0x1b, 0xb8, 0x3d, 0x66, 0x0f, 0xa4, 0xbd,
  0xe3, 0x09, 0x94, 0x3d, 0xdf, 0x49, 0x4a, 0xbe, 0xa6, 0x61, 0x2f, 0xbd,
  0xeb, 0x6b, 0x81, 0x3e, 0x87, 0xbf, 0x19, 0xbe, 0xdc, 0xa5, 0x14, 0xbe,
  0xbf, 0xe7, 0xc1, 0x3d, 0xb5, 0x9c, 0x59, 0xbe, 0x80, 0x2c, 0xf1, 0xbb,
  0x3e, 0xb3, 0x8b, 0x3d, 0x08, 0xce, 0x16, 0xbc, 0x1b, 0xf5, 0xf3, 0xbd,
  0x90, 0x34, 0x31, 0x3e, 0xf1, 0x33, 0x7d, 0xbc, 0xdf, 0xf4, 0x29, 0xbe,
  0x33, 0x62, 0x28, 0x3e, 0x7f, 0xc4, 0xdd, 0xbd, 0xd7, 0xa8, 0x2f, 0x3c,
  0x8c, 0x05, 0x58, 0xbe, 0x39, 0x42, 0x59, 0x3e, 0xf2, 0xbe, 0x9b, 0xbb,
  0x94, 0x78, 0xa2, 0xbc, 0xc3, 0x06, 0x61, 0x3e, 0xac, 0x6b, 0xcf, 0x3d,
  0x78, 0xde, 0x11, 0x3d, 0x28, 0x7a, 0x01, 0xbd, 0x80, 0xd9, 0x12, 0xbe,
  0x9f, 0x74, 0x32, 0xbd, 0xdc, 0x0a, 0x43, 0xbd, 0x07, 0xa2, 0xe5, 0xbc,
  0x5b, 0x94, 0x8c, 0x3d, 0xb8, 0x0d, 0xe1, 0xbd, 0x77, 0x9a, 0x8b, 0x3d,
  0xa8, 0xdd, 0x19, 0x3e, 0x34, 0x7d, 0xfe, 0xbc, 0x34, 0x2b, 0x9d, 0xbc,
  0xa7, 0x5b, 0xe7, 0xbc, 0xc8, 0x42, 0x00, 0xbc, 0x03, 0xc2, 0xff, 0x3c,
  0x99, 0xdc, 0x04, 0x3e, 0x24, 0xce, 0x27, 0x3c, 0xd0, 0xf7, 0xde, 0xbd,
  0x38, 0x6a, 0xee, 0x3c, 0x4f, 0x9a, 0x11, 0x3d, 0x0f, 0x8f, 0xa5, 0xbd,
  0x38, 0x27, 0x58, 0xbd, 0x40, 0xc0, 0x39, 0xbe, 0x38, 0xfa, 0x83, 0x3d,
  0xd4, 0xcc, 0xf5, 0xbd, 0x62, 0x1a, 0x8a, 0xbe, 0xb5, 0xdb, 0xa1, 0xbd,
  0xfc, 0x6d, 0x90, 0x3d, 0x37, 0xff, 0x4e, 0xbd, 0x61, 0x46, 0x7a, 0x3c,
  0x39, 0x07, 0xcf, 0x3d, 0xe9, 0x22, 0x21, 0x3e, 0x60, 0xfe, 0x36, 0x3e,
  0x26, 0x0a, 0x0e, 0xbd, 0xcc, 0xaa, 0xc1, 0xbb, 0x36, 0x6e, 0x20, 0xbd,
  0xc1, 0x8e, 0x9b, 0x3d, 0xe4, 0xc8, 0x37, 0xbe, 0x76, 0x4d, 0x00, 0x3e,
  0x58, 0x1a, 0x26, 0x3e, 0x39, 0x18, 0x21, 0xbe, 0xd6, 0xc6, 0xe4, 0x3b,
  0x6d, 0x15, 0x79, 0xbd, 0x8f, 0x2a, 0xfc, 0x3c, 0x09, 0xe8, 0x97, 0x3d,
  0xb5, 0x29, 0xc5, 0xbd, 0xbd, 0x02, 0xa5, 0x3e, 0x35, 0x13, 0xb8, 0xbe,
  0xc3, 0xdb, 0xf4, 0xbd, 0x7c, 0xf6, 0x07, 0xbc, 0xa4, 0xfb, 0x89, 0xbd,
  0xe4, 0x5c, 0x20, 0xbf, 0x78, 0x68, 0xa8, 0xbe, 0xdc, 0x4e, 0xa6, 0xbe,
  0x6c, 0xcc, 0xfb, 0xbc, 0xfc, 0xd3, 0x45, 0xbd, 0x38, 0xe6, 0x86, 0xbe,
  0xbd, 0xce, 0x0c, 0xbf, 0xaa, 0xa6, 0x32, 0xbe, 0x0e, 0x20, 0x16, 0xbe,
  0xde, 0x34, 0xa8, 0xbe, 0x78, 0x1f, 0x61, 0xbe, 0xe2, 0xab, 0x1d, 0xbe,
  0x3b, 0x17, 0x31, 0xbe, 0x8f, 0x09, 0x45, 0x3c, 0x87, 0x4b, 0x23, 0x3e,
  0x24, 0xec, 0x28, 0xbd, 0x08, 0xc8, 0x8a, 0xbe, 0x76, 0xe0, 0x03, 0xbe,
  0x73, 0x00, 0x11, 0x3d, 0x17, 0xb4, 0x04, 0xbe, 0xc3, 0x6a, 0xc1, 0xbd,
  0x32, 0x65, 0x32, 0xbe, 0xcc, 0x03, 0xbc, 0xbe, 0x22, 0x3a, 0x79, 0xbd,
  0x6e, 0xad, 0x76, 0xbe, 0x51, 0xbb, 0x5e, 0xbe, 0xa8, 0x34, 0x94, 0xbd,
  0x56, 0x91, 0x25, 0xbe, 0x12, 0x35, 0x31, 0xbe, 0x72, 0x08, 0xa4, 0xbd,
  0x47, 0x8e, 0x26, 0xbd, 0x62, 0x2a, 0x35, 0xbd, 0xc6, 0xa7, 0xd0, 0xbe,
  0x6e, 0x7b, 0xf2, 0xbd, 0xf5, 0x26, 0x26, 0x3d, 0x3a, 0xdf, 0x2a, 0x3e,
  0x64, 0xbc, 0x4b, 0xbe, 0xb8, 0x70, 0xad, 0xbb, 0x66, 0xa8, 0x50, 0xbe,
  0x26, 0x4d, 0x5e, 0xbe, 0x39, 0x72, 0x97, 0x3c, 0x51, 0x41, 0x5e, 0xbe,
  0xfb, 0x73, 0xa5, 0xbe, 0x9a, 0x1e, 0xaa, 0x3c, 0x58, 0xd2, 0x35, 0xbd,
  0x56, 0x99, 0x10, 0xbc, 0x09, 0x1d, 0x93, 0xbe, 0x3a, 0xd3, 0x18, 0xbd,
  0x81, 0xc2, 0xbf, 0xbe, 0x37, 0x5f, 0x55, 0xbe, 0x9a, 0x93, 0xe6, 0xbb,
  0x1e, 0x42, 0x1b, 0xbe, 0xff, 0x37, 0x1a, 0x3d, 0x7b, 0x4c, 0xe6, 0xbe,
  0x96, 0x2f, 0x89, 0xbe, 0x51, 0xcd, 0x0d, 0xbf, 0x8a, 0x67, 0x88, 0xbe,
  0x8d, 0x49, 0xa6, 0xbd, 0x6f, 0x82, 0x9c, 0xbe, 0x4c, 0xc2, 0xf2, 0xbd,
  0x7d, 0xc1, 0xc3, 0x3e, 0xc1, 0xf2, 0x5e, 0x3e, 0x47, 0x61, 0x90, 0x3d,
  0x98, 0x20, 0x28, 0xbd, 0x58, 0x40, 0x89, 0xbe, 0xfa, 0x8d, 0x0f, 0x3c,
  0x56, 0xba, 0x5a, 0xbd, 0xb8, 0x0d, 0x80, 0xbe, 0x7f, 0x23, 0xa0, 0xbc,
  0x1d, 0x37, 0xae, 0x3d, 0x35, 0x69, 0xbe, 0xbe, 0x55, 0x6d, 0x03, 0x3d,
  0xa0, 0x8c, 0xf9, 0xbb, 0x95, 0xd1, 0x21, 0x3e, 0xbb, 0xdd, 0x99, 0xbd,
  0x58, 0xf4, 0x92, 0xbd, 0xa9, 0x38, 0x46, 0x3e, 0x1d, 0xdb, 0x66, 0x3e,
  0x13, 0x2c, 0xed, 0x3d, 0xf2, 0xb2, 0xd9, 0x3d, 0x4a, 0xfa, 0x2f, 0xbe,
  0xfd, 0xc2, 0xb8, 0xbe, 0x42, 0x24, 0x5c, 0x3c, 0x8d, 0x58, 0xa7, 0xbe,
  0x35, 0xd3, 0x93, 0xbd, 0xcb, 0xe2, 0x8a, 0x3e, 0x20, 0x44, 0x46, 0xbe,
  0x10, 0xb1, 0xdb, 0x3c, 0x6f, 0x9f, 0x2b, 0x3d, 0x76, 0x55, 0x27, 0x3d,
  0x4b, 0x24, 0x0e, 0xbd, 0x8f, 0x4c, 0xcf, 0xbd, 0x36, 0x87, 0x08, 0x3f,
  0x46, 0x58, 0xf1, 0xbc, 0x3f, 0x6e, 0x43, 0xbd, 0x9b, 0xb6, 0x2c, 0xbd,
  0x2b, 0x71, 0x05, 0x3d, 0xa6, 0xc3, 0x97, 0x3d, 0x17, 0xbd, 0x01, 0x3e,
  0x85, 0x30, 0x18, 0x3d, 0xfb, 0xd0, 0x4a, 0xbe, 0x5d, 0xe9, 0x32, 0x3e,
  0x23, 0xf6, 0xc2, 0xbd, 0xef, 0x33, 0xf3, 0x3d, 0x7e, 0x53, 0x28, 0x3e,
  0xa1, 0xe0, 0x0d, 0x3d, 0xb5, 0xcb, 0xf1, 0xbd, 0x90, 0x1f, 0xd1, 0xbd,
  0xc2, 0x74, 0x13, 0x3e, 0x59, 0x67, 0x14, 0xbe, 0x4a, 0xdd, 0xb3, 0xbe,
  0x92, 0x5a, 0x73, 0x3d, 0xf7, 0xa5, 0x89, 0x3c, 0x2e, 0xa4, 0xa1, 0x3e,
  0x9b, 0x52, 0xc7, 0x3c, 0x73, 0x73, 0x8f, 0xba, 0xfe, 0xb3, 0x9e, 0x3d,
  0xe6, 0xbb, 0x12, 0xbe, 0xef, 0xf4, 0x68, 0x3d, 0x40, 0x42, 0x37, 0xbd,
  0xf8, 0xaf, 0x0f, 0xbe, 0x3f, 0x9b, 0x1f, 0xbe, 0xc5, 0xed, 0x1a, 0xbe,
  0xc5, 0xbc, 0xeb, 0xbe, 0x5e, 0xba, 0x64, 0x3e, 0x5d, 0x69, 0x13, 0xbd,
  0x93, 0xd1, 0xb9, 0x3d, 0xef, 0x72, 0x56, 0x3d, 0xe2, 0xcf, 0xca, 0x3d,
  0x31, 0xaf, 0x83, 0x3e, 0x1f, 0x7d, 0xa1, 0xbe, 0xcb, 0x2b, 0x21, 0x3e,
  0xc4, 0x12, 0xe1, 0xbd, 0xcf, 0xca, 0x81, 0xbe, 0x35, 0x30, 0x8d, 0x3d,
  0x5e, 0x4e, 0xd8, 0xbd, 0x3f, 0xa0, 0x59, 0x3e, 0x66, 0x97, 0x95, 0xbd,
  0x4c, 0x38, 0x05, 0xbe, 0xd2, 0x5f, 0x01, 0xbf, 0x7a, 0x4c, 0x54, 0x3a,
  0x70, 0x37, 0x5f, 0xbd, 0x14, 0x27, 0xd8, 0x3b, 0xff, 0x16, 0xfe, 0xbb,
  0x87, 0xc0, 0x1e, 0xbc, 0x67, 0xcb, 0x54, 0x3e, 0x19, 0xaf, 0x8d, 0xbe,
  0x22, 0xcd, 0x92, 0xbd, 0x57, 0x0a, 0x1f, 0x3d, 0x76, 0xcb, 0x56, 0xbe,
  0x8b, 0x81, 0x86, 0x3d, 0xf3, 0x77, 0xa7, 0xbc, 0xc7, 0xc9, 0x1f, 0x3e,
  0xdb, 0x42, 0xea, 0x3c, 0x64, 0x04, 0x03, 0x3d, 0x2c, 0xbe, 0xb8, 0xba,
  0x99, 0x62, 0x2d, 0x3e, 0x2e, 0x94, 0xab, 0xbd, 0xad, 0x66, 0x92, 0xba,
  0x28, 0xd1, 0xd1, 0xbd, 0x41, 0x8f, 0xfd, 0x3b, 0x2f, 0x3f, 0x25, 0x3e,
  0xde, 0x29, 0xbd, 0x3d, 0x84, 0xc5, 0x89, 0x3c, 0xd5, 0xde, 0x11, 0x3e,
  0x99, 0x3d, 0x26, 0xbe, 0x7a, 0x0a, 0x9d, 0x3d, 0x2b, 0xd4, 0x15, 0xbd,
  0xc7, 0x70, 0x41, 0x3c, 0xe1, 0xec, 0xcb, 0x3c, 0x86, 0xf9, 0x91, 0xbd,
  0x23, 0x04, 0xa8, 0xbe, 0xcd, 0x40, 0x07, 0x3d, 0x65, 0x83, 0x01, 0xbe,
  0xc5, 0xa0, 0x1b, 0x3d, 0xd0, 0x97, 0x3d, 0xbe, 0xb9, 0xac, 0xf0, 0x3d,
  0xfa, 0xc6, 0xd1, 0x3d, 0x21, 0x7b, 0x2d, 0xbe, 0x08, 0x8a, 0x14, 0xbe,
  0x32, 0xe0, 0xcd, 0xbd, 0xd9, 0x97, 0x71, 0xbe, 0xa3, 0x48, 0xd6, 0xbc,
  0x3a, 0x75, 0xd1, 0xbd, 0xf7, 0x94, 0x7a, 0x3e, 0x6d, 0xbc, 0x17, 0xbe,
  0xa8, 0x1e, 0x1b, 0xbd, 0xc0, 0xd1, 0x31, 0xbe, 0xfa, 0x30, 0x0e, 0x3e,
  0x0c, 0xa5, 0x27, 0x3b, 0x93, 0x75, 0x82, 0xbe, 0x6c, 0xf2, 0x9f, 0xbe,
  0xb2, 0xfe, 0xef, 0x3b, 0x08, 0x82, 0xbe, 0xbc, 0xde, 0x88, 0x8e, 0xbd,
  0x23, 0x5c, 0x93, 0x3d, 0xee, 0xa3, 0x33, 0xbe, 0x7b, 0x12, 0x08, 0xbe,
  0xaa, 0x1f, 0x82, 0xbd, 0x30, 0xdc, 0x81, 0xbe, 0x01, 0x45, 0x53, 0xbd,
  0xee, 0xdf, 0xe1, 0xbe, 0x07, 0xd4, 0x06, 0x3d, 0x0e, 0x87, 0xff, 0xbd,
  0x9d, 0xfd, 0x2f, 0xbe, 0x2f, 0x01, 0x87, 0xbe, 0x85, 0x11, 0x36, 0xbe,
  0x5a, 0x17, 0xda, 0xbd, 0xf8, 0x13, 0xc9, 0xbc, 0xec, 0x51, 0x85, 0xbe,
  0xf7, 0xcb, 0x66, 0xbd, 0xf0, 0x7c, 0x71, 0xbb, 0x6c, 0xbf, 0x04, 0xbe,
  0x26, 0x42, 0xfd, 0x3b, 0x47, 0x69, 0xd6, 0x3c, 0x0d, 0x93, 0xa0, 0xbd,
  0xd8, 0x7b, 0x2a, 0x3e, 0x99, 0xe6, 0x15, 0xbd, 0xee, 0xa1, 0x15, 0xbe,
  0xb7, 0xcf, 0xd9, 0x3c, 0x5f, 0xb6, 0x98, 0xbe, 0xec, 0x9c, 0x5b, 0xbe,
  0xe8, 0x55, 0x8d, 0xbe, 0x89, 0x4d, 0x84, 0xbe, 0x54, 0xfe, 0x8c, 0x3d,
  0xb9, 0xfb, 0xc3, 0xbe, 0xbe, 0x8e, 0xf7, 0x3d, 0xaf, 0x02, 0x42, 0x3e,
  0x3d, 0x3f, 0x2a, 0x3e, 0x01, 0xbb, 0xe2, 0xbe, 0x4e, 0xa4, 0xa0, 0xbb,
  0xbb, 0x44, 0xbb, 0xbb, 0x5a, 0xe7, 0x82, 0xbe, 0x44, 0x35, 0x89, 0x3d,
  0xfb, 0x76, 0x82, 0x3d, 0x7e, 0xa2, 0x33, 0xbe, 0x45, 0x18, 0x17, 0x3e,
  0xd8, 0x75, 0xa3, 0x3e, 0x5a, 0xcd, 0x40, 0x3c, 0x2d, 0x2c, 0xe4, 0xbc,
  0x9c, 0x1d, 0xde, 0xbb, 0xeb, 0x25, 0xef, 0xbd, 0x23, 0x3c, 0x87, 0x3c,
  0x83, 0x2d, 0x1e, 0xbe, 0xbf, 0xae, 0xd5, 0xbc, 0x10, 0x38, 0xce, 0x3e,
  0x7a, 0xdd, 0xb2, 0xbd, 0xd8, 0x92, 0x7d, 0x3e, 0x78, 0x39, 0x7f, 0xbe,
  0x36, 0xdc, 0xa4, 0x3d, 0x53, 0xfe, 0x3e, 0x3d, 0x29, 0x1e, 0x40, 0xbd,
  0xac, 0xd5, 0x70, 0xbe, 0x82, 0x8b, 0xc1, 0x3e, 0x12, 0x24, 0x47, 0x3d,
  0x39, 0xac, 0x82, 0x3a, 0x59, 0x36, 0xe3, 0xbc, 0x68, 0x4a, 0x8e, 0xbd,
  0xde, 0xef, 0x98, 0x3e, 0x03, 0xed, 0xea, 0x3d, 0xac, 0x3c, 0xa1, 0xbd,
  0x17, 0xc9, 0x7d, 0xbe, 0xb5, 0x28, 0x38, 0xbe, 0xb6, 0x23, 0xe2, 0x3e,
  0xc4, 0xfd, 0xbb, 0xbe, 0xcc, 0xfc, 0x67, 0x3e, 0xfd, 0x47, 0xbc, 0xbb,
  0xdb, 0x90, 0xec, 0xbc, 0xac, 0x57, 0x04, 0x3e, 0x53, 0xa1, 0xde, 0x3e,
  0x65, 0x0c, 0x67, 0xbe, 0xf6, 0x1c, 0xbe, 0x3d, 0x03, 0xb5, 0xfa, 0xbc,
  0xdd, 0x4b, 0x99, 0xbd, 0x92, 0x43, 0xa9, 0x3e, 0x22, 0xdd, 0x0f, 0x3e,
  0x42, 0xd8, 0xaa, 0xbd, 0xe9, 0x87, 0x6b, 0xbe, 0x67, 0x32, 0x23, 0xbe,
  0x53, 0x01, 0x03, 0x3f, 0xdb, 0xd1, 0x21, 0xbe, 0xfe, 0x22, 0x81, 0x3e,
  0x30, 0x95, 0xe3, 0x3d, 0xf9, 0x3e, 0x16, 0x3d, 0xb8, 0xa9, 0xfc, 0xbe,
  0x9b, 0x2f, 0x83, 0xbe, 0xbb, 0x24, 0xd9, 0xbe, 0xb5, 0xa5, 0xee, 0x3c,
  0x64, 0x3d, 0x76, 0xbb, 0x66, 0xe6, 0xdc, 0xbd, 0xca, 0x9a, 0xc0, 0x3e,
  0x7d, 0xe3, 0x85, 0x3e, 0xad, 0xf2, 0xd3, 0xbd, 0xde, 0x10, 0x01, 0xbf,
  0xfc, 0xa4, 0x01, 0xbe, 0xb4, 0x1b, 0xb6, 0x3d, 0x55, 0xba, 0xb7, 0xbe,
  0xaa, 0x4d, 0x31, 0x3e, 0x12, 0x64, 0x38, 0x3e, 0x0d, 0xf8, 0xba, 0xbc,
  0xa8, 0xcc, 0x25, 0xbe, 0xdf, 0xc0, 0x4e, 0xbe, 0xc7, 0x44, 0x0d, 0xbf,
  0x9f, 0x28, 0x1f, 0xbe, 0x58, 0x57, 0x5d, 0xbc, 0xf2, 0x35, 0x77, 0xbe,
  0xaf, 0xa2, 0xc6, 0x3e, 0x90, 0x78, 0xaf, 0x3e, 0xc1, 0xb3, 0x15, 0xbe,
  0x0a, 0xc5, 0x5e, 0xbf, 0xff, 0x03, 0x16, 0x3d, 0xf0, 0xed, 0x20, 0x3d,
  0xbd, 0x77, 0x26, 0xbf, 0x5d, 0x2b, 0x9d, 0x3d, 0x34, 0x72, 0x12, 0xbd,
  0x93, 0xaa, 0x32, 0xbd, 0xa2, 0x9a, 0xd7, 0xbe, 0x7e, 0x6a, 0x80, 0xbd,
  0x77, 0xab, 0xae, 0xbd, 0x89, 0x4a, 0x12, 0x3d, 0x44, 0x52, 0x46, 0xbc,
  0xd5, 0xb3, 0xfb, 0xbd, 0x87, 0x11, 0xb2, 0x3d, 0xbf, 0xd9, 0x2a, 0x3e,
  0x0c, 0xec, 0x87, 0xbd, 0xc6, 0xcd, 0xb2, 0xbe, 0xc9, 0xd8, 0x31, 0xbd,
  0x1b, 0x7c, 0xad, 0x3d, 0x03, 0xa8, 0x46, 0xbe, 0x69, 0x69, 0x08, 0x3d,
  0x16, 0xf3, 0x16, 0xbd, 0x0e, 0x92, 0x44, 0xbd, 0xe7, 0x15, 0xe6, 0x3d,
  0x47, 0x04, 0x5e, 0x3e, 0x47, 0x3a, 0x81, 0x3e, 0x17, 0x53, 0x96, 0x3d,
  0x7d, 0xea, 0x9b, 0xbd, 0x55, 0xb3, 0x12, 0xbd, 0x74, 0x19, 0x0f, 0x3e,
  0xe4, 0xd2, 0x0e, 0xbe, 0x53, 0x75, 0x17, 0x3e, 0xc6, 0xbc, 0x9c, 0x3e,
  0xb6, 0xaf, 0x97, 0xbe, 0x5b, 0x8e, 0xa1, 0x3d, 0xa0, 0x67, 0x48, 0x3d,
  0xfe, 0x92, 0xd3, 0x3d, 0x1d, 0x12, 0x20, 0x3d, 0x40, 0xad, 0x75, 0xbd,
  0xa5, 0x27, 0x9d, 0xbd, 0xf4, 0x1c, 0x74, 0xbe, 0x80, 0xbb, 0xa4, 0xbe,
  0xf6, 0x6e, 0xfa, 0xbc, 0x61, 0x9e, 0x31, 0x3c, 0x42, 0x53, 0x02, 0x3d,
  0x7f, 0x59, 0x63, 0x3d, 0xa5, 0xaa, 0x17, 0x3c, 0x5d, 0x57, 0x44, 0x3e,
  0xd1, 0x92, 0x29, 0x3f, 0xa7, 0x01, 0x62, 0xbe, 0x32, 0xda, 0x02, 0xbc,
  0x9d, 0x00, 0x99, 0xbd, 0x1a, 0xf0, 0x4b, 0xbd, 0x5e, 0xba, 0x80, 0x3c,
  0xce, 0x69, 0x8f, 0xbd, 0xce, 0x51, 0x33, 0x3e, 0x1c, 0x31, 0xfb, 0xbe,
  0x64, 0xf1, 0xbd, 0xbe, 0xd5, 0x80, 0xc8, 0xbd, 0x33, 0x1b, 0xb2, 0x3b,
  0xc8, 0x4e, 0xec, 0x3d, 0xac, 0xb6, 0xb0, 0xbd, 0xd9, 0xa4, 0xfb, 0x3d,
  0x49, 0xe3, 0xdf, 0x3d, 0xab, 0x07, 0x20, 0x3f, 0x64, 0x24, 0x4d, 0xbe,
  0x4b, 0x24, 0x10, 0xbe, 0x5c, 0x3b, 0xf8, 0xbe, 0xc3, 0x4a, 0x19, 0xbf,
  0x34, 0x3a, 0x57, 0xbe, 0xb9, 0x8c, 0xe6, 0xbd, 0x22, 0xd1, 0x7c, 0xbb,
  0x42, 0x90, 0x0a, 0xbf, 0x25, 0xe9, 0xab, 0xbe, 0x61, 0x78, 0xcd, 0xbd,
  0xb0, 0xe8, 0xb9, 0xbc, 0x56, 0xc0, 0xcc, 0x3d, 0x40, 0x38, 0x69, 0xbe,
  0x8a, 0x4b, 0x3a, 0xbe, 0x26, 0x16, 0x1d, 0x3d, 0x0b, 0x3c, 0x50, 0x3f,
  0x28, 0x81, 0x6d, 0xbd, 0xf1, 0x30, 0xb9, 0xbe, 0xf4, 0x93, 0x01, 0xbf,
  0xd7, 0x2f, 0x03, 0xbf, 0x49, 0xdc, 0x91, 0xbe, 0x12, 0xdc, 0x76, 0xbe,
  0xc8, 0x4b, 0xa6, 0x3e, 0x00, 0x48, 0x5b, 0x3e, 0x86, 0x1f, 0x73, 0xbd,
  0xcf, 0xec, 0xcc, 0xbd, 0x61, 0x89, 0xba, 0xbb, 0xf4, 0xb4, 0x98, 0x3d,
  0xa4, 0x28, 0xcc, 0xbd, 0x54, 0x84, 0x2d, 0xbe, 0x71, 0xbe, 0xc6, 0x3b,
  0xc9, 0xc4, 0x33, 0x3f, 0xed, 0x97, 0x8f, 0xbe, 0xd6, 0x2a, 0x98, 0xbc,
  0x98, 0x57, 0xb5, 0xbd, 0xb2, 0xba, 0xce, 0xbd, 0x0a, 0x20, 0x7c, 0xbe,
  0x28, 0xdf, 0x98, 0xbd, 0xa7, 0xee, 0xa1, 0x3e, 0x1b, 0x80, 0x77, 0x3e,
  0x2b, 0x2b, 0xbe, 0x3d, 0xee, 0x7e, 0xaf, 0x3b, 0xaf, 0x8e, 0xb4, 0xbd,
  0x0f, 0x2c, 0x98, 0x3d, 0xa8, 0x20, 0x1d, 0xbe, 0xee, 0x6f, 0x02, 0xbe,
  0x77, 0x5f, 0xe4, 0xbc, 0xcd, 0x5b, 0x02, 0x3f, 0xa5, 0x60, 0x51, 0xbe,
  0x66, 0xc1, 0x24, 0x3d, 0xdf, 0xb0, 0xf9, 0x3d, 0x88, 0x35, 0x88, 0x3c,
  0xdb, 0xd3, 0x84, 0x3c, 0xf0, 0x87, 0x1a, 0xbe, 0x09, 0xe8, 0x0a, 0x3e,
  0x75, 0xa3, 0x93, 0x3d, 0x36, 0x5e, 0xd9, 0x3d, 0xe1, 0xdb, 0x7c, 0xbc,
  0x01, 0x78, 0x8d, 0xbc, 0x95, 0xb2, 0xe9, 0x3c, 0x4a, 0xcb, 0xa5, 0x3d,
  0x97, 0xdb, 0x70, 0xbd, 0xd0, 0xfc, 0x8f, 0xbd, 0xef, 0x6a, 0xb9, 0x3d,
  0x7e, 0xe2, 0x0c, 0xbe, 0xf9, 0x68, 0xc0, 0x3b, 0x4b, 0xad, 0x66, 0xba,
  0xc5, 0x2a, 0x3b, 0x3d, 0xc8, 0xe7, 0x13, 0x3d, 0x2d, 0x08, 0x15, 0x3d,
  0x3b, 0x34, 0x2e, 0xbe, 0x54, 0xec, 0xcc, 0xbe, 0x79, 0x75, 0x96, 0xbe,
  0x0b, 0xa3, 0x89, 0xbe, 0x10, 0xae, 0x93, 0x3d, 0xe7, 0x35, 0x75, 0xbe,
  0x0e, 0xc7, 0x16, 0x3d, 0x1c, 0x62, 0x07, 0x3e, 0x58, 0xc7, 0x65, 0xbe,
  0x88, 0xa0, 0xc5, 0xbe, 0x27, 0x0b, 0x94, 0xbd, 0x0e, 0x77, 0x1c, 0xbd,
  0x1c, 0xa3, 0x73, 0xbe, 0x52, 0xa9, 0x64, 0x3d, 0x47, 0x28, 0x82, 0x3d,
  0x90, 0xd1, 0x05, 0xbe, 0x06, 0x6b, 0xdd, 0x3d, 0xa8, 0xe1, 0x88, 0x3e,
  0x19, 0x7d, 0x05, 0xbe, 0xa6, 0x92, 0x2d, 0xbe, 0xfe, 0x86, 0x35, 0x3d,
  0x60, 0x65, 0x62, 0xbe, 0xde, 0xa3, 0x44, 0x3e, 0x4f, 0x22, 0x20, 0x3e,
  0x7d, 0x94, 0x0b, 0xbe, 0xad, 0x08, 0x8e, 0x3d, 0x07, 0x11, 0xac, 0xbd,
  0xd0, 0x51, 0x2b, 0x3e, 0x5a, 0x46, 0x02, 0xbe, 0x5f, 0x50, 0xad, 0xbd,
  0xaf, 0xcc, 0xdc, 0x3b, 0x2b, 0xa3, 0xe9, 0x3b, 0xf8, 0x74, 0x74, 0xbd,
  0xa4, 0xeb, 0xa0, 0x3e, 0xa6, 0x08, 0xca, 0xbd, 0x65, 0x6b, 0x63, 0x3d,
  0x47, 0x83, 0xc3, 0x3c, 0x3f, 0xda, 0x0e, 0xbd, 0x0d, 0x53, 0x93, 0x3e,
  0x9b, 0x3e, 0x09, 0x3e, 0xea, 0xa2, 0x4d, 0xbe, 0xef, 0xb5, 0x26, 0xbb,
  0x24, 0x27, 0x86, 0xbe, 0xc6, 0xaa, 0xa7, 0x3e, 0x68, 0x6c, 0x36, 0x3d,
  0x97, 0x0e, 0xdf, 0x3e, 0xc7, 0xfd, 0x49, 0x3d, 0xb2, 0x4a, 0x7d, 0xbd,
  0x6c, 0x76, 0x3f, 0x3e, 0xe3, 0x08, 0x8c, 0x3e, 0x8a, 0x94, 0xae, 0xbe,
  0x19, 0x1f, 0x39, 0x3d, 0x4a, 0x82, 0x5f, 0x3d, 0xeb, 0x0d, 0x86, 0xbd,
  0xd3, 0x05, 0x64, 0x3e, 0xc7, 0x8f, 0x1a, 0x3e, 0x99, 0x9a, 0xba, 0x3c,
  0x2a, 0x71, 0xd1, 0xbd, 0xb7, 0xfe, 0x5e, 0xbe, 0xf6, 0xa8, 0x49, 0x3e,
  0xa9, 0xf3, 0x55, 0xbe, 0x1f, 0xfe, 0x87, 0x3e, 0xff, 0x6d, 0x11, 0x3d,
  0xcc, 0xce, 0xaa, 0xbc, 0x66, 0x5b, 0xe0, 0xbe, 0xa9, 0xb5, 0x13, 0xbe,
  0xf4, 0x55, 0xcb, 0xbe, 0x1b, 0xc3, 0x43, 0xbd, 0x05, 0xf2, 0x21, 0x3d,
  0x70, 0x83, 0x53, 0x3c, 0x92, 0xcc, 0x59, 0x3e, 0xf5, 0xa4, 0x4b, 0x3e,
  0x9e, 0xd8, 0x4a, 0x3d, 0x96, 0x4c, 0x70, 0xbe, 0xbb, 0x8c, 0x2a, 0xbd,
  0xb6, 0xfd, 0xb7, 0x3d, 0x76, 0x5f, 0x83, 0xbe, 0x3b, 0x8d, 0x1f, 0x3e,
  0x6b, 0xe7, 0x18, 0x3e, 0xfb, 0xc7, 0x0d, 0xbe, 0x50, 0xf2, 0xc2, 0xbe,
  0x46, 0x33, 0x44, 0xbd, 0x78, 0x98, 0xbf, 0xbe, 0x1f, 0xf4, 0x40, 0xbe,
  0x86, 0x44, 0x38, 0x3d, 0x05, 0xdd, 0x06, 0xbe, 0xb7, 0xc2, 0x94, 0x3e,
  0x0f, 0xee, 0x95, 0x3e, 0x6e, 0x9d, 0x11, 0xbc, 0xc7, 0x9f, 0xae, 0xbe,
  0xd1, 0x7d, 0x42, 0x3d, 0x1f, 0xef, 0x79, 0x3c, 0x0b, 0xb9, 0xa1, 0xbe,
  0xb4, 0xc5, 0x7b, 0x3c, 0x10, 0xd6, 0x5d, 0x3d, 0xf6, 0x15, 0x27, 0xbc,
  0x00, 0xea, 0x3a, 0xbe, 0x3e, 0x0d, 0x43, 0x3c, 0x6a, 0x69, 0x7a, 0xbd,
  0xf4, 0x8e, 0x3a, 0x3c, 0xdf, 0xc5, 0x18, 0x3a, 0x4d, 0x11, 0xbb, 0x3c,
  0x51, 0x80, 0x80, 0x3d, 0xef, 0xf6, 0x37, 0x3d, 0x98, 0x16, 0x57, 0xbe,
  0x0f, 0x9b, 0xea, 0xbd, 0x79, 0x87, 0x9b, 0x3d, 0xd0, 0x48, 0xe2, 0x3c,
  0x41, 0x7a, 0x5d, 0xbe, 0x17, 0x2b, 0x4f, 0x3c, 0x4d, 0xaa, 0x87, 0x3c,
  0x99, 0x78, 0x85, 0xbc, 0xfd, 0x2e, 0x1d, 0x3d, 0x2a, 0xcf, 0x1b, 0x3e,
  0xf2, 0x56, 0x62, 0xbe, 0xa4, 0x17, 0x17, 0x3d, 0x6c, 0x2a, 0xf1, 0xbd,
  0xe9, 0xf5, 0xd4, 0x3d, 0x85, 0xba, 0xc7, 0xbe, 0xa2, 0x80, 0x79, 0xbd,
  0x59, 0xa7, 0x4b, 0x3a, 0x30, 0x2d, 0x4a, 0xbc, 0xa7, 0xfd, 0x75, 0xbd,
  0x38, 0xe2, 0xbe, 0xbd, 0xe7, 0xb0, 0x59, 0x3e, 0x15, 0xbf, 0xc4, 0xbe,
  0xdd, 0xb9, 0xc5, 0xbe, 0x8b, 0xa3, 0x9b, 0x3e, 0x1f, 0xef, 0x7e, 0x3d,
  0x56, 0xca, 0xac, 0xbd, 0xe6, 0x75, 0x9a, 0xbe, 0xaa, 0x47, 0xda, 0x3d,
  0x86, 0x31, 0xf2, 0x3c, 0x7a, 0xb0, 0xb2, 0xbd, 0xbc, 0xae, 0x88, 0xbe,
  0xa2, 0xb9, 0xac, 0x3e, 0x1a, 0x27, 0x58, 0x3e, 0x00, 0x7c, 0x4b, 0xbe,
  0x30, 0xc0, 0x9a, 0xbe, 0x8d, 0x4b, 0x0f, 0xbe, 0xb9, 0x21, 0x2f, 0x3e,
  0x87, 0x72, 0x64, 0x3d, 0x15, 0xeb, 0xe1, 0xbd, 0xb3, 0x9b, 0x05, 0x3f,
  0xe0, 0xa7, 0x6d, 0x3d, 0x20, 0x47, 0xd7, 0x3d, 0xdb, 0x39, 0x8d, 0x3c,
  0xdd, 0xd5, 0x7d, 0x3b, 0x5b, 0x06, 0x43, 0xbd, 0x98, 0x3f, 0xb5, 0xbe,
  0x45, 0x22, 0xcd, 0xbb, 0x40, 0x68, 0xc3, 0x3d, 0x69, 0xac, 0xda, 0xbd,
  0x9a, 0x52, 0x0b, 0xbe, 0x58, 0x78, 0x66, 0xbe, 0x9a, 0x17, 0x1d, 0xbe,
  0x8e, 0xca, 0x8e, 0x3e, 0xe4, 0xef, 0x25, 0x3d, 0x62, 0xcb, 0xc1, 0xbd,
  0x09, 0x9e, 0x74, 0x3e, 0x1b, 0x2f, 0x9a, 0x3d, 0xa1, 0xd5, 0x18, 0x3e,
  0x74, 0x45, 0x31, 0xbe, 0xdd, 0xb3, 0xd4, 0xbc, 0x51, 0x38, 0x26, 0xbd,
  0xed, 0xed, 0x8b, 0xbe, 0xdd, 0xe4, 0xc6, 0xbd, 0x3a, 0xcb, 0x23, 0x3e,
  0xe2, 0x6b, 0xce, 0x3d, 0xd3, 0x6d, 0xe6, 0xbd, 0xb2, 0x29, 0x27, 0xbe,
  0x04, 0xff, 0x30, 0xbe, 0x1d, 0x4f, 0xbd, 0x3e, 0x6b, 0xb9, 0x46, 0xbe,
  0xff, 0x07, 0x2b, 0xbd, 0x68, 0x91, 0xbb, 0x3e, 0x14, 0x8c, 0x16, 0xbe,
  0x15, 0x93, 0xb7, 0x3d, 0x0d, 0x57, 0xa7, 0xbd, 0xc9, 0xcd, 0x90, 0x3c,
  0x79, 0xad, 0xa7, 0xbc, 0xfa, 0x90, 0x4c, 0xbe, 0x1d, 0xb0, 0x84, 0x3d,
  0x5f, 0xce, 0x22, 0x3e, 0x0f, 0xe2, 0xb1, 0xbd, 0xb6, 0x9a, 0x85, 0x3d,
  0x01, 0xf7, 0xfd, 0xbd, 0xfd, 0x1b, 0xfb, 0xbd, 0x87, 0x77, 0x9a, 0xbd,
  0xb3, 0x1a, 0x81, 0xbe, 0xf8, 0xc7, 0x2e, 0xbe, 0xbf, 0xb6, 0x4f, 0x3d,
  0x4c, 0x07, 0x0a, 0x3d, 0xbc, 0x69, 0x62, 0x3d, 0xfb, 0x33, 0x98, 0xbd,
  0xc9, 0x8c, 0x2e, 0x3e, 0xb3, 0x86, 0x8e, 0x3d, 0x1d, 0xae, 0x48, 0x3e,
  0xc8, 0x3d, 0x2c, 0xbe, 0x45, 0x2a, 0x4d, 0x3e, 0x1c, 0x5f, 0x10, 0x3e,
  0x00, 0x1a, 0xca, 0xbd, 0xcf, 0x3d, 0xc8, 0xbe, 0xdc, 0xd9, 0x7a, 0xbe,
  0xed, 0xed, 0x69, 0x3e, 0x73, 0x81, 0x9c, 0xbe, 0x99, 0x94, 0x57, 0xbe,
  0x52, 0x3a, 0xb0, 0x3e, 0x35, 0x34, 0xeb, 0xbc, 0x5a, 0x76, 0xd1, 0x3d,
  0x5b, 0x79, 0x13, 0x3c, 0x0f, 0xad, 0xec, 0x3d, 0xf8, 0xb3, 0x47, 0x3e,
  0xb0, 0x2b, 0x8f, 0xbd, 0xae, 0x21, 0x89, 0xbe, 0xc7, 0xc9, 0x89, 0x3c,
  0x79, 0x3d, 0x04, 0xbe, 0xa8, 0xd0, 0xb8, 0x3c, 0xd4, 0x73, 0x96, 0xbd,
  0x9b, 0x2a, 0x31, 0xbe, 0x8b, 0xfb, 0xc9, 0x3b, 0xd0, 0x53, 0x2c, 0xbe,
  0x9e, 0xfa, 0x67, 0xbd, 0x88, 0x5e, 0x2f, 0x3e, 0xcc, 0xaa, 0x42, 0x3d,
  0xcd, 0x64, 0xf0, 0xbd, 0x0e, 0xd1, 0x81, 0xbe, 0xd2, 0xdf, 0xf3, 0xbd,
  0xa5, 0x2a, 0x4e, 0x3d, 0x91, 0xf2, 0x6e, 0xbd, 0x71, 0x97, 0x79, 0x3c,
  0x8d, 0x2b, 0xf8, 0x3c, 0x2c, 0x99, 0x27, 0xbe, 0x2a, 0xf0, 0x1e, 0xbe,
  0x01, 0x20, 0x2a, 0xbe, 0x44, 0x8f, 0xa7, 0xbd, 0x53, 0x55, 0xee, 0x3c,
  0x17, 0xc0, 0xaf, 0x39, 0x3b, 0xcd, 0xaf, 0xbe, 0x50, 0xa8, 0x9d, 0x3d,
  0x89, 0x76, 0x26, 0x3e, 0xa1, 0x51, 0xe8, 0xbd, 0x1d, 0x60, 0x4e, 0xbe,
  0x70, 0xbd, 0xc3, 0x3d, 0x9e, 0x65, 0xcf, 0xbd, 0xd3, 0x51, 0x56, 0xbe,
  0xce, 0xce, 0xbf, 0xbc, 0xc7, 0x37, 0xc9, 0xbd, 0xcd, 0xf0, 0x16, 0xbd,
  0xc9, 0x67, 0xa3, 0xbd, 0xed, 0x1b, 0x7f, 0xbe, 0x16, 0xaa, 0x69, 0xbe,
  0x5f, 0xd0, 0xb6, 0x3d, 0x9d, 0x0e, 0xc1, 0x3d, 0xc5, 0x09, 0xb9, 0x3d,
  0xba, 0xc3, 0xe9, 0x3e, 0xbd, 0xae, 0x2b, 0x3e, 0xf1, 0x99, 0xb5, 0x3d,
  0x75, 0xa7, 0x90, 0xbe, 0xb7, 0x4f, 0x40, 0x3b, 0xc5, 0xbd, 0x61, 0xbe,
  0xd3, 0x07, 0xc1, 0xbb, 0x25, 0xdf, 0x36, 0xbc, 0x5d, 0x83, 0xbc, 0xbd,
  0xbf, 0xd3, 0x14, 0xbe, 0xfc, 0x86, 0x68, 0xbe, 0x99, 0x9e, 0xdc, 0x3d,
  0x07, 0x6f, 0xf1, 0x3d, 0xed, 0x00, 0x22, 0x3e, 0x3f, 0x13, 0x86, 0xbe,
  0xc2, 0x40, 0x98, 0xbd, 0x18, 0xc7, 0x0f, 0x3f, 0x6a, 0x34, 0x45, 0x3e,
  0x78, 0x2f, 0x64, 0xbe, 0x6f, 0xb9, 0x39, 0xbd, 0xd7, 0xb4, 0x19, 0xbd,
  0x2b, 0xff, 0x20, 0x3e, 0x3d, 0xc2, 0xd5, 0xbd, 0x1a, 0xcb, 0xba, 0xbd,
  0x53, 0x20, 0x1c, 0x3e, 0xa1, 0x91, 0x59, 0x3d, 0xbb, 0x79, 0x10, 0xbc,
  0x92, 0x31, 0xd8, 0xbd, 0x9e, 0xd8, 0xa7, 0xbe, 0xcb, 0xee, 0x82, 0x3e,
  0x0b, 0x5e, 0x3e, 0xbe, 0xe7, 0x43, 0xe9, 0xbd, 0xc9, 0xf9, 0xe8, 0x3d,
  0x2e, 0x60, 0x8d, 0x3d, 0x60, 0x98, 0xe8, 0xbd, 0x48, 0xef, 0x6e, 0xbe,
  0xba, 0x48, 0x77, 0xbe, 0xae, 0x79, 0x9d, 0xbe, 0x88, 0xf2, 0x88, 0x3d,
  0x3d, 0x3a, 0x2c, 0x3d, 0xea, 0xe6, 0xb7, 0x3d, 0x57, 0x00, 0x4f, 0xba,
  0xf3, 0x28, 0x57, 0xbd, 0x01, 0xad, 0x20, 0x3d, 0x81, 0x5c, 0x9b, 0x3d,
  0x3e, 0xa2, 0x5e, 0xbd, 0x0c, 0x4b, 0x21, 0xbe, 0x4d, 0xb4, 0x4f, 0xbe,
  0xc1, 0xb3, 0xe1, 0x3d, 0x57, 0x22, 0x0d, 0xbd, 0x65, 0xb9, 0xc8, 0xbc,
  0x9f, 0xb9, 0x11, 0xbe, 0x24, 0x7e, 0xaa, 0xbe, 0x04, 0xcb, 0x5f, 0xbe,
  0x57, 0xcc, 0xaf, 0xbd, 0xab, 0x99, 0x31, 0x3d, 0x4f, 0x70, 0x4e, 0xbe,
  0xfe, 0x27, 0x9a, 0x3c, 0xb4, 0xd7, 0x80, 0xbe, 0x07, 0xee, 0x2f, 0x3d,
  0x8c, 0x23, 0x26, 0xbe, 0xac, 0xf3, 0x04, 0x3e, 0x26, 0x40, 0x0b, 0xbc,
  0x9e, 0x7a, 0xd1, 0xbb, 0xf9, 0x35, 0xe0, 0x3e, 0x95, 0x3d, 0xc6, 0x3d,
  0xfb, 0x38, 0x82, 0xbe, 0x6c, 0x7c, 0x8d, 0xbd, 0x3b, 0x21, 0xd8, 0xbd,
  0x8e, 0x93, 0x81, 0x3d, 0x08, 0x75, 0x44, 0x3e, 0x0e, 0x92, 0x2f, 0xbe,
  0x50, 0x29, 0x5c, 0x3e, 0x89, 0xa3, 0x35, 0x3d, 0x1f, 0xc4, 0xfa, 0xbc,
  0x84, 0x5b, 0xac, 0xbe, 0x05, 0xfe, 0x5c, 0xbe, 0xcb, 0xbd, 0x36, 0x3e,
  0xdb, 0x78, 0xd1, 0x3c, 0xa1, 0x60, 0x3c, 0xbe, 0x68, 0xdd, 0xe4, 0x3d,
  0x7f, 0xb3, 0x0f, 0x3e, 0x96, 0x45, 0xc3, 0xbd, 0x76, 0x5e, 0x34, 0xbe,
  0x60, 0xe2, 0xd2, 0xbd, 0x63, 0x05, 0x7e, 0xbd, 0xc9, 0x36, 0x06, 0xbe,
  0xc0, 0xdf, 0x0a, 0xbe, 0x39, 0xe3, 0x88, 0x3c, 0x2e, 0x75, 0xd5, 0x3d,
  0xf5, 0x1f, 0x7f, 0xbd, 0x47, 0x4a, 0xba, 0xbd, 0xf6, 0x1e, 0xb5, 0xbe,
  0xa9, 0xae, 0x65, 0xbd, 0x50, 0x74, 0x49, 0x3d, 0xa6, 0x11, 0x39, 0xbd,
  0xe4, 0x20, 0x3e, 0x3d, 0xd2, 0xec, 0x63, 0xbe, 0x10, 0x5a, 0x28, 0xbe,
  0x5b, 0xa7, 0xe8, 0x3c, 0xa2, 0x4f, 0xd1, 0xbd, 0x40, 0x40, 0x1d, 0xbe,
  0x15, 0xe5, 0xc4, 0xbd, 0x4c, 0x4e, 0xdf, 0xbd, 0x27, 0xc0, 0x57, 0xbe,
  0x73, 0x88, 0xe0, 0x3c, 0xab, 0x48, 0x39, 0xbd, 0x4c, 0x8d, 0xca, 0xbd,
  0x57, 0x5a, 0xa4, 0xbe, 0x9b, 0xc2, 0x07, 0x3e, 0x62, 0x3e, 0xb7, 0xbd,
  0xc5, 0xf5, 0x4c, 0xbe, 0xe4, 0xa5, 0xd1, 0x3d, 0x1c, 0x32, 0x0a, 0x3e,
  0x8a, 0x64, 0x15, 0xbe, 0xc8, 0xaf, 0x98, 0xbe, 0x2e, 0x6f, 0x9b, 0xbd,
  0x31, 0x9a, 0xa5, 0xbe, 0xc6, 0xca, 0x19, 0xbe, 0x0c, 0x17, 0x00, 0xbe,
  0xd5, 0xba, 0x6e, 0xbe, 0x49, 0x34, 0xec, 0x3d, 0xa5, 0xd0, 0x7d, 0x3c,
  0x93, 0x56, 0x4d, 0xbe, 0x01, 0x97, 0xcb, 0xbc, 0x6b, 0x51, 0x2b, 0x3e,
  0x65, 0x5f, 0x56, 0xbe, 0x46, 0xdf, 0x96, 0x3d, 0x7d, 0x66, 0xa5, 0xbd,
  0xd0, 0x25, 0x3a, 0xbe, 0x5e, 0x89, 0x46, 0xbe, 0xf0, 0xeb, 0x3d, 0xbe,
  0x78, 0x54, 0xa0, 0xbe, 0x13, 0x34, 0xe7, 0xbe, 0x33, 0x1e, 0x28, 0xbd,
  0x33, 0xb4, 0x7b, 0xbe, 0x2d, 0x50, 0xbe, 0xbd, 0x39, 0xa5, 0x4c, 0xbc,
  0x0d, 0xd9, 0x24, 0xbc, 0x0f, 0xbf, 0x92, 0xbd, 0x6a, 0x51, 0x76, 0xbe,
  0x58, 0x20, 0x52, 0xbe, 0x15, 0xe4, 0x62, 0xbe, 0x27, 0x5b, 0x4a, 0xbe,
  0x30, 0x97, 0xcb, 0x3d, 0xd9, 0xc8, 0x82, 0xbd, 0x9d, 0x5a, 0xc9, 0x3c,
  0x6c, 0xb8, 0x12, 0xbd, 0xee, 0xec, 0x11, 0xbd, 0xf9, 0x04, 0xe5, 0xbd,
  0x24, 0x02, 0xb8, 0x3a, 0xd2, 0x54, 0x50, 0xbe, 0x14, 0x8c, 0xb0, 0xbd,
  0xd4, 0xce, 0x22, 0x3e, 0xcc, 0x49, 0xac, 0x3d, 0xb9, 0x18, 0xb1, 0xbd,
  0x2b, 0xa3, 0x84, 0x3d, 0xca, 0xf4, 0x5c, 0x3e, 0x3f, 0xf5, 0x66, 0xbe,
  0x4a, 0x14, 0xf2, 0xbd, 0xbe, 0x35, 0xb9, 0xbc, 0x7a, 0xc7, 0x9e, 0xbb,
  0x3b, 0xa8, 0x19, 0x3e, 0x84, 0xa9, 0x91, 0xbc, 0x41, 0x38, 0xa5, 0xbd,
  0xc4, 0x22, 0xb2, 0xbe, 0x5a, 0x6a, 0x0c, 0xbe, 0x22, 0xd5, 0xe5, 0x3c,
  0x1a, 0xcb, 0x0e, 0x3e, 0xbf, 0xa6, 0x90, 0x3d, 0xa7, 0x19, 0x58, 0xbd,
  0x48, 0x77, 0x36, 0xbd, 0xd9, 0x89, 0x2e, 0xbe, 0xda, 0x6c, 0xcd, 0xbc,
  0x0d, 0x70, 0x77, 0xbe, 0x39, 0xb9, 0x86, 0xbe, 0xd9, 0x0c, 0xf0, 0x3c,
  0xe9, 0x0d, 0xf0, 0xbd, 0xba, 0x94, 0x17, 0x3d, 0x8e, 0x5b, 0x91, 0xbe,
  0x80, 0xdf, 0x9b, 0xbe, 0xf3, 0x9b, 0x89, 0xbd, 0x41, 0x8e, 0x14, 0x3d,
  0xf7, 0x2d, 0x91, 0xbd, 0xf9, 0x25, 0x06, 0xbe, 0x9b, 0x92, 0x1b, 0xbd,
  0xa0, 0x4b, 0x05, 0x3d, 0x52, 0x7e, 0x91, 0xbe, 0xb3, 0xcf, 0x9f, 0xbe,
  0x8f, 0xf7, 0xe9, 0x3d, 0x9a, 0x6e, 0x24, 0xbd, 0x50, 0x3f, 0x4b, 0xbd,
  0x41, 0xec, 0x8e, 0x3b, 0x8c, 0x9b, 0x95, 0xbd, 0x75, 0x25, 0x0a, 0xbd,
  0xb4, 0x85, 0x70, 0x3d, 0x02, 0xd0, 0x05, 0xbe, 0xaa, 0x1e, 0x18, 0xbe,
  0x16, 0x39, 0xe7, 0xbe, 0xb2, 0x00, 0xa2, 0xbd, 0xb0, 0x16, 0x00, 0xbd,
  0xab, 0x27, 0xbf, 0x3d, 0xba, 0x50, 0x98, 0xbc, 0xc7, 0x5a, 0x0f, 0xbe,
  0xc7, 0xd2, 0x1d, 0xbd, 0x5c, 0xf7, 0x37, 0x3e, 0x56, 0xdf, 0xe1, 0x3c,
  0x14, 0x0a, 0x58, 0xbd, 0x1e, 0x97, 0x1f, 0x3e, 0xc8, 0x21, 0x86, 0x3e,
  0xb6, 0x5f, 0xe5, 0x3c, 0xeb, 0x3f, 0x65, 0x3e, 0x85, 0x90, 0xa1, 0xbd,
  0x2f, 0x23, 0x57, 0xbe, 0xcb, 0xa6, 0xb6, 0xbe, 0x52, 0xa4, 0x2b, 0xbe,
  0x57, 0x8b, 0x2e, 0x3e, 0x2c, 0xd3, 0xd8, 0x3c, 0x07, 0xc2, 0x93, 0x3e,
  0x85, 0x13, 0xdf, 0xbd, 0x39, 0x7b, 0xc5, 0x3d, 0x55, 0x0f, 0x82, 0x3e,
  0xec, 0xd7, 0x93, 0xbb, 0x58, 0xd6, 0x59, 0x3c, 0xf2, 0x86, 0x36, 0xbd,
  0x24, 0x59, 0xe2, 0x3c, 0x06, 0xe1, 0x30, 0xbe, 0x24, 0xa4, 0xb2, 0x3e,
  0x9e, 0x2d, 0x86, 0x3e, 0xb8, 0x3c, 0x83, 0xbe, 0xd3, 0xc1, 0xed, 0xbe,
  0x46, 0x1e, 0xc1, 0xbd, 0x15, 0x12, 0x6a, 0xbc, 0x80, 0x74, 0x31, 0xbe,
  0x8f, 0x9e, 0x96, 0x3e, 0x69, 0xdd, 0xc4, 0x3d, 0x1d, 0x85, 0x0a, 0xbc,
  0x5e, 0x40, 0x52, 0x3e, 0xe3, 0x1f, 0x9f, 0x3d, 0x6e, 0xae, 0x35, 0x3d,
  0xb9, 0x04, 0x4e, 0x3e, 0xb7, 0x10, 0x8b, 0x3d, 0x12, 0xe4, 0x13, 0x3d,
  0xf5, 0xa1, 0xaf, 0x3e, 0x80, 0xd7, 0xf2, 0xbd, 0x9b, 0x00, 0xc6, 0xbd,
  0xdf, 0x10, 0xfe, 0xbe, 0xc4, 0x6c, 0x5d, 0x3e, 0x15, 0x4c, 0x29, 0xbd,
  0x87, 0x1e, 0xee, 0xbb, 0xc1, 0xe9, 0xf6, 0x3e, 0xb4, 0x23, 0xe3, 0x3d,
  0x8a, 0xac, 0x8f, 0xbb, 0x1a, 0x1f, 0x99, 0x3e, 0x44, 0x53, 0xc2, 0x3d,
  0x9b, 0x90, 0xbe, 0xbc, 0x19, 0x53, 0x3e, 0x3e, 0x96, 0x26, 0x78, 0xbe,
  0x9d, 0x52, 0x18, 0xbd, 0xce, 0xd1, 0x4d, 0x3e, 0x17, 0x63, 0xcd, 0xbd,
  0xc1, 0x11, 0xc6, 0xbe, 0x11, 0x3f, 0xde, 0xbe, 0x9a, 0x82, 0xef, 0x3c,
  0x93, 0x9d, 0x7b, 0xbd, 0x03, 0x04, 0x9f, 0xbd, 0xf0, 0x0c, 0x1d, 0x3e,
  0x5b, 0x47, 0xaa, 0x3d, 0xa0, 0xe1, 0xa0, 0xbd, 0xdb, 0x6a, 0xab, 0x3e,
  0x6e, 0xa0, 0xa5, 0x3d, 0xe7, 0xe7, 0x1f, 0x3d, 0x89, 0xbf, 0x1e, 0x3e,
  0xe4, 0x91, 0x19, 0xbd, 0x87, 0xf8, 0x21, 0xbe, 0x2a, 0x5a, 0x2d, 0x3e,
  0x5d, 0x17, 0x02, 0xbe, 0x8b, 0x1d, 0x0f, 0xbf, 0xdc, 0xc5, 0x28, 0xbf,
  0x6e, 0x50, 0x2f, 0xbd, 0x54, 0x9d, 0x79, 0x3c, 0xad, 0x65, 0xc9, 0xbd,
  0xa0, 0x8f, 0x5c, 0x3d, 0xeb, 0x85, 0x3d, 0xbd, 0x06, 0xb0, 0x50, 0xbe,
  0x20, 0xb5, 0xf6, 0x3d, 0xa5, 0x98, 0x88, 0x3d, 0x4b, 0x75, 0x28, 0xbe,
  0xec, 0xfc, 0x00, 0xbd, 0x4b, 0x83, 0x96, 0x3e, 0x7d, 0xf3, 0x0e, 0xbd,
  0x9a, 0xee, 0x9c, 0x3d, 0x3a, 0x74, 0x02, 0xbe, 0x4f, 0x67, 0xb5, 0xbe,
  0xca, 0x66, 0x58, 0xbe, 0x04, 0x8f, 0x22, 0xbe, 0x53, 0x87, 0x6e, 0xbe,
  0x01, 0xec, 0xdc, 0xbd, 0x89, 0x3b, 0x47, 0x3e, 0xa4, 0x2d, 0x54, 0xbe,
  0xcc, 0x63, 0x68, 0xbe, 0x95, 0x34, 0x36, 0x3e, 0x79, 0xd5, 0x4c, 0xbe,
  0xd2, 0xb2, 0xfa, 0xbd, 0xd9, 0xb4, 0xc5, 0x3e, 0x8c, 0x9f, 0x7c, 0xbe,
  0x6d, 0xfc, 0x08, 0x3e, 0x02, 0x36, 0x48, 0xbd, 0xc3, 0x29, 0x98, 0x3b,
  0x5f, 0x9e, 0x54, 0xbe, 0x52, 0x2c, 0xde, 0xbd, 0xc4, 0x97, 0x9a, 0xbd,
  0x41, 0xdb, 0x21, 0x3d, 0x45, 0x05, 0x0e, 0xbe, 0x6a, 0xd9, 0xa7, 0xbb,
  0x11, 0xa1, 0xcf, 0xbd, 0x98, 0x68, 0x91, 0xbb, 0x29, 0xe1, 0x9b, 0xbd,
  0xa9, 0x03, 0x8d, 0xbd, 0x74, 0x69, 0xad, 0xbd, 0xe7, 0x8c, 0xec, 0x3d,
  0xcc, 0xf4, 0x62, 0xbe, 0xd4, 0x1e, 0x94, 0xbd, 0xf5, 0x02, 0x00, 0xbe,
  0xd3, 0x1a, 0xcf, 0xbd, 0x1b, 0x74, 0x69, 0xbe, 0xd3, 0xf1, 0xc8, 0xbd,
  0x15, 0x42, 0x28, 0xbd, 0xa4, 0x06, 0x3f, 0xbe, 0xa8, 0x79, 0xb6, 0xbd,
  0x08, 0xcc, 0x64, 0x3e, 0xb4, 0x30, 0xda, 0xba, 0x4a, 0x4c, 0x68, 0xbe,
  0xf0, 0x69, 0x47, 0x3d, 0x67, 0x63, 0x0b, 0x3e, 0xb4, 0x81, 0x5e, 0xbd,
  0x55, 0xd7, 0x56, 0x3e, 0x05, 0x93, 0x95, 0x3d, 0x79, 0xc1, 0xce, 0x3d,
  0x1a, 0xd8, 0xb2, 0x3d, 0x70, 0x86, 0x2b, 0xbe, 0x82, 0x72, 0x4d, 0xbd,
  0x7a, 0xb1, 0xd1, 0xbd, 0xaa, 0x75, 0xfa, 0xbd, 0x83, 0x44, 0x40, 0x3e,
  0x18, 0x93, 0x42, 0x3c, 0x9e, 0x71, 0x8d, 0xbb, 0x76, 0x84, 0x21, 0xbe,
  0xc0, 0xc8, 0x03, 0xbe, 0x1f, 0x7c, 0x81, 0x3d, 0x22, 0x04, 0xd8, 0x3d,
  0xef, 0x7d, 0x08, 0xbe, 0x75, 0xaa, 0x87, 0x3b, 0x65, 0x56, 0x73, 0x3d,
  0xc3, 0x23, 0xf4, 0x3d, 0x60, 0xbf, 0x32, 0xbd, 0xdc, 0xdd, 0xd4, 0xbc,
  0xdc, 0x00, 0x29, 0x3d, 0x20, 0x89, 0xc9, 0xbb, 0xc9, 0xcb, 0xfb, 0xbd,
  0xb4, 0xff, 0x54, 0x3e, 0x79, 0x3e, 0x23, 0xbd, 0x8d, 0xa5, 0xdc, 0xbb,
  0xba, 0x97, 0x09, 0x3e, 0x56, 0xce, 0x40, 0xbe, 0x02, 0x71, 0xc0, 0xbb,
  0xde, 0xc2, 0x11, 0xbe, 0xc3, 0xf3, 0xab, 0x3c, 0xf9, 0xdb, 0x80, 0x3c,
  0xc0, 0x89, 0x87, 0x3d, 0x45, 0x37, 0x8e, 0x3d, 0x53, 0x5c, 0x9b, 0xbe,
  0x8d, 0x99, 0x26, 0x3d, 0x59, 0xbf, 0x69, 0xbe, 0x23, 0x0b, 0x5f, 0x3d,
  0xc4, 0xfa, 0x6e, 0xbd, 0x89, 0x6d, 0xe4, 0xbd, 0x4b, 0xbb, 0x2f, 0xbe,
  0x40, 0x25, 0x3b, 0xbd, 0xb9, 0x44, 0x9f, 0xbe, 0x26, 0xe9, 0x93, 0xbc,
  0x8d, 0xce, 0x96, 0x3d, 0x6a, 0x55, 0x5c, 0x3a, 0x7f, 0x3b, 0x71, 0xbd,
  0x2f, 0x04, 0x31, 0x3e, 0x79, 0x0e, 0x46, 0xbc, 0x04, 0x4b, 0x4a, 0xbd,
  0x1b, 0x54, 0x33, 0x3a, 0x19, 0x8d, 0x27, 0x3e, 0x37, 0x90, 0xfa, 0x3d,
  0x5d, 0xe4, 0x2d, 0xbe, 0xea, 0x58, 0x2b, 0xbd, 0xed, 0xad, 0xe2, 0x3d,
  0x99, 0x6b, 0x49, 0xbd, 0x5b, 0x3f, 0xc5, 0xbd, 0xc9, 0xe8, 0x63, 0x3d,
  0x00, 0x5e, 0xb4, 0xbe, 0xa9, 0x9a, 0x6a, 0x3d, 0xcf, 0x48, 0x77, 0xbe,
  0x95, 0x13, 0x2d, 0xbe, 0x69, 0x04, 0x60, 0x3e, 0xcb, 0xd1, 0xce, 0xbc,
  0x93, 0xe3, 0x0d, 0x3e, 0x34, 0x2a, 0xab, 0xbd, 0x38, 0x88, 0x9d, 0x3d,
  0x18, 0xb3, 0x8f, 0xbe, 0x8f, 0x8d, 0x0c, 0xbd, 0xb8, 0x2c, 0x71, 0xbe,
  0x7b, 0xac, 0x86, 0xbd, 0xbf, 0x4e, 0xe4, 0xbc, 0x5d, 0xb4, 0x7e, 0x3d,
  0x86, 0x40, 0x33, 0xbe, 0x67, 0xca, 0xd6, 0xbc, 0x9b, 0x90, 0x8a, 0xbd,
  0x3e, 0x57, 0x56, 0x3b, 0x9a, 0xfa, 0xbf, 0xbc, 0x4e, 0xf3, 0x20, 0xbe,
  0x68, 0x6e, 0xca, 0xbe, 0x99, 0x52, 0xbf, 0xbe, 0x6f, 0x6a, 0x37, 0xbe,
  0x87, 0xf7, 0xdd, 0xbd, 0xf5, 0x4d, 0x91, 0xbe, 0x82, 0x1a, 0x80, 0xbe,
  0xab, 0x75, 0xe6, 0xbe, 0x51, 0x77, 0xb7, 0xbd, 0xec, 0x6a, 0x08, 0x3d,
  0x3e, 0xcd, 0x96, 0xbe, 0x39, 0x3a, 0xf6, 0xbe, 0x8b, 0x98, 0x67, 0xbe,
  0x18, 0xae, 0xf4, 0xbe, 0x94, 0x0a, 0xeb, 0xbe, 0x42, 0x40, 0xd8, 0xbe,
  0x51, 0x83, 0x91, 0xbe, 0x98, 0x5a, 0xc8, 0x3d, 0xe8, 0x90, 0x10, 0x3d,
  0x71, 0x9c, 0x98, 0x3d, 0xb1, 0x6c, 0x46, 0xbd, 0xa9, 0x8d, 0x4d, 0xbe,
  0x50, 0x08, 0x9d, 0xbe, 0xce, 0x31, 0x40, 0xbd, 0x63, 0x01, 0xe2, 0xbd,
  0x52, 0x72, 0xed, 0x3d, 0x3e, 0xa8, 0x95, 0xbd, 0x43, 0x56, 0xa1, 0xbe,
  0x33, 0x50, 0xa4, 0xbd, 0x43, 0x26, 0x3d, 0xbe, 0x8c, 0x5d, 0x02, 0xbe,
  0x4f, 0x77, 0x70, 0xbe, 0x06, 0xbd, 0xed, 0xbe, 0xe4, 0xc2, 0xa7, 0xbd,
  0x23, 0xe5, 0xb2, 0xbd, 0x6b, 0x23, 0x63, 0x3b, 0x58, 0x51, 0x83, 0xbd,
  0xf3, 0x54, 0x4d, 0xbe, 0x9c, 0x81, 0xaf, 0xbe, 0xba, 0x84, 0xfe, 0xbc,
  0x2b, 0x32, 0xa1, 0xbe, 0x0b, 0xa7, 0xab, 0xbd, 0x14, 0xb9, 0xc2, 0xbe,
  0xb0, 0x24, 0x97, 0xbe, 0xe7, 0x93, 0x4c, 0xbe, 0xe4, 0xb4, 0x06, 0xbe,
  0x5f, 0x21, 0x81, 0xbe, 0x3d, 0x52, 0xac, 0xbe, 0xdb, 0x4a, 0x22, 0xbe,
  0xb3, 0xf4, 0x87, 0xbd, 0x87, 0xed, 0x9f, 0xbd, 0xd6, 0xaf, 0x06, 0xbe,
  0xdd, 0x2c, 0xaa, 0xbd, 0x46, 0xa7, 0x2d, 0xbe, 0x76, 0xa6, 0xe0, 0xbe,
  0xef, 0x30, 0x85, 0xbd, 0x65, 0xc1, 0x7d, 0xbe, 0x1a, 0x7d, 0x16, 0x3e,
  0x66, 0x9d, 0xb3, 0xbe, 0x97, 0xb0, 0x02, 0xbf, 0x82, 0xcd, 0x20, 0xbf,
  0xf3, 0x41, 0x52, 0xbe, 0xf0, 0x87, 0xed, 0xbe, 0xac, 0xd5, 0xb1, 0xbe,
  0xb6, 0x42, 0x84, 0xbd, 0x5f, 0x4d, 0x74, 0x3e, 0x2c, 0x68, 0xa1, 0x3c,
  0x11, 0xff, 0xb7, 0xbd, 0x03, 0x37, 0xb1, 0xbd, 0xfe, 0x9c, 0x50, 0xbe,
  0x5b, 0x68, 0xbe, 0xbe, 0xa2, 0x6b, 0x07, 0xbe, 0x57, 0x53, 0xe3, 0xbe,
  0xc3, 0x30, 0x32, 0xbe, 0x81, 0xf7, 0x97, 0xbe, 0x0f, 0x5c, 0xb7, 0xbe,
  0x46, 0xbd, 0x28, 0x3d, 0xc5, 0x28, 0x8c, 0x3d, 0xc6, 0x15, 0x02, 0x3e,
  0xc0, 0xcc, 0x10, 0xbf, 0x36, 0xe6, 0x85, 0xbe, 0x4a, 0xd3, 0x96, 0x3e,
  0xec, 0xd2, 0xb6, 0x3e, 0xd7, 0xfc, 0x0c, 0x3e, 0x3b, 0x0f, 0x2b, 0x3c,
  0xe2, 0xdf, 0x34, 0xbe, 0x29, 0xe5, 0x82, 0xbe, 0x9d, 0xd0, 0x34, 0x3c,
  0xc3, 0x08, 0xfb, 0xbe, 0x89, 0x24, 0x45, 0xbe, 0xbd, 0x88, 0x90, 0x3e,
  0xe1, 0x2b, 0xf3, 0xbe, 0x8d, 0x15, 0xcd, 0xbc, 0x6f, 0x00, 0x4c, 0x3e,
  0xbf, 0x1d, 0x6f, 0x3c, 0xf2, 0x98, 0xb0, 0xbb, 0xd0, 0x3c, 0x3d, 0xbe,
  0x44, 0x3c, 0xdd, 0x3e, 0x00, 0xbc, 0xe7, 0x3d, 0xc4, 0x08, 0xe0, 0x3d,
  0xf5, 0x2f, 0x4c, 0x3d, 0x60, 0xf5, 0x35, 0x3e, 0xbd, 0xe8, 0x52, 0x3e,
  0x35, 0xa5, 0x98, 0x3d, 0xaf, 0x91, 0x81, 0xbe, 0x09, 0x4e, 0x9d, 0x3c,
  0xa6, 0xcf, 0x88, 0x3e, 0xb7, 0xc5, 0x10, 0xbe, 0xa4, 0xbd, 0x97, 0x3d,
  0x8b, 0xb7, 0x26, 0x3d, 0xb1, 0x38, 0x19, 0x3d, 0xe1, 0x5d, 0x06, 0x3d,
  0xe8, 0x70, 0x0a, 0xbe, 0x5c, 0xf2, 0xa6, 0x3c, 0xce, 0xd8, 0x62, 0xbd,
  0xd3, 0x2e, 0x60, 0xbd, 0xe3, 0x12, 0xc0, 0x3d, 0x12, 0xa1, 0xc2, 0x3c,
  0x2a, 0xaf, 0x17, 0xbf, 0x82, 0x81, 0xd4, 0xbe, 0x9b, 0x8f, 0x89, 0x3d,
  0x00, 0x36, 0xb8, 0x3d, 0xb8, 0x89, 0x42, 0xbe, 0x11, 0x4b, 0x28, 0xbe,
  0xd2, 0xe1, 0xf2, 0xbd, 0x87, 0x9e, 0x7a, 0x3e, 0x38, 0xb9, 0xbc, 0xbe,
  0x1c, 0xd2, 0xbc, 0xbe, 0xc7, 0xd0, 0x69, 0x3e, 0x06, 0xcd, 0x6e, 0x3e,
  0xb5, 0x9f, 0xe2, 0xbd, 0xef, 0x1a, 0x85, 0x3e, 0x9a, 0xf0, 0xe6, 0xbc,
  0xc3, 0x0e, 0xef, 0x3c, 0xdb, 0xb6, 0x03, 0xbf, 0x91, 0x0e, 0xcb, 0xbe,
  0x5f, 0xbb, 0x33, 0x3e, 0x8f, 0xb9, 0x8c, 0x3b, 0x98, 0x28, 0x0b, 0xbe,
  0xa4, 0x40, 0xe9, 0xbd, 0x3b, 0x98, 0x22, 0xbe, 0x4f, 0xf8, 0xe8, 0x3e,
  0x25, 0xc4, 0x12, 0xbe, 0x17, 0x4c, 0xc4, 0x3c, 0x94, 0x94, 0x1c, 0x3e,
  0x75, 0x6b, 0x90, 0x3d, 0x5e, 0xf1, 0x09, 0xbd, 0x8a, 0xa1, 0x88, 0x3e,
  0x9c, 0xad, 0x0e, 0x3c, 0x37, 0xab, 0x67, 0x3d, 0xc1, 0xbd, 0x0f, 0xbf,
  0x55, 0xc4, 0x08, 0xbe, 0xf4, 0x81, 0xc8, 0x3d, 0xfb, 0xcc, 0x95, 0xbd,
  0x98, 0xff, 0x6f, 0xbd, 0xdf, 0xb2, 0x21, 0x3d, 0xfc, 0x6d, 0x28, 0xbe,
  0xe1, 0xc4, 0x35, 0x3f, 0x60, 0xde, 0x86, 0xbe, 0xb7, 0x12, 0x6e, 0x3d,
  0xdb, 0x65, 0x0d, 0x3e, 0x71, 0x3b, 0x43, 0x3e, 0xff, 0xb1, 0x5c, 0x3d,
  0x48, 0x8a, 0xa9, 0x3e, 0x22, 0x05, 0xac, 0xbd, 0x2b, 0x60, 0x07, 0x3d,
  0xd8, 0x69, 0x08, 0xbf, 0x70, 0xe2, 0x02, 0xbd, 0xde, 0x5c, 0x4d, 0x3d,
  0x27, 0x8d, 0x91, 0xbd, 0x0d, 0x70, 0x57, 0x3e, 0x1d, 0x26, 0xa0, 0xbc,
  0x44, 0x85, 0x69, 0xbe, 0x77, 0x84, 0x0d, 0x3f, 0x7a, 0xcf, 0x2b, 0xbe,
  0x50, 0xa4, 0x84, 0x3c, 0x49, 0x1c, 0x3e, 0x3e, 0xf7, 0x05, 0x6d, 0xbc,
  0xb3, 0xb5, 0x84, 0x3c, 0x44, 0x7b, 0x83, 0x3e, 0x97, 0x82, 0x69, 0xbb,
  0x77, 0x44, 0xc0, 0x3c, 0x1f, 0x94, 0x42, 0xbe, 0x25, 0xf3, 0xf8, 0x3b,
  0x72, 0x84, 0x25, 0x3e, 0x84, 0xcd, 0x43, 0x3d, 0xaa, 0xe5, 0x15, 0xbe,
  0x10, 0xaa, 0xe0, 0xbc, 0x8f, 0x71, 0x5e, 0xbe, 0xe4, 0xcb, 0x2a, 0x3f,
  0x26, 0xfa, 0x24, 0xbe, 0x58, 0xde, 0x03, 0xbe, 0x61, 0xc2, 0x1b, 0x3e,
  0x90, 0xf6, 0xb0, 0x3d, 0xbc, 0x81, 0x50, 0xbe, 0xa0, 0x29, 0x47, 0x3e,
  0xf0, 0x5d, 0x41, 0x3d, 0xab, 0x6f, 0x28, 0xbb, 0x5e, 0x5d, 0xbf, 0x3e,
  0x98, 0x1c, 0xbc, 0xbe, 0xf6, 0xa2, 0xbb, 0xbd, 0x13, 0x8b, 0x2b, 0xbe,
  0x68, 0x1e, 0xac, 0xbc, 0xaf, 0x26, 0x75, 0x3d, 0x41, 0x7f, 0x06, 0xbf,
  0x57, 0x92, 0xa5, 0x3e, 0xf3, 0x36, 0xd9, 0xbe, 0xc5, 0x28, 0x8c, 0xbe,
  0x43, 0x33, 0xa3, 0x3e, 0x9e, 0x4a, 0x0e, 0xbd, 0x06, 0x67, 0xb8, 0x3b,
  0x4b, 0x25, 0x4a, 0x3d, 0x8d, 0x8a, 0x8b, 0x3d, 0x84, 0x42, 0x83, 0x3c,
  0x2b, 0xe7, 0x14, 0x3e, 0x96, 0x18, 0x3d, 0xbe, 0x0a, 0xee, 0x39, 0xbd,
  0xc6, 0x42, 0x4f, 0x3d, 0x9e, 0xf4, 0x87, 0x3d, 0xf2, 0xab, 0x10, 0x3e,
  0xf0, 0x95, 0x8b, 0xbe, 0x7b, 0xe1, 0x15, 0x3e, 0x5c, 0x22, 0xb0, 0xbd,
  0xa5, 0x0a, 0x22, 0xbe, 0x1f, 0x09, 0x48, 0xbc, 0xe1, 0x2e, 0xf4, 0x3d,
  0x3b, 0x59, 0x70, 0xbd, 0x76, 0xb6, 0x41, 0xbe, 0x3d, 0x3f, 0x23, 0xbe,
  0xf3, 0x43, 0x4c, 0xbe, 0x9d, 0x60, 0x24, 0x3d, 0xfc, 0x0c, 0x6d, 0xbd,
  0x12, 0x0c, 0xf3, 0xbd, 0x1e, 0xab, 0x33, 0xbe, 0xf3, 0xda, 0x65, 0x3c,
  0x1b, 0xf6, 0x32, 0x3c, 0x15, 0x29, 0x40, 0xbe, 0xc5, 0x7a, 0xcb, 0x3d,
  0x62, 0x52, 0x15, 0x3d, 0xa9, 0x60, 0xcc, 0xbd, 0xd7, 0xae, 0x35, 0x3e,
  0x85, 0x5b, 0x2e, 0xbe, 0xd6, 0xcc, 0x42, 0xbe, 0xed, 0x80, 0x83, 0xbd,
  0x40, 0xdf, 0xd2, 0x3d, 0x9c, 0x29, 0x8b, 0xbd, 0xff, 0xf7, 0xa5, 0x3d,
  0x1f, 0xd6, 0x1d, 0xbe, 0xec, 0xe4, 0x5b, 0xbe, 0xe0, 0x64, 0x03, 0x3e,
  0xde, 0x05, 0x0b, 0xba, 0x86, 0xe1, 0x5e, 0xbe, 0x9c, 0xdf, 0x7d, 0xbe,
  0xa5, 0x66, 0x5c, 0xbe, 0xa8, 0x34, 0x8a, 0x3d, 0x52, 0xdf, 0x8d, 0xbd,
  0xe7, 0x0b, 0xc2, 0xbd, 0x62, 0x05, 0xa6, 0xbc, 0xb0, 0x4d, 0x58, 0xbe,
  0x2d, 0xa2, 0xdb, 0x3d, 0x2e, 0x2f, 0x49, 0xbe, 0x22, 0xdb, 0xa0, 0x3b,
  0x70, 0x9c, 0xf5, 0xbd, 0x8d, 0xb8, 0x36, 0x3d, 0xe4, 0x57, 0xbf, 0x3b,
  0xbd, 0x40, 0xd8, 0x3d, 0x05, 0x3b, 0x14, 0xbe, 0x52, 0x35, 0x59, 0xbe,
  0x0b, 0xea, 0xa5, 0xbe, 0x08, 0x8a, 0xe3, 0xbd, 0x9d, 0xd2, 0x9e, 0xbd,
  0x2c, 0x30, 0x43, 0xbd, 0xbf, 0x69, 0x9e, 0x3c, 0x0f, 0x96, 0x14, 0x3e,
  0xe4, 0xee, 0x4b, 0xbe, 0x00, 0x3f, 0x57, 0xbe, 0xd1, 0x3b, 0x94, 0x3e,
  0x82, 0x10, 0x3d, 0xbe, 0x46, 0x29, 0xe3, 0xbd, 0xca, 0x36, 0x9c, 0xbd,
  0x65, 0x2a, 0x29, 0xbe, 0x4d, 0x4d, 0xaf, 0xbc, 0xd3, 0x25, 0x22, 0x3e,
  0x50, 0xcf, 0x7f, 0xbe, 0x97, 0x56, 0x44, 0xbe, 0x62, 0x6e, 0x0e, 0x3e,
  0x0b, 0x25, 0xba, 0xbd, 0xe1, 0x51, 0xba, 0xbc, 0xdd, 0xfd, 0x2a, 0xbd,
  0xf4, 0xd9, 0xcd, 0xbd, 0x6a, 0x94, 0x10, 0xb8, 0x69, 0x2b, 0x5f, 0x3d,
  0x4e, 0x63, 0x54, 0xbd, 0x54, 0x6c, 0x97, 0xbe, 0xe9, 0xdb, 0x4e, 0xbe,
  0x3a, 0xeb, 0x7c, 0xbe, 0xe8, 0xa4, 0x23, 0xbe, 0x36, 0x6a, 0x33, 0xbd,
  0xd0, 0x37, 0x35, 0xbd, 0xc8, 0x5e, 0xc9, 0x3d, 0x54, 0x6d, 0x2b, 0xbe,
  0x7b, 0xb4, 0x04, 0x3e, 0xf1, 0xaf, 0x0c, 0x3d, 0xbd, 0x38, 0x5d, 0x3d,
  0xa4, 0x3b, 0x1a, 0x3e, 0x7e, 0x13, 0x0d, 0x3e, 0x70, 0xc7, 0xd4, 0x3d,
  0x9f, 0x7c, 0x6a, 0xbe, 0x5f, 0x32, 0xa8, 0x3d, 0x7e, 0x99, 0x19, 0xbe,
  0x47, 0x68, 0x97, 0xbe, 0x8e, 0x63, 0x3d, 0xbd, 0x6f, 0x4d, 0x0f, 0xbe,
  0x67, 0x68, 0x34, 0x3d, 0x94, 0x91, 0x12, 0x3d, 0x9a, 0xc8, 0xad, 0x3c,
  0x07, 0x5c, 0x34, 0xbd, 0x6d, 0x31, 0x4b, 0xbe, 0xae, 0xdd, 0x3b, 0xbe,
  0xda, 0x57, 0x88, 0xbe, 0x5e, 0x2e, 0x05, 0xbd, 0x09, 0x69, 0x37, 0x3e,
  0xab, 0xed, 0x6a, 0x3d, 0xe4, 0xce, 0xa7, 0xbd, 0x1c, 0x6b, 0x02, 0xbe,
  0xe9, 0xb3, 0x35, 0xbc, 0x7c, 0xe0, 0xfb, 0x3d, 0xee, 0x0e, 0x34, 0xbe,
  0xef, 0x6e, 0x41, 0xbe, 0x83, 0x49, 0x3d, 0x3e, 0x21, 0xbb, 0xf7, 0xbd,
  0xa8, 0x0b, 0x8d, 0xbe, 0xbc, 0x9b, 0x70, 0xbe, 0x7c, 0x87, 0x42, 0x3e,
  0x19, 0xc1, 0x55, 0xbd, 0x1f, 0x3a, 0xf5, 0x3d, 0xcc, 0x7f, 0x56, 0x3e,
  0x46, 0xfe, 0xff, 0xff, 0x10, 0x00, 0x00, 0x00, 0x05, 0x00, 0x00, 0x00,
  0x14, 0x00, 0x00, 0x00, 0x2c, 0x00, 0x00, 0x00, 0x02, 0x00, 0x00, 0x00,
  0x10, 0x00, 0x00, 0x00, 0x70, 0x00, 0x00, 0x00, 0x17, 0x00, 0x00, 0x00,
  0x73, 0x65, 0x71, 0x75, 0x65, 0x6e, 0x74, 0x69, 0x61, 0x6c, 0x2f, 0x64,
  0x65, 0x6e, 0x73, 0x65, 0x2f, 0x4d, 0x61, 0x74, 0x4d, 0x75, 0x6c, 0x00,
  0x34, 0xfe, 0xff, 0xff, 0x2a, 0xff, 0xff, 0xff, 0x04, 0x00, 0x00, 0x00,
  0x08, 0x00, 0x00, 0x00, 0xff, 0xff, 0xff, 0xff, 0x70, 0x00, 0x00, 0x00,
  0x00, 0x00, 0x0e, 0x00, 0x18, 0x00, 0x08, 0x00, 0x07, 0x00, 0x0c, 0x00,
  0x10, 0x00, 0x14, 0x00, 0x0e, 0x00, 0x00, 0x00, 0x00, 0x00, 0x00, 0x02,
  0x10, 0x00, 0x00, 0x00, 0x04, 0x00, 0x00, 0x00, 0x10, 0x00, 0x00, 0x00,
  0x2c, 0x00, 0x00, 0x00, 0x01, 0x00, 0x00, 0x00, 0x02, 0x00, 0x00, 0x00,
  0x18, 0x00, 0x00, 0x00, 0x73, 0x65, 0x71, 0x75, 0x65, 0x6e, 0x74, 0x69,
  0x61, 0x6c, 0x2f, 0x66, 0x6c, 0x61, 0x74, 0x74, 0x65, 0x6e, 0x2f, 0x43,
  0x6f, 0x6e, 0x73, 0x74, 0x00, 0x00, 0x00, 0x00, 0x9c, 0xfe, 0xff, 0xff,
  0x92, 0xff, 0xff, 0xff, 0x04, 0x00, 0x00, 0x00, 0x10, 0x00, 0x00, 0x00,
  0x9f, 0x1c, 0x8c, 0x3e, 0x77, 0x3e, 0x18, 0xc0, 0xae, 0x9f, 0x2e, 0x3e,
  0xf1, 0xa2, 0x10, 0xbe, 0x0a, 0xff, 0xff, 0xff, 0x10, 0x00, 0x00, 0x00,
  0x03, 0x00, 0x00, 0x00, 0x10, 0x00, 0x00, 0x00, 0x3c, 0x00, 0x00, 0x00,
  0x01, 0x00, 0x00, 0x00, 0x04, 0x00, 0x00, 0x00, 0x29, 0x00, 0x00, 0x00,
  0x73, 0x65, 0x71, 0x75, 0x65, 0x6e, 0x74, 0x69, 0x61, 0x6c, 0x2f, 0x64,
  0x65, 0x6e, 0x73, 0x65, 0x5f, 0x31, 0x2f, 0x42, 0x69, 0x61, 0x73, 0x41,
  0x64, 0x64, 0x2f, 0x52, 0x65, 0x61, 0x64, 0x56, 0x61, 0x72, 0x69, 0x61,
  0x62, 0x6c, 0x65, 0x4f, 0x70, 0x00, 0x00, 0x00, 0x60, 0xff, 0xff, 0xff,
  0x00, 0x00, 0x06, 0x00, 0x08, 0x00, 0x04, 0x00, 0x06, 0x00, 0x00, 0x00,
  0x04, 0x00, 0x00, 0x00, 0x40, 0x00, 0x00, 0x00, 0x33, 0x0d, 0x00, 0x40,
  0x6d, 0x42, 0xfe, 0xbf, 0x50, 0x44, 0xe6, 0x3e, 0x6c, 0x06, 0xa8, 0xbf,
  0x1a, 0x07, 0x63, 0x3f, 0x3c, 0xb2, 0x0f, 0xc0, 0xc1, 0x1c, 0x29, 0x40,
  0xdf, 0x27, 0x90, 0xbf, 0x5c, 0x12, 0x90, 0x3f, 0xa0, 0xf2, 0x25, 0x3e,
  0xdb, 0x2f, 0xa2, 0xbe, 0x13, 0x41, 0xac, 0xbe, 0x61, 0x1d, 0x3e, 0x3e,
  0xfd, 0x6b, 0xa2, 0xbf, 0x69, 0x45, 0x6b, 0x40, 0x7b, 0x2e, 0x92, 0x3d,
  0xae, 0xff, 0xff, 0xff, 0x10, 0x00, 0x00, 0x00, 0x02, 0x00, 0x00, 0x00,
  0x10, 0x00, 0x00, 0x00, 0x3c, 0x00, 0x00, 0x00, 0x01, 0x00, 0x00, 0x00,
  0x10, 0x00, 0x00, 0x00, 0x27, 0x00, 0x00, 0x00, 0x73, 0x65, 0x71, 0x75,
  0x65, 0x6e, 0x74, 0x69, 0x61, 0x6c, 0x2f, 0x64, 0x65, 0x6e, 0x73, 0x65,
  0x2f, 0x42, 0x69, 0x61, 0x73, 0x41, 0x64, 0x64, 0x2f, 0x52, 0x65, 0x61,
  0x64, 0x56, 0x61, 0x72, 0x69, 0x61, 0x62, 0x6c, 0x65, 0x4f, 0x70, 0x00,
  0x04, 0x00, 0x06, 0x00, 0x04, 0x00, 0x00, 0x00, 0x00, 0x00, 0x0e, 0x00,
  0x14, 0x00, 0x04, 0x00, 0x00, 0x00, 0x08, 0x00, 0x0c, 0x00, 0x10, 0x00,
  0x0e, 0x00, 0x00, 0x00, 0x10, 0x00, 0x00, 0x00, 0x01, 0x00, 0x00, 0x00,
  0x1c, 0x00, 0x00, 0x00, 0x2c, 0x00, 0x00, 0x00, 0x04, 0x00, 0x00, 0x00,
  0x01, 0x00, 0x00, 0x00, 0x40, 0x00, 0x00, 0x00, 0x03, 0x00, 0x00, 0x00,
  0x01, 0x00, 0x00, 0x00, 0x0c, 0x00, 0x00, 0x00, 0x63, 0x6f, 0x6e, 0x76,
  0x32, 0x64, 0x5f, 0x69, 0x6e, 0x70, 0x75, 0x74, 0x00, 0x00, 0x00, 0x00,
  0xfc, 0xff, 0xff, 0xff, 0x04, 0x00, 0x04, 0x00, 0x04, 0x00, 0x00, 0x00
};
unsigned int _model_tflite_len = 12384;

