#include "magic_wand_model_data.h"

// We need to keep the data array aligned on some architectures.
#ifdef __has_attribute
#define HAVE_ATTRIBUTE(x) __has_attribute(x)
#else
#define HAVE_ATTRIBUTE(x) 0
#endif
#if HAVE_ATTRIBUTE(aligned) || (defined(__GNUC__) && !defined(__clang__))
#define DATA_ALIGN_ATTRIBUTE __attribute__((aligned(4)))
#else
#define DATA_ALIGN_ATTRIBUTE
#endif



const unsigned char g_magic_wand_model_data[] DATA_ALIGN_ATTRIBUTE =  {
  0x08, 0x00, 0x00, 0x00, 0x54, 0x46, 0x4c, 0x33, 0x62, 0xff, 0xff, 0xff,
  0x03, 0x00, 0x00, 0x00, 0x10, 0x00, 0x00, 0x00, 0x24, 0x00, 0x00, 0x00,
  0x78, 0x00, 0x00, 0x00, 0x24, 0x00, 0x00, 0x00, 0x05, 0x00, 0x00, 0x00,
  0x78, 0x05, 0x00, 0x00, 0xb0, 0x04, 0x00, 0x00, 0xe0, 0x02, 0x00, 0x00,
  0x60, 0x02, 0x00, 0x00, 0x54, 0x01, 0x00, 0x00, 0x01, 0x00, 0x00, 0x00,
  0x78, 0x00, 0x00, 0x00, 0x13, 0x00, 0x00, 0x00, 0xd4, 0x2f, 0x00, 0x00,
  0xd0, 0x2f, 0x00, 0x00, 0xdc, 0x2e, 0x00, 0x00, 0x68, 0x2e, 0x00, 0x00,
  0xfc, 0x2d, 0x00, 0x00, 0xac, 0x11, 0x00, 0x00, 0x98, 0x10, 0x00, 0x00,
  0xbc, 0x0e, 0x00, 0x00, 0x60, 0x06, 0x00, 0x00, 0xfc, 0x05, 0x00, 0x00,
  0x78, 0x05, 0x00, 0x00, 0xa8, 0x2f, 0x00, 0x00, 0xa4, 0x2f, 0x00, 0x00,
  0xa0, 0x2f, 0x00, 0x00, 0x9c, 0x2f, 0x00, 0x00, 0x98, 0x2f, 0x00, 0x00,
  0x94, 0x2f, 0x00, 0x00, 0x90, 0x2f, 0x00, 0x00, 0x8c, 0x2f, 0x00, 0x00,
  0x0f, 0x00, 0x00, 0x00, 0x4d, 0x4c, 0x49, 0x52, 0x20, 0x43, 0x6f, 0x6e,
  0x76, 0x65, 0x72, 0x74, 0x65, 0x64, 0x2e, 0x00, 0x00, 0x00, 0x0e, 0x00,
  0x18, 0x00, 0x04, 0x00, 0x08, 0x00, 0x0c, 0x00, 0x10, 0x00, 0x14, 0x00,
  0x0e, 0x00, 0x00, 0x00, 0x14, 0x00, 0x00, 0x00, 0x5c, 0x00, 0x00, 0x00,
  0x60, 0x00, 0x00, 0x00, 0x64, 0x00, 0x00, 0x00, 0x84, 0x00, 0x00, 0x00,
  0x12, 0x00, 0x00, 0x00, 0x04, 0x2f, 0x00, 0x00, 0xa0, 0x2e, 0x00, 0x00,
  0xf8, 0x2d, 0x00, 0x00, 0x98, 0x2d, 0x00, 0x00, 0x30, 0x2d, 0x00, 0x00,
  0xdc, 0x10, 0x00, 0x00, 0xc0, 0x0f, 0x00, 0x00, 0xe4, 0x0d, 0x00, 0x00,
  0xa0, 0x05, 0x00, 0x00, 0x3c, 0x05, 0x00, 0x00, 0xb0, 0x04, 0x00, 0x00,
  0xe8, 0x03, 0x00, 0x00, 0x38, 0x03, 0x00, 0x00, 0xa4, 0x02, 0x00, 0x00,
  0x10, 0x02, 0x00, 0x00, 0x90, 0x01, 0x00, 0x00, 0xfc, 0x00, 0x00, 0x00,
  0x80, 0x00, 0x00, 0x00, 0x01, 0x00, 0x00, 0x00, 0x00, 0x00, 0x00, 0x00,
  0x01, 0x00, 0x00, 0x00, 0x11, 0x00, 0x00, 0x00, 0x08, 0x00, 0x00, 0x00,
  0x1c, 0x04, 0x00, 0x00, 0x58, 0x03, 0x00, 0x00, 0xc8, 0x02, 0x00, 0x00,
  0x24, 0x02, 0x00, 0x00, 0xac, 0x01, 0x00, 0x00, 0x10, 0x01, 0x00, 0x00,
  0x94, 0x00, 0x00, 0x00, 0x10, 0x00, 0x00, 0x00, 0x04, 0x00, 0x00, 0x00,
  0x6d, 0x61, 0x69, 0x6e, 0x00, 0x00, 0x00, 0x00, 0x8e, 0xff, 0xff, 0xff,
  0x00, 0x00, 0x00, 0x09, 0x04, 0x00, 0x00, 0x00, 0x1c, 0x00, 0x00, 0x00,
  0x10, 0x00, 0x00, 0x00, 0x04, 0x00, 0x00, 0x00, 0x4e, 0xd2, 0xff, 0xff,
  0x00, 0x00, 0x80, 0x3f, 0x01, 0x00, 0x00, 0x00, 0x11, 0x00, 0x00, 0x00,
  0x01, 0x00, 0x00, 0x00, 0x10, 0x00, 0x00, 0x00, 0xf6, 0xfb, 0xff, 0xff,
  0x00, 0x00, 0x00, 0x19, 0x01, 0x00, 0x00, 0x00, 0xce, 0xd1, 0xff, 0xff,
  0x10, 0x00, 0x00, 0x00, 0x12, 0x00, 0x00, 0x00, 0x14, 0x00, 0x00, 0x00,
  0x20, 0x00, 0x00, 0x00, 0x02, 0x00, 0x00, 0x00, 0x01, 0x00, 0x00, 0x00,
  0x03, 0x00, 0x00, 0x00, 0x08, 0x00, 0x00, 0x00, 0x49, 0x64, 0x65, 0x6e,
  0x74, 0x69, 0x74, 0x79, 0x00, 0x00, 0x00, 0x00, 0x08, 0xd2, 0xff, 0xff,
  0x00, 0x00, 0x0e, 0x00, 0x18, 0x00, 0x08, 0x00, 0x0c, 0x00, 0x10, 0x00,
  0x07, 0x00, 0x14, 0x00, 0x0e, 0x00, 0x00, 0x00, 0x00, 0x00, 0x00, 0x08,
  0x03, 0x00, 0x00, 0x00, 0x18, 0x00, 0x00, 0x00, 0x0c, 0x00, 0x00, 0x00,
  0x04, 0x00, 0x00, 0x00, 0xdc, 0xd1, 0xff, 0xff, 0x01, 0x00, 0x00, 0x00,
  0x10, 0x00, 0x00, 0x00, 0x03, 0x00, 0x00, 0x00, 0x0f, 0x00, 0x00, 0x00,
  0x05, 0x00, 0x00, 0x00, 0x02, 0x00, 0x00, 0x00, 0x46, 0xd2, 0xff, 0xff,
  0x10, 0x00, 0x00, 0x00, 0x11, 0x00, 0x00, 0x00, 0x14, 0x00, 0x00, 0x00,
  0x30, 0x00, 0x00, 0x00, 0x02, 0x00, 0x00, 0x00, 0x01, 0x00, 0x00, 0x00,
  0x03, 0x00, 0x00, 0x00, 0x1a, 0x00, 0x00, 0x00, 0x73, 0x65, 0x71, 0x75,
  0x65, 0x6e, 0x74, 0x69, 0x61, 0x6c, 0x2f, 0x64, 0x65, 0x6e, 0x73, 0x65,
  0x5f, 0x31, 0x2f, 0x42, 0x69, 0x61, 0x73, 0x41, 0x64, 0x64, 0x00, 0x00,
  0x38, 0xd2, 0xff, 0xff, 0xd6, 0xfd, 0xff, 0xff, 0x00, 0x00, 0x00, 0x08,
  0x03, 0x00, 0x00, 0x00, 0x24, 0x00, 0x00, 0x00, 0x18, 0x00, 0x00, 0x00,
  0x0c, 0x00, 0x00, 0x00, 0x00, 0x00, 0x06, 0x00, 0x08, 0x00, 0x07, 0x00,
  0x06, 0x00, 0x00, 0x00, 0x00, 0x00, 0x00, 0x01, 0x01, 0x00, 0x00, 0x00,
  0x0f, 0x00, 0x00, 0x00, 0x03, 0x00, 0x00, 0x00, 0x0e, 0x00, 0x00, 0x00,
  0x04, 0x00, 0x00, 0x00, 0x01, 0x00, 0x00, 0x00, 0xfe, 0xfc, 0xff, 0xff,
  0x00, 0x00, 0x00, 0x09, 0x01, 0x00, 0x00, 0x00, 0xd6, 0xd2, 0xff, 0xff,
  0x10, 0x00, 0x00, 0x00, 0x10, 0x00, 0x00, 0x00, 0x14, 0x00, 0x00, 0x00,
  0x2c, 0x00, 0x00, 0x00, 0x02, 0x00, 0x00, 0x00, 0x01, 0x00, 0x00, 0x00,
  0x10, 0x00, 0x00, 0x00, 0x15, 0x00, 0x00, 0x00, 0x73, 0x65, 0x71, 0x75,
  0x65, 0x6e, 0x74, 0x69, 0x61, 0x6c, 0x2f, 0x64, 0x65, 0x6e, 0x73, 0x65,
  0x2f, 0x52, 0x65, 0x6c, 0x75, 0x00, 0x00, 0x00, 0x1c, 0xd3, 0xff, 0xff,
  0x00, 0x00, 0x0a, 0x00, 0x10, 0x00, 0x04, 0x00, 0x08, 0x00, 0x0c, 0x00,
  0x0a, 0x00, 0x00, 0x00, 0x02, 0x00, 0x00, 0x00, 0x10, 0x00, 0x00, 0x00,
  0x04, 0x00, 0x00, 0x00, 0x01, 0x00, 0x00, 0x00, 0x0e, 0x00, 0x00, 0x00,
  0x02, 0x00, 0x00, 0x00, 0x0d, 0x00, 0x00, 0x00, 0x03, 0x00, 0x00, 0x00,
  0x7a, 0xfd, 0xff, 0xff, 0x00, 0x00, 0x00, 0x16, 0x01, 0x00, 0x00, 0x00,
  0x52, 0xd3, 0xff, 0xff, 0x10, 0x00, 0x00, 0x00, 0x0f, 0x00, 0x00, 0x00,
  0x14, 0x00, 0x00, 0x00, 0x30, 0x00, 0x00, 0x00, 0x02, 0x00, 0x00, 0x00,
  0x01, 0x00, 0x00, 0x00, 0x70, 0x00, 0x00, 0x00, 0x1a, 0x00, 0x00, 0x00,
  0x73, 0x65, 0x71, 0x75, 0x65, 0x6e, 0x74, 0x69, 0x61, 0x6c, 0x2f, 0x66,
  0x6c, 0x61, 0x74, 0x74, 0x65, 0x6e, 0x2f, 0x52, 0x65, 0x73, 0x68, 0x61,
  0x70, 0x65, 0x00, 0x00, 0x44, 0xd3, 0xff, 0xff, 0xe2, 0xfe, 0xff, 0xff,
  0x00, 0x00, 0x00, 0x05, 0x01, 0x00, 0x00, 0x00, 0x38, 0x00, 0x00, 0x00,
  0x2c, 0x00, 0x00, 0x00, 0x14, 0x00, 0x00, 0x00, 0x00, 0x00, 0x0e, 0x00,
  0x14, 0x00, 0x00, 0x00, 0x10, 0x00, 0x0c, 0x00, 0x08, 0x00, 0x04, 0x00,
  0x0e, 0x00, 0x00, 0x00, 0x03, 0x00, 0x00, 0x00, 0x01, 0x00, 0x00, 0x00,
  0x03, 0x00, 0x00, 0x00, 0x01, 0x00, 0x00, 0x00, 0x01, 0x00, 0x00, 0x00,
  0x0d, 0x00, 0x00, 0x00, 0x01, 0x00, 0x00, 0x00, 0x0c, 0x00, 0x00, 0x00,
  0xe2, 0xd3, 0xff, 0xff, 0x10, 0x00, 0x00, 0x00, 0x0e, 0x00, 0x00, 0x00,
  0x1c, 0x00, 0x00, 0x00, 0x40, 0x00, 0x00, 0x00, 0x04, 0x00, 0x00, 0x00,
  0x01, 0x00, 0x00, 0x00, 0x07, 0x00, 0x00, 0x00, 0x01, 0x00, 0x00, 0x00,
  0x10, 0x00, 0x00, 0x00, 0x22, 0x00, 0x00, 0x00, 0x73, 0x65, 0x71, 0x75,
  0x65, 0x6e, 0x74, 0x69, 0x61, 0x6c, 0x2f, 0x6d, 0x61, 0x78, 0x5f, 0x70,
  0x6f, 0x6f, 0x6c, 0x69, 0x6e, 0x67, 0x32, 0x64, 0x5f, 0x31, 0x2f, 0x4d,
  0x61, 0x78, 0x50, 0x6f, 0x6f, 0x6c, 0x00, 0x00, 0xe4, 0xd3, 0xff, 0xff,
  0xc2, 0xfe, 0xff, 0xff, 0x00, 0x00, 0x00, 0x01, 0x24, 0x00, 0x00, 0x00,
  0x18, 0x00, 0x00, 0x00, 0x04, 0x00, 0x00, 0x00, 0xb4, 0xfe, 0xff, 0xff,
  0x01, 0x00, 0x00, 0x00, 0x01, 0x00, 0x00, 0x00, 0x00, 0x00, 0x00, 0x01,
  0x01, 0x00, 0x00, 0x00, 0x0c, 0x00, 0x00, 0x00, 0x03, 0x00, 0x00, 0x00,
  0x0b, 0x00, 0x00, 0x00, 0x07, 0x00, 0x00, 0x00, 0x09, 0x00, 0x00, 0x00,
  0x72, 0xd4, 0xff, 0xff, 0x10, 0x00, 0x00, 0x00, 0x0d, 0x00, 0x00, 0x00,
  0x1c, 0x00, 0x00, 0x00, 0x2c, 0x00, 0x00, 0x00, 0x04, 0x00, 0x00, 0x00,
  0x01, 0x00, 0x00, 0x00, 0x15, 0x00, 0x00, 0x00, 0x01, 0x00, 0x00, 0x00,
  0x10, 0x00, 0x00, 0x00, 0x0c, 0x00, 0x00, 0x00, 0x74, 0x66, 0x6c, 0x2e,
  0x63, 0x6f, 0x6e, 0x76, 0x5f, 0x32, 0x64, 0x31, 0x00, 0x00, 0x00, 0x00,
  0xb8, 0xd4, 0xff, 0xff, 0x00, 0x00, 0x0e, 0x00, 0x1a, 0x00, 0x08, 0x00,
  0x0c, 0x00, 0x10, 0x00, 0x07, 0x00, 0x14, 0x00, 0x0e, 0x00, 0x00, 0x00,
  0x00, 0x00, 0x00, 0x05, 0x01, 0x00, 0x00, 0x00, 0x3c, 0x00, 0x00, 0x00,
  0x30, 0x00, 0x00, 0x00, 0x14, 0x00, 0x00, 0x00, 0x00, 0x00, 0x0e, 0x00,
  0x18, 0x00, 0x17, 0x00, 0x10, 0x00, 0x0c, 0x00, 0x08, 0x00, 0x04, 0x00,
  0x0e, 0x00, 0x00, 0x00, 0x03, 0x00, 0x00, 0x00, 0x03, 0x00, 0x00, 0x00,
  0x03, 0x00, 0x00, 0x00, 0x03, 0x00, 0x00, 0x00, 0x00, 0x00, 0x00, 0x01,
  0x01, 0x00, 0x00, 0x00, 0x0b, 0x00, 0x00, 0x00, 0x01, 0x00, 0x00, 0x00,
  0x0a, 0x00, 0x00, 0x00, 0x46, 0xff, 0xff, 0xff, 0x00, 0x00, 0x00, 0x11,
  0x01, 0x00, 0x00, 0x00, 0x1e, 0xd5, 0xff, 0xff, 0x10, 0x00, 0x00, 0x00,
  0x0c, 0x00, 0x00, 0x00, 0x1c, 0x00, 0x00, 0x00, 0x40, 0x00, 0x00, 0x00,
  0x04, 0x00, 0x00, 0x00, 0x01, 0x00, 0x00, 0x00, 0x15, 0x00, 0x00, 0x00,
  0x01, 0x00, 0x00, 0x00, 0x08, 0x00, 0x00, 0x00, 0x20, 0x00, 0x00, 0x00,
  0x73, 0x65, 0x71, 0x75, 0x65, 0x6e, 0x74, 0x69, 0x61, 0x6c, 0x2f, 0x6d,
  0x61, 0x78, 0x5f, 0x70, 0x6f, 0x6f, 0x6c, 0x69, 0x6e, 0x67, 0x32, 0x64,
  0x2f, 0x4d, 0x61, 0x78, 0x50, 0x6f, 0x6f, 0x6c, 0x00, 0x00, 0x00, 0x00,
  0x78, 0xd5, 0xff, 0xff, 0x00, 0x00, 0x0e, 0x00, 0x14, 0x00, 0x00, 0x00,
  0x08, 0x00, 0x0c, 0x00, 0x07, 0x00, 0x10, 0x00, 0x0e, 0x00, 0x00, 0x00,
  0x00, 0x00, 0x00, 0x01, 0x30, 0x00, 0x00, 0x00, 0x24, 0x00, 0x00, 0x00,
  0x10, 0x00, 0x00, 0x00, 0x0c, 0x00, 0x10, 0x00, 0x00, 0x00, 0x04, 0x00,
  0x08, 0x00, 0x0f, 0x00, 0x0c, 0x00, 0x00, 0x00, 0x01, 0x00, 0x00, 0x00,
  0x01, 0x00, 0x00, 0x00, 0x00, 0x00, 0x00, 0x01, 0x01, 0x00, 0x00, 0x00,
  0x0a, 0x00, 0x00, 0x00, 0x03, 0x00, 0x00, 0x00, 0x00, 0x00, 0x00, 0x00,
  0x06, 0x00, 0x00, 0x00, 0x08, 0x00, 0x00, 0x00, 0x00, 0x00, 0x0a, 0x00,
  0x0c, 0x00, 0x07, 0x00, 0x00, 0x00, 0x08, 0x00, 0x0a, 0x00, 0x00, 0x00,
  0x00, 0x00, 0x00, 0x03, 0x01, 0x00, 0x00, 0x00, 0xe2, 0xd5, 0xff, 0xff,
  0x10, 0x00, 0x00, 0x00, 0x0b, 0x00, 0x00, 0x00, 0x1c, 0x00, 0x00, 0x00,
  0x28, 0x00, 0x00, 0x00, 0x04, 0x00, 0x00, 0x00, 0x01, 0x00, 0x00, 0x00,
  0x40, 0x00, 0x00, 0x00, 0x03, 0x00, 0x00, 0x00, 0x08, 0x00, 0x00, 0x00,
  0x0b, 0x00, 0x00, 0x00, 0x74, 0x66, 0x6c, 0x2e, 0x63, 0x6f, 0x6e, 0x76,
  0x5f, 0x32, 0x64, 0x00, 0xcc, 0xd5, 0xff, 0xff, 0xc2, 0xd6, 0xff, 0xff,
  0x04, 0x00, 0x00, 0x00, 0x40, 0x00, 0x00, 0x00, 0x4f, 0x17, 0xca, 0xbb,
  0x58, 0x9a, 0xc8, 0xbf, 0xa3, 0xbc, 0x83, 0xbb, 0xd5, 0x2e, 0xc3, 0xbf,
  0x38, 0xe0, 0xc7, 0xbd, 0x78, 0xaf, 0x2f, 0xbe, 0x33, 0xa2, 0x91, 0xbf,
  0x7e, 0xd3, 0x26, 0xbe, 0x73, 0xb0, 0xb7, 0xbe, 0x18, 0x5f, 0x2f, 0x3e,
  0x42, 0x44, 0x87, 0xbd, 0xc7, 0x58, 0x17, 0xbf, 0xcb, 0x72, 0xcb, 0xbb,
  0x4e, 0xe0, 0x9e, 0xbf, 0x11, 0x59, 0xb3, 0xbb, 0x8a, 0x1c, 0x7e, 0xbf,
  0x6a, 0xd6, 0xff, 0xff, 0x10, 0x00, 0x00, 0x00, 0x0a, 0x00, 0x00, 0x00,
  0x10, 0x00, 0x00, 0x00, 0x20, 0x00, 0x00, 0x00, 0x01, 0x00, 0x00, 0x00,
  0x10, 0x00, 0x00, 0x00, 0x0d, 0x00, 0x00, 0x00, 0x73, 0x74, 0x64, 0x2e,
  0x63, 0x6f, 0x6e, 0x73, 0x74, 0x61, 0x6e, 0x74, 0x31, 0x00, 0x00, 0x00,
  0x4c, 0xd6, 0xff, 0xff, 0x42, 0xd7, 0xff, 0xff, 0x04, 0x00, 0x00, 0x00,
  0x20, 0x00, 0x00, 0x00, 0x31, 0x10, 0x02, 0xbf, 0xa1, 0xb8, 0x0e, 0xc0,
  0x11, 0xfc, 0x39, 0xc0, 0x37, 0x29, 0x76, 0xbf, 0x5e, 0x8a, 0xae, 0xbf,
  0x36, 0xf4, 0x03, 0xc0, 0xa3, 0x8d, 0x19, 0xc0, 0xef, 0xf8, 0xae, 0xbf,
  0xca, 0xd6, 0xff, 0xff, 0x10, 0x00, 0x00, 0x00, 0x09, 0x00, 0x00, 0x00,
  0x10, 0x00, 0x00, 0x00, 0x20, 0x00, 0x00, 0x00, 0x01, 0x00, 0x00, 0x00,
  0x08, 0x00, 0x00, 0x00, 0x0c, 0x00, 0x00, 0x00, 0x73, 0x74, 0x64, 0x2e,
  0x63, 0x6f, 0x6e, 0x73, 0x74, 0x61, 0x6e, 0x74, 0x00, 0x00, 0x00, 0x00,
  0xac, 0xd6, 0xff, 0xff, 0xa2, 0xd7, 0xff, 0xff, 0x04, 0x00, 0x00, 0x00,
  0x00, 0x08, 0x00, 0x00, 0x34, 0x5d, 0xa2, 0x3d, 0x03, 0x01, 0x8a, 0xbd,
  0x31, 0x92, 0xa7, 0x3b, 0xfc, 0x57, 0x3b, 0x3e, 0x01, 0x1d, 0x0a, 0x3c,
  0x0e, 0x86, 0x27, 0x3e, 0x65, 0x74, 0x1f, 0xbd, 0xdc, 0x2c, 0xe8, 0xbb,
  0xe2, 0x42, 0x19, 0x3e, 0x0a, 0x7c, 0x0a, 0xbd, 0xae, 0x95, 0x5b, 0x3e,
  0x08, 0xa3, 0xdf, 0xbd, 0xd8, 0x0a, 0xe7, 0xbd, 0x0c, 0x20, 0xf7, 0xbd,
  0xf6, 0xea, 0x0f, 0x3e, 0xbc, 0x4f, 0x83, 0x3d, 0x99, 0xf6, 0x24, 0x3e,
  0xe7, 0xd6, 0xbe, 0xbc, 0x28, 0xf4, 0xd5, 0x3d, 0x92, 0xb0, 0x47, 0xbc,
  0x7d, 0xb9, 0x34, 0x3d, 0x0c, 0xc7, 0xc1, 0xbd, 0xee, 0xaa, 0x31, 0x3e,
  0x30, 0xee, 0x15, 0xbc, 0x11, 0xfb, 0x27, 0xbc, 0x49, 0xc9, 0xb4, 0xbd,
  0xc8, 0xc4, 0xbf, 0x3b, 0x73, 0x99, 0x73, 0x3d, 0x59, 0x52, 0x4a, 0xbc,
  0xad, 0x3c, 0x96, 0xbd, 0x8b, 0xcb, 0x2a, 0xbd, 0xda, 0x3d, 0x87, 0xbc,
  0x77, 0x0b, 0x78, 0xbe, 0x2a, 0xca, 0xca, 0xbc, 0x4a, 0xa6, 0x00, 0x3f,
  0xff, 0xa6, 0xdc, 0x3d, 0x0b, 0x62, 0x3e, 0xba, 0xc7, 0x71, 0x28, 0xbc,
  0xe7, 0x36, 0x3d, 0x3e, 0x8f, 0x9a, 0x79, 0x3d, 0x36, 0x5b, 0xbc, 0xbe,
  0x67, 0x0f, 0x6f, 0x3e, 0x16, 0x52, 0x77, 0xbd, 0xfc, 0xac, 0xb7, 0x3d,
  0x22, 0xfb, 0xdf, 0xbc, 0x90, 0x20, 0x87, 0x3e, 0x48, 0x46, 0x00, 0x3e,
  0x74, 0xbf, 0xc8, 0xbd, 0x03, 0x74, 0xf3, 0xbd, 0xe7, 0x4c, 0x88, 0x3e,
  0x20, 0xb9, 0xa4, 0xbd, 0xd4, 0x6d, 0xd5, 0xbd, 0x7e, 0x63, 0x80, 0xbd,
  0xd8, 0x8b, 0x89, 0xbe, 0x46, 0x56, 0x98, 0x3d, 0x43, 0x11, 0xfb, 0xbd,
  0x64, 0x7a, 0x28, 0xbd, 0x7c, 0x9b, 0x86, 0x3e, 0x96, 0x14, 0x12, 0xbe,
  0x35, 0xf5, 0x0f, 0xbe, 0x97, 0xf4, 0x18, 0xbe, 0xf0, 0xd7, 0x91, 0xbe,
  0xc2, 0xde, 0xf0, 0xbd, 0xfd, 0x91, 0x54, 0xbe, 0x31, 0x1d, 0x7d, 0xbc,
  0x5f, 0xb9, 0x1b, 0xbe, 0x25, 0xc7, 0xde, 0x3c, 0xe4, 0x3c, 0xef, 0xbd,
  0x02, 0x55, 0xaf, 0x3e, 0x2c, 0x23, 0x3c, 0xbe, 0x0b, 0x1d, 0x10, 0xbe,
  0x31, 0x98, 0x88, 0x3d, 0x14, 0x52, 0xb6, 0xbe, 0x12, 0x4e, 0xe8, 0x3d,
  0xc3, 0x60, 0x8c, 0x3c, 0xae, 0x21, 0x0e, 0xbe, 0x9b, 0xd4, 0x4f, 0x3d,
  0x23, 0x2a, 0xd0, 0xbc, 0xc2, 0x98, 0x31, 0xbe, 0x2a, 0x87, 0xae, 0x3d,
  0x61, 0xad, 0x29, 0xbe, 0x12, 0xc0, 0xa2, 0x3b, 0x0a, 0x75, 0x76, 0xbe,
  0x0f, 0xa8, 0xcf, 0xbd, 0xb4, 0xeb, 0xd1, 0xbe, 0xc7, 0x20, 0xe1, 0xbd,
  0x09, 0x3b, 0x4b, 0xbe, 0x2f, 0xf2, 0xd1, 0xbe, 0x61, 0xfa, 0xb3, 0xbe,
  0xda, 0x28, 0x56, 0xbb, 0x92, 0xa0, 0x9d, 0xbd, 0x3b, 0x3d, 0x3e, 0xbe,
  0x88, 0x8d, 0x9c, 0x3c, 0x87, 0x57, 0x32, 0x3e, 0xa5, 0x9f, 0xc9, 0x3d,
  0x66, 0xf5, 0x7a, 0xbd, 0x71, 0x75, 0xa9, 0x3e, 0xfc, 0x69, 0xe5, 0x3e,
  0x4d, 0x21, 0x98, 0xbe, 0x57, 0x8d, 0xd0, 0xbe, 0xeb, 0x59, 0x9f, 0xbd,
  0xf6, 0x9d, 0x3b, 0xbf, 0x5f, 0x0b, 0xd5, 0x3d, 0x32, 0xdb, 0x13, 0xbe,
  0x2f, 0x53, 0xd1, 0xbd, 0x32, 0xb1, 0xfb, 0x3d, 0xd1, 0x26, 0xc0, 0xbe,
  0x95, 0x96, 0x7b, 0xbf, 0x9e, 0x89, 0x41, 0xbe, 0x14, 0x8d, 0x1e, 0xbc,
  0xa3, 0x95, 0x8e, 0x3e, 0x92, 0x9b, 0x9c, 0xbe, 0x56, 0x6b, 0x35, 0xbe,
  0x30, 0x58, 0x81, 0x3e, 0x7e, 0x67, 0x69, 0x3c, 0x27, 0x00, 0xb5, 0x3c,
  0xf8, 0x9d, 0x50, 0xbd, 0x88, 0x86, 0x90, 0x3e, 0xc0, 0x21, 0x0b, 0xbf,
  0x99, 0x81, 0x1a, 0x3d, 0xaa, 0x99, 0x3e, 0xbe, 0x1b, 0xaa, 0xd2, 0xbd,
  0x6a, 0x69, 0x25, 0x3d, 0x95, 0x86, 0x3b, 0x3e, 0xc2, 0x4e, 0xb3, 0x3c,
  0x95, 0xd1, 0x2a, 0xbc, 0x2b, 0x62, 0xa4, 0xbd, 0xa5, 0x79, 0x2e, 0x3e,
  0xb3, 0xb8, 0x80, 0x3e, 0xaf, 0x05, 0x40, 0xbe, 0x7f, 0x57, 0x07, 0xbd,
  0xb4, 0x43, 0x3c, 0xbd, 0xde, 0xcf, 0x82, 0xbe, 0x28, 0x63, 0xd4, 0x3d,
  0xc6, 0x42, 0xae, 0xbe, 0xb6, 0x4a, 0x5b, 0x3d, 0x84, 0x95, 0x24, 0xbe,
  0x04, 0x8b, 0xa5, 0xbd, 0xf9, 0x9e, 0x94, 0xbd, 0xea, 0x7a, 0xea, 0x3d,
  0x75, 0xbd, 0x84, 0xbc, 0x85, 0x42, 0x40, 0x3d, 0xe6, 0xe2, 0xb5, 0x3b,
  0xf4, 0xe5, 0x3f, 0x3e, 0x38, 0xd0, 0x00, 0x3e, 0x6f, 0xaa, 0x8b, 0xbe,
  0xc0, 0x1e, 0x85, 0x3d, 0xad, 0xc4, 0x14, 0x3e, 0x8d, 0xc2, 0x8d, 0xbe,
  0xc7, 0xd4, 0xde, 0xbd, 0x09, 0x13, 0xed, 0x3d, 0xd5, 0x62, 0xb0, 0xbc,
  0x9a, 0xa2, 0x4c, 0x3b, 0x0f, 0x60, 0x1c, 0xbe, 0x38, 0x4d, 0x8a, 0xbe,
  0xcd, 0x5d, 0x23, 0x3e, 0xf7, 0x63, 0x65, 0xbe, 0x37, 0x7f, 0x04, 0x3e,
  0xe0, 0x0e, 0x72, 0xbc, 0x7e, 0x12, 0xbc, 0xbe, 0x28, 0x33, 0x1e, 0x3f,
  0x94, 0xf8, 0x12, 0x3e, 0x68, 0x4b, 0x08, 0xbe, 0x70, 0x50, 0xef, 0xbd,
  0x76, 0x72, 0x28, 0xbe, 0x4f, 0x97, 0xb9, 0x3d, 0xd9, 0x89, 0x27, 0xbd,
  0x32, 0xaf, 0x9b, 0xbe, 0x5c, 0xec, 0x6d, 0xbe, 0x44, 0x9b, 0x6c, 0x3e,
  0xed, 0x86, 0xd2, 0xbd, 0xe2, 0x97, 0x69, 0xbd, 0xf5, 0x2d, 0x10, 0xbe,
  0xf7, 0x14, 0x88, 0x3d, 0x27, 0xe9, 0xa3, 0x3e, 0xd0, 0x89, 0x86, 0xbe,
  0x65, 0xd6, 0xfd, 0xbd, 0x1b, 0xbf, 0xee, 0x3e, 0x2b, 0xd1, 0xa2, 0xbd,
  0xa2, 0xd5, 0x02, 0xbe, 0x8b, 0x15, 0x35, 0xbe, 0x83, 0xee, 0x72, 0xbd,
  0x5a, 0x57, 0x9d, 0x3d, 0x74, 0x88, 0x0d, 0xbe, 0x42, 0x08, 0x34, 0xbe,
  0x1f, 0x8b, 0x7c, 0xbd, 0x4d, 0x87, 0x9e, 0x3d, 0x02, 0x0a, 0x9b, 0x3e,
  0x3a, 0x32, 0xd6, 0xbd, 0x90, 0xb5, 0xbc, 0x3d, 0x01, 0xf1, 0x82, 0x3d,
  0x19, 0x73, 0x06, 0xbe, 0xc2, 0x93, 0xdd, 0xbd, 0x46, 0x42, 0x67, 0x3e,
  0x15, 0x52, 0xc9, 0xbe, 0xd8, 0xdc, 0x31, 0xbe, 0x9a, 0x81, 0x55, 0xbe,
  0xd7, 0x0a, 0x02, 0xbf, 0x2a, 0xfc, 0x83, 0x3e, 0xe4, 0x94, 0xd2, 0xbc,
  0x53, 0x1b, 0x09, 0x3f, 0xf7, 0x30, 0x39, 0x3e, 0x54, 0xb1, 0x03, 0xbf,
  0x00, 0xa6, 0x4e, 0xbf, 0xfc, 0x98, 0x69, 0xbe, 0xa3, 0x97, 0xa2, 0xbd,
  0x91, 0xc5, 0x78, 0x3d, 0xc9, 0x80, 0xa0, 0xbe, 0x41, 0xf3, 0x80, 0xbe,
  0x55, 0x53, 0x66, 0x3e, 0x5f, 0xea, 0xa5, 0xbd, 0xd5, 0x10, 0x8a, 0x3d,
  0x89, 0xf7, 0x43, 0xbe, 0xe8, 0xe8, 0x03, 0x3e, 0x95, 0x60, 0xe2, 0xbe,
  0x35, 0x9c, 0xd2, 0xbd, 0x88, 0x06, 0x88, 0xbe, 0x63, 0x37, 0x5c, 0x3e,
  0x51, 0xab, 0x00, 0x3e, 0x0c, 0x77, 0x93, 0x3e, 0x8f, 0x96, 0x2d, 0xbd,
  0xf7, 0x9c, 0x61, 0x3e, 0xb0, 0x86, 0x32, 0xbe, 0x36, 0x0a, 0x52, 0x3d,
  0xe1, 0xfc, 0x44, 0xbd, 0x86, 0x46, 0xfc, 0xbc, 0x81, 0xc4, 0xbc, 0xbd,
  0x07, 0x8b, 0xf2, 0xbb, 0x83, 0xe9, 0x51, 0xbd, 0x26, 0x3b, 0xe8, 0xbd,
  0x8c, 0xd9, 0x0d, 0x3d, 0xf9, 0x79, 0x77, 0xbe, 0xcd, 0x4f, 0xda, 0xbd,
  0x85, 0x36, 0xb3, 0xbd, 0xde, 0x3f, 0xee, 0xbc, 0x0a, 0xa7, 0x57, 0x3e,
  0x8b, 0x62, 0xb7, 0x3d, 0x75, 0xc9, 0xbf, 0x3e, 0xdf, 0x49, 0x82, 0x3e,
  0x3b, 0xf1, 0xf9, 0xbc, 0x11, 0x63, 0xd9, 0xbe, 0xac, 0x5c, 0x97, 0xbe,
  0x72, 0xe6, 0xdf, 0xbe, 0x3d, 0xf3, 0x8d, 0xbe, 0x7c, 0xf2, 0xdd, 0xbd,
  0xed, 0x3a, 0xef, 0xbd, 0xa1, 0x99, 0xea, 0xbe, 0x9b, 0x8c, 0x9d, 0xbe,
  0x30, 0xfe, 0x9d, 0x3d, 0x0d, 0x9d, 0x2c, 0x3e, 0x37, 0xf5, 0x73, 0xbe,
  0x10, 0x7f, 0xf3, 0x3d, 0x38, 0xd3, 0xb8, 0xbd, 0xe6, 0x1b, 0x1e, 0x3d,
  0x5e, 0x48, 0x2f, 0xbe, 0x52, 0xce, 0x29, 0xbd, 0x45, 0x78, 0x87, 0xbd,
  0x93, 0x8f, 0xdc, 0xbe, 0x6d, 0xac, 0x59, 0xbe, 0xfe, 0xf0, 0x01, 0xbe,
  0x12, 0xed, 0x24, 0xbe, 0xeb, 0xfe, 0xa4, 0xbe, 0xbd, 0x02, 0x14, 0xbf,
  0xe7, 0xe8, 0xed, 0xbd, 0x91, 0x53, 0x0c, 0xbd, 0x0b, 0x78, 0xd2, 0xbd,
  0x81, 0x57, 0x32, 0xbe, 0xd1, 0xec, 0xbd, 0x3c, 0xc4, 0x66, 0x86, 0xbd,
  0x59, 0xcf, 0x80, 0xbd, 0xd9, 0x7b, 0x2a, 0xbe, 0x24, 0xa8, 0x82, 0xbc,
  0x8d, 0x5c, 0x8c, 0x3e, 0x35, 0xd8, 0x89, 0x3e, 0x3d, 0x64, 0x0d, 0xbe,
  0x12, 0x73, 0x4b, 0xbe, 0x74, 0x93, 0x36, 0xbd, 0xb3, 0x6e, 0x8a, 0xbe,
  0xf3, 0x36, 0x15, 0x3f, 0xde, 0x5f, 0xbb, 0xbb, 0xd9, 0x28, 0xe7, 0xbc,
  0x5a, 0xd1, 0xe5, 0x3d, 0x04, 0xb7, 0x3f, 0xbd, 0xae, 0xcb, 0xc6, 0xbd,
  0x6c, 0x7e, 0xa0, 0xbd, 0xac, 0x6c, 0x45, 0x3e, 0x03, 0x24, 0xa5, 0xbd,
  0x58, 0xde, 0x16, 0xbd, 0x38, 0xe7, 0xec, 0x3d, 0x2a, 0x81, 0x76, 0x3e,
  0x19, 0x6e, 0x47, 0xbe, 0x45, 0x28, 0x30, 0x3e, 0xdc, 0x7f, 0x66, 0xbe,
  0x70, 0xa7, 0xb9, 0x3c, 0xae, 0x36, 0x36, 0xbd, 0xea, 0xcc, 0xaa, 0xbe,
  0xa9, 0x21, 0x1a, 0x3d, 0x9e, 0x1c, 0xb2, 0x3e, 0x3e, 0x74, 0x3a, 0xbe,
  0xc3, 0x11, 0x12, 0xbe, 0x40, 0x64, 0xe8, 0xbd, 0x99, 0xcb, 0x0d, 0x3d,
  0x33, 0x3c, 0x53, 0xbd, 0x5e, 0x20, 0x6e, 0xbb, 0xd0, 0x48, 0xe3, 0xbd,
  0x5d, 0x5b, 0x37, 0xbe, 0xd1, 0x77, 0x8b, 0xbd, 0xfb, 0x31, 0x63, 0x3e,
  0x6c, 0x3f, 0xa3, 0xbe, 0x18, 0x33, 0x86, 0xbd, 0x44, 0xdc, 0x08, 0x3e,
  0x04, 0x55, 0xc3, 0xbb, 0xc0, 0xf9, 0x99, 0x3d, 0xa2, 0x82, 0x41, 0x3e,
  0xbc, 0x61, 0x07, 0xbe, 0x43, 0x76, 0xfd, 0x3d, 0x9d, 0xaa, 0xea, 0xbe,
  0xf9, 0xf5, 0x97, 0xbc, 0x56, 0xec, 0xab, 0x3b, 0x1a, 0x89, 0xda, 0x3d,
  0x5f, 0x12, 0x89, 0xbd, 0xf1, 0xa1, 0x54, 0x3e, 0x92, 0xe9, 0xf9, 0xbd,
  0x7e, 0xb9, 0x11, 0xbe, 0x5a, 0x19, 0x30, 0xbe, 0x8a, 0xb6, 0x09, 0x3d,
  0x49, 0xcd, 0xd5, 0xbd, 0x39, 0x07, 0x50, 0xbe, 0xec, 0x08, 0x3a, 0x3e,
  0x77, 0xdd, 0x9b, 0x3e, 0x45, 0xcd, 0x13, 0xbe, 0x79, 0xc0, 0x32, 0xbe,
  0x29, 0x8f, 0x1a, 0xbe, 0xfe, 0x66, 0x94, 0xbd, 0x21, 0x8e, 0xef, 0x3e,
  0x1b, 0x03, 0xab, 0xbe, 0x30, 0x62, 0x8c, 0xbd, 0xe8, 0x7d, 0xae, 0x3e,
  0x6d, 0x78, 0x02, 0xbd, 0x6a, 0x1a, 0x22, 0xbd, 0x3c, 0x34, 0x5d, 0xbe,
  0x1c, 0xc7, 0xbd, 0xbb, 0x32, 0x6d, 0x48, 0xbe, 0x4c, 0x78, 0x81, 0xbe,
  0x6f, 0xf6, 0x90, 0xbd, 0x2d, 0xdb, 0xc3, 0x3e, 0x67, 0xf1, 0x24, 0x3d,
  0x37, 0x35, 0xe0, 0x3d, 0x2b, 0x3b, 0xfb, 0xbd, 0xf0, 0xbe, 0x24, 0x3e,
  0xc3, 0xd9, 0x22, 0x3e, 0x3e, 0xb3, 0x21, 0xbe, 0x15, 0xaa, 0x03, 0x3e,
  0x2d, 0x1a, 0x19, 0x3f, 0x6d, 0x8b, 0x1d, 0xbe, 0x88, 0xdc, 0x1b, 0x3e,
  0x1b, 0x8c, 0xa5, 0xbd, 0x92, 0xfd, 0xf6, 0xbd, 0x6e, 0x39, 0x4b, 0x3d,
  0xa8, 0xee, 0x6c, 0xbd, 0x59, 0x41, 0x74, 0xbd, 0x84, 0xef, 0xc7, 0x3e,
  0x33, 0x7d, 0x3a, 0xbe, 0x3b, 0xfd, 0x85, 0xbe, 0x1c, 0xa8, 0xbd, 0xbd,
  0x2d, 0xf8, 0x93, 0xbe, 0x5e, 0x5f, 0x44, 0x3e, 0x40, 0x7d, 0x2c, 0xbd,
  0x28, 0xcd, 0x0f, 0x3c, 0x0d, 0x3e, 0x24, 0xbf, 0x4d, 0xab, 0xa8, 0xbe,
  0x43, 0x21, 0x15, 0xbf, 0x37, 0x69, 0x8e, 0xbd, 0x98, 0xf0, 0x49, 0xbf,
  0xc9, 0xa0, 0xd5, 0xbb, 0x21, 0xbc, 0xb7, 0xbd, 0xa3, 0xde, 0xa6, 0xbc,
  0xcb, 0x0a, 0x97, 0xbe, 0x23, 0x99, 0x5e, 0xbd, 0xa3, 0x28, 0xe0, 0xbe,
  0x27, 0x74, 0x9a, 0xbd, 0x60, 0xfa, 0x25, 0xbf, 0xad, 0x2e, 0x6f, 0xbe,
  0x4b, 0x58, 0x09, 0xbe, 0xa2, 0x0b, 0xd1, 0x3d, 0x8e, 0x39, 0x01, 0xbe,
  0xb1, 0x4c, 0xe4, 0xbd, 0x3b, 0x0d, 0x99, 0x3d, 0xd4, 0x11, 0x10, 0xbf,
  0x52, 0x5b, 0x8c, 0xbc, 0xac, 0x16, 0x86, 0x3d, 0xa3, 0xf7, 0x34, 0x3e,
  0x15, 0xf8, 0x54, 0xbe, 0x1f, 0x94, 0x47, 0x3e, 0x13, 0x38, 0x22, 0x3d,
  0x24, 0x63, 0x95, 0x3d, 0x86, 0xa6, 0xd5, 0xbe, 0xa7, 0xfa, 0x68, 0x3e,
  0xd4, 0xc0, 0xff, 0xbc, 0xd6, 0x4e, 0x4c, 0xbe, 0x5e, 0x0e, 0x0b, 0x3e,
  0x22, 0x7f, 0xd0, 0xbe, 0x26, 0x1b, 0xc7, 0x3d, 0x74, 0x6a, 0x88, 0x3d,
  0xce, 0x46, 0xb2, 0xbe, 0xbc, 0x5c, 0x14, 0xbc, 0xab, 0xcf, 0x30, 0xbe,
  0xc4, 0x78, 0xf9, 0xbd, 0x4c, 0xfe, 0x84, 0x3e, 0x11, 0x02, 0x07, 0xbe,
  0x68, 0xe6, 0x60, 0xbc, 0xb7, 0xdb, 0xa8, 0xbb, 0xe4, 0xa5, 0xcc, 0xbe,
  0x81, 0x1c, 0x5a, 0x3e, 0x67, 0xbc, 0x40, 0xbe, 0x24, 0x0f, 0xe1, 0x3d,
  0x82, 0x0e, 0xb5, 0xbd, 0x09, 0x97, 0x98, 0x3d, 0x56, 0x0a, 0x1f, 0xbe,
  0x1f, 0xc4, 0x2a, 0xbe, 0x4f, 0xb5, 0x8c, 0xbd, 0xd9, 0x95, 0x8e, 0xbe,
  0x6b, 0x16, 0x26, 0xbe, 0xca, 0x4a, 0xd0, 0xbd, 0x63, 0xc1, 0x12, 0xbc,
  0x32, 0xdf, 0x1f, 0xbe, 0x84, 0xb9, 0x13, 0xbe, 0x67, 0xab, 0xe8, 0xbd,
  0x6b, 0x60, 0xf3, 0xbc, 0x66, 0xe3, 0xd4, 0xbd, 0x7d, 0xa8, 0x81, 0xbd,
  0xde, 0x03, 0x06, 0xbc, 0xae, 0x15, 0xfd, 0xbd, 0x28, 0x68, 0xce, 0x3e,
  0xe8, 0xf6, 0x9b, 0xbd, 0x06, 0xc0, 0x99, 0xba, 0x9f, 0xb8, 0xd3, 0x3b,
  0x04, 0x74, 0x9e, 0x3d, 0x27, 0xd3, 0xda, 0x3a, 0xdd, 0xa1, 0xcf, 0x3c,
  0x4f, 0xb8, 0xa2, 0xbd, 0x87, 0xde, 0xd6, 0x3c, 0xb2, 0x7a, 0x7a, 0x3e,
  0xcb, 0x73, 0xae, 0x3d, 0x08, 0xc6, 0xbb, 0x3d, 0x57, 0x12, 0xee, 0x3e,
  0xcc, 0x56, 0x8f, 0x3e, 0xa2, 0x82, 0xe1, 0x3c, 0x6b, 0x49, 0x0c, 0x3c,
  0x3c, 0xda, 0x41, 0xbe, 0x2b, 0x7c, 0xb4, 0xbd, 0x33, 0x9e, 0x58, 0x3e,
  0x84, 0x11, 0x75, 0xbe, 0x95, 0xf9, 0x3e, 0x3d, 0xb5, 0x29, 0xad, 0xbe,
  0x5e, 0xd1, 0xec, 0xbd, 0x14, 0xcb, 0xb0, 0x3e, 0xb9, 0xe4, 0xf0, 0x3c,
  0xcf, 0x01, 0x9a, 0xbd, 0xfc, 0x51, 0x80, 0x3c, 0x08, 0xfb, 0x90, 0xbd,
  0x4c, 0x8a, 0x4f, 0x3e, 0x7e, 0x74, 0x4c, 0x3c, 0xba, 0xe2, 0xc7, 0xbd,
  0xb9, 0x70, 0x00, 0xbe, 0xf4, 0xe9, 0x66, 0xbe, 0xc8, 0xf9, 0x18, 0x3e,
  0x5d, 0x44, 0x39, 0xbe, 0x67, 0x58, 0x6a, 0xbe, 0xed, 0x0f, 0x9e, 0xbe,
  0x16, 0x81, 0x27, 0x3e, 0x47, 0x0d, 0x5c, 0x3d, 0x01, 0xa4, 0xa6, 0x3c,
  0xa8, 0xc7, 0x49, 0xbd, 0xa2, 0xf8, 0xe1, 0x3d, 0x18, 0xc6, 0x1f, 0xbe,
  0x56, 0x43, 0x25, 0xbe, 0x11, 0x4b, 0xe0, 0x3e, 0xcb, 0x9f, 0x87, 0x3d,
  0xa8, 0x76, 0xc7, 0x3d, 0x1a, 0xb7, 0xfc, 0xbd, 0x77, 0xfe, 0x9a, 0x3d,
  0xf1, 0xed, 0xa6, 0x3e, 0xc3, 0x5d, 0xc4, 0x3e, 0x5d, 0x06, 0x22, 0x3e,
  0x18, 0x07, 0x0e, 0x3e, 0xb6, 0xa5, 0x0d, 0x3e, 0xdc, 0x02, 0x7f, 0xbd,
  0xf0, 0xc3, 0x67, 0xbe, 0x97, 0x04, 0xb8, 0x3d, 0x69, 0x7d, 0x84, 0xbd,
  0xcf, 0xa8, 0xed, 0xbd, 0x9d, 0x9f, 0x88, 0xbd, 0x9e, 0x7a, 0x7a, 0xbe,
  0xfa, 0x6c, 0x4d, 0x3d, 0x2b, 0x69, 0x33, 0xbe, 0xbe, 0x98, 0xba, 0xbd,
  0x4c, 0xcf, 0xa8, 0x3e, 0x8b, 0x13, 0xe2, 0xbd, 0xe1, 0x12, 0x0a, 0xbe,
  0x0a, 0xc1, 0xc6, 0xbd, 0x86, 0xca, 0xba, 0xbe, 0xfe, 0x36, 0x8a, 0x3d,
  0x41, 0x69, 0x99, 0xbd, 0x3d, 0x5f, 0x11, 0x3d, 0x9c, 0x98, 0xa2, 0x3e,
  0x14, 0xb1, 0x47, 0xbe, 0x44, 0x4b, 0x52, 0xbe, 0x16, 0x31, 0xe3, 0xbd,
  0xb9, 0x01, 0x5d, 0xbe, 0x56, 0x09, 0x61, 0xbd, 0x6b, 0xbd, 0xeb, 0x3b,
  0x0a, 0xdf, 0xff, 0xff, 0x10, 0x00, 0x00, 0x00, 0x08, 0x00, 0x00, 0x00,
  0x1c, 0x00, 0x00, 0x00, 0x38, 0x00, 0x00, 0x00, 0x04, 0x00, 0x00, 0x00,
  0x10, 0x00, 0x00, 0x00, 0x04, 0x00, 0x00, 0x00, 0x01, 0x00, 0x00, 0x00,
  0x08, 0x00, 0x00, 0x00, 0x1a, 0x00, 0x00, 0x00, 0x73, 0x65, 0x71, 0x75,
  0x65, 0x6e, 0x74, 0x69, 0x61, 0x6c, 0x2f, 0x63, 0x6f, 0x6e, 0x76, 0x32,
  0x64, 0x5f, 0x31, 0x2f, 0x43, 0x6f, 0x6e, 0x76, 0x32, 0x44, 0x00, 0x00,
  0x04, 0xdf, 0xff, 0xff, 0xfa, 0xdf, 0xff, 0xff, 0x04, 0x00, 0x00, 0x00,
  0x80, 0x01, 0x00, 0x00, 0xb8, 0xc2, 0x61, 0x3d, 0xcc, 0xa2, 0xda, 0xbd,
  0x2e, 0x62, 0x0b, 0xbe, 0xfb, 0x29, 0xae, 0xbe, 0x47, 0x5e, 0xfa, 0xbd,
  0x88, 0xeb, 0x7b, 0xbe, 0x21, 0x27, 0x7d, 0x3e, 0x5a, 0x68, 0xad, 0x3e,
  0x60, 0x99, 0xb6, 0xbd, 0x21, 0x57, 0x78, 0x3e, 0x38, 0x50, 0xad, 0x3d,
  0x16, 0x86, 0xd4, 0x3e, 0xd9, 0x79, 0x27, 0xbe, 0xea, 0x16, 0x54, 0x3e,
  0xd3, 0x4a, 0x57, 0x3e, 0xd3, 0x45, 0xa5, 0xbe, 0x5c, 0xef, 0xc6, 0xbe,
  0xdc, 0x5b, 0x5e, 0x3e, 0xdd, 0x38, 0x85, 0x3e, 0x33, 0xc1, 0xd9, 0x3d,
  0x94, 0x1e, 0x71, 0xbe, 0xe1, 0xe1, 0x71, 0x3e, 0x7d, 0x63, 0xc9, 0x3d,
  0xba, 0x76, 0x29, 0xbe, 0xcc, 0xc2, 0x6a, 0x3d, 0x5d, 0xbc, 0x7a, 0xbe,
  0x80, 0x38, 0x75, 0x3d, 0xb1, 0xcc, 0x19, 0x3b, 0xca, 0xe0, 0xf5, 0xbd,
  0x5d, 0xfc, 0x87, 0x3e, 0x11, 0x4d, 0x6f, 0xbe, 0x5b, 0xbb, 0x6a, 0x3d,
  0xf0, 0xed, 0x47, 0xbd, 0x7e, 0xc7, 0xb1, 0xbd, 0x86, 0xca, 0x0b, 0x3e,
  0x92, 0x35, 0x0f, 0xbd, 0x78, 0xcb, 0xd8, 0xbc, 0xe9, 0xae, 0x8f, 0x3d,
  0xd4, 0x4d, 0x71, 0xbe, 0x76, 0x39, 0xbe, 0x3d, 0x59, 0x33, 0xbf, 0xbd,
  0x84, 0xe7, 0x47, 0xbd, 0x38, 0x05, 0x57, 0xbd, 0xac, 0xd5, 0x9e, 0xbd,
  0xbc, 0x8f, 0xd5, 0x3c, 0xc7, 0x60, 0xc4, 0xbc, 0x85, 0x01, 0x8d, 0xbd,
  0xf5, 0x0d, 0x14, 0xbb, 0x8d, 0x4b, 0xb4, 0xbd, 0x41, 0x4c, 0xe1, 0xbd,
  0x47, 0xac, 0x65, 0x3e, 0x9a, 0xfd, 0x0d, 0xbd, 0xb6, 0x6d, 0x67, 0x3d,
  0x1e, 0x9d, 0xc7, 0x3d, 0x4a, 0x2e, 0x22, 0xbe, 0x52, 0xa2, 0xef, 0x3d,
  0xcf, 0xb0, 0x19, 0xbd, 0x86, 0xf2, 0x5b, 0xbd, 0x3d, 0x3c, 0x08, 0x3e,
  0x36, 0x8b, 0x17, 0xbd, 0x17, 0x70, 0x41, 0x3e, 0x75, 0x99, 0xa0, 0x3e,
  0xe2, 0xbc, 0xaa, 0x3d, 0xa5, 0x16, 0x43, 0xbd, 0x92, 0xfc, 0x97, 0x3d,
  0xea, 0x07, 0x1a, 0xbe, 0xeb, 0xf4, 0x4c, 0xbc, 0xf9, 0x40, 0xb2, 0xbe,
  0xc1, 0x38, 0xb5, 0xbd, 0x10, 0x86, 0x08, 0xbe, 0xfd, 0x31, 0x1a, 0xbe,
  0xa3, 0x75, 0x2c, 0x3d, 0x45, 0xff, 0x8a, 0xbd, 0x0f, 0x9f, 0x95, 0xbe,
  0x01, 0x6e, 0xa8, 0xbe, 0x2d, 0xb5, 0xf7, 0xbd, 0x1e, 0xee, 0x82, 0x3c,
  0x22, 0x37, 0x86, 0xbe, 0x30, 0x92, 0x7c, 0x3e, 0x72, 0xfb, 0x75, 0x3e,
  0xe5, 0x19, 0x02, 0x3f, 0x5b, 0xbb, 0x9a, 0xbd, 0x85, 0xac, 0x7c, 0x3c,
  0x03, 0x13, 0xea, 0x3d, 0xf6, 0xde, 0x94, 0xbd, 0x3a, 0x2a, 0xbc, 0x3d,
  0xbd, 0x8f, 0x38, 0x3d, 0x6f, 0xb9, 0x86, 0xbd, 0x46, 0x9d, 0xe1, 0x3c,
  0x88, 0x9f, 0x9f, 0x3c, 0x08, 0xa2, 0x9a, 0xbd, 0xe8, 0xb8, 0x39, 0x3d,
  0x7e, 0x1d, 0xe1, 0xbb, 0x79, 0x8f, 0xf1, 0xbc, 0xa7, 0xb6, 0xe4, 0x3d,
  0xaa, 0x1a, 0x8e, 0xbd, 0xe2, 0xe0, 0xff, 0xff, 0x10, 0x00, 0x00, 0x00,
  0x07, 0x00, 0x00, 0x00, 0x1c, 0x00, 0x00, 0x00, 0x38, 0x00, 0x00, 0x00,
  0x04, 0x00, 0x00, 0x00, 0x08, 0x00, 0x00, 0x00, 0x04, 0x00, 0x00, 0x00,
  0x03, 0x00, 0x00, 0x00, 0x01, 0x00, 0x00, 0x00, 0x18, 0x00, 0x00, 0x00,
  0x73, 0x65, 0x71, 0x75, 0x65, 0x6e, 0x74, 0x69, 0x61, 0x6c, 0x2f, 0x63,
  0x6f, 0x6e, 0x76, 0x32, 0x64, 0x2f, 0x43, 0x6f, 0x6e, 0x76, 0x32, 0x44,
  0x00, 0x00, 0x00, 0x00, 0xdc, 0xe0, 0xff, 0xff, 0xd2, 0xe1, 0xff, 0xff,
  0x04, 0x00, 0x00, 0x00, 0xc0, 0x00, 0x00, 0x00, 0x87, 0x36, 0xf6, 0x3d,
  0x76, 0x58, 0x83, 0x3e, 0xfb, 0x2b, 0xe3, 0x3f, 0x88, 0x5c, 0xa3, 0xbe,
  0x8d, 0x8b, 0x97, 0xbd, 0x70, 0xc3, 0xdc, 0x3e, 0x94, 0x29, 0xf9, 0xbd,
  0xbd, 0xe4, 0x43, 0x3d, 0xed, 0x3e, 0x81, 0x3e, 0xb8, 0x4d, 0xae, 0xbe,
  0xd6, 0xa2, 0x2c, 0xbe, 0x1a, 0x2a, 0x80, 0x3e, 0x5a, 0xf8, 0x14, 0x3c,
  0x94, 0xd9, 0x54, 0xbe, 0xa1, 0xff, 0xe7, 0x3a, 0xe3, 0xf6, 0x68, 0x3f,
  0x85, 0x59, 0x1e, 0x3e, 0x7e, 0x20, 0x8e, 0x3e, 0x71, 0x1b, 0xe1, 0xbf,
  0x25, 0x44, 0xba, 0xbe, 0xd1, 0x2d, 0x80, 0x3c, 0x0f, 0x7e, 0xd3, 0x3e,
  0x42, 0xba, 0x9d, 0xbd, 0xcb, 0x98, 0xd8, 0x3d, 0x39, 0x26, 0x89, 0x3e,
  0x95, 0x45, 0x99, 0xbe, 0x29, 0x8c, 0x14, 0x3d, 0x7b, 0x32, 0x66, 0x3e,
  0x04, 0xaf, 0xb6, 0x3d, 0xd6, 0xb1, 0x1d, 0x3e, 0xb7, 0xd4, 0x2a, 0xbd,
  0x59, 0x1e, 0x18, 0x3e, 0x30, 0xf7, 0x7f, 0x3d, 0x7b, 0x96, 0xa3, 0x3e,
  0xd1, 0x41, 0xd9, 0xbf, 0x3c, 0x50, 0xca, 0xbe, 0xf1, 0xf9, 0x40, 0x3d,
  0xe8, 0x68, 0xc0, 0x3e, 0x3f, 0x38, 0x18, 0xbe, 0x34, 0x10, 0x3f, 0x3b,
  0x49, 0xda, 0x31, 0x3e, 0xb2, 0xe4, 0xb0, 0xbe, 0xdd, 0x7f, 0x94, 0xbd,
  0x75, 0xef, 0x0e, 0x3e, 0x62, 0x9b, 0x80, 0xbc, 0x73, 0x50, 0x77, 0x3e,
  0xe5, 0xce, 0x7c, 0xbd, 0x83, 0xbd, 0x21, 0xbf, 0xfa, 0xe1, 0xff, 0xff,
  0x10, 0x00, 0x00, 0x00, 0x06, 0x00, 0x00, 0x00, 0x14, 0x00, 0x00, 0x00,
  0x30, 0x00, 0x00, 0x00, 0x02, 0x00, 0x00, 0x00, 0x03, 0x00, 0x00, 0x00,
  0x10, 0x00, 0x00, 0x00, 0x19, 0x00, 0x00, 0x00, 0x73, 0x65, 0x71, 0x75,
  0x65, 0x6e, 0x74, 0x69, 0x61, 0x6c, 0x2f, 0x64, 0x65, 0x6e, 0x73, 0x65,
  0x5f, 0x31, 0x2f, 0x4d, 0x61, 0x74, 0x4d, 0x75, 0x6c, 0x00, 0x00, 0x00,
  0xec, 0xe1, 0xff, 0xff, 0xe2, 0xe2, 0xff, 0xff, 0x04, 0x00, 0x00, 0x00,
  0x00, 0x1c, 0x00, 0x00, 0x0a, 0x4f, 0xb2, 0xbd, 0x49, 0xa7, 0x86, 0xbe,
  0xbf, 0xac, 0x4c, 0xbd, 0x05, 0x91, 0x8f, 0xbe, 0x6a, 0xf6, 0xb1, 0xbd,
  0x9a, 0x2d, 0x83, 0xbd, 0xd3, 0xf3, 0x62, 0xbe, 0x24, 0xe0, 0x37, 0xbd,
  0xff, 0x9e, 0x2c, 0xbe, 0x6c, 0x14, 0xbe, 0xbc, 0xf7, 0x27, 0x94, 0xbd,
  0xad, 0x3e, 0x18, 0xbe, 0xea, 0x81, 0xf9, 0xbd, 0x17, 0xe5, 0xd2, 0xbe,
  0x83, 0xd5, 0xff, 0x3b, 0x4b, 0x8c, 0xc4, 0x3c, 0xc0, 0xb9, 0xc3, 0xbd,
  0x9a, 0xeb, 0xc0, 0xbe, 0x12, 0xbc, 0x5a, 0xbe, 0xac, 0xdd, 0xbf, 0xbc,
  0xca, 0xd2, 0x09, 0xbe, 0xe0, 0x87, 0x22, 0x3c, 0xcd, 0xba, 0x04, 0x3e,
  0x2a, 0x44, 0xfb, 0xbd, 0x68, 0xe5, 0x47, 0x3d, 0x20, 0x49, 0x62, 0xbd,
  0x9f, 0xd6, 0x16, 0xbd, 0x71, 0x96, 0x38, 0x3d, 0x76, 0xd9, 0x01, 0xbd,
  0x27, 0xcb, 0xc3, 0xbe, 0x89, 0x20, 0x7f, 0x3b, 0x57, 0xd8, 0x49, 0xbd,
  0x8f, 0x80, 0xb2, 0xbd, 0x58, 0xfb, 0xbb, 0xbe, 0xfc, 0x0e, 0x98, 0xbe,
  0xcd, 0xde, 0x2a, 0xbe, 0xd9, 0x99, 0x4a, 0xbe, 0xc9, 0x0f, 0xe0, 0xbd,
  0x15, 0x83, 0xad, 0x3d, 0x85, 0xfc, 0xf6, 0xbd, 0x2a, 0x41, 0x1e, 0xbe,
  0xc3, 0x0d, 0x12, 0xbe, 0xfc, 0xa9, 0x0a, 0xbe, 0x06, 0x2a, 0x54, 0xbd,
  0xe9, 0x61, 0x7f, 0xbd, 0xf2, 0x28, 0xd0, 0xbe, 0xd3, 0xb1, 0x2a, 0xbe,
  0x07, 0x73, 0x8e, 0xbd, 0x7b, 0x39, 0xee, 0xbd, 0x97, 0x1a, 0x15, 0xbf,
  0xc6, 0x13, 0xa4, 0xbe, 0x7a, 0x73, 0xa9, 0xbe, 0x25, 0x8b, 0x75, 0xbe,
  0x56, 0x73, 0xb6, 0xbe, 0xb7, 0xcc, 0x30, 0xbd, 0xcd, 0xfd, 0x29, 0xbc,
  0x01, 0xb3, 0x0a, 0xbe, 0xcb, 0x79, 0xb0, 0x3c, 0xdb, 0x43, 0x99, 0xbe,
  0xf0, 0xa5, 0x2d, 0x3d, 0xa0, 0x12, 0x82, 0x3d, 0xc5, 0x6f, 0x02, 0xbf,
  0xa1, 0xd6, 0xa7, 0xbc, 0x1e, 0xed, 0x30, 0xbc, 0x09, 0xcb, 0xe6, 0xbd,
  0x9c, 0xe3, 0xe7, 0xbe, 0x51, 0x4d, 0x2c, 0xbd, 0x27, 0x1a, 0xf5, 0x3e,
  0x6e, 0x53, 0xa3, 0xbd, 0x04, 0x2a, 0xc0, 0xbc, 0xcb, 0x53, 0xc9, 0x3e,
  0xdf, 0x55, 0x02, 0x3d, 0x51, 0xf2, 0xcb, 0x3d, 0x14, 0xc1, 0x94, 0x3d,
  0x87, 0xce, 0x9b, 0xbb, 0xaf, 0x69, 0xae, 0x3d, 0x73, 0x4e, 0x7f, 0x3d,
  0x55, 0x66, 0x8b, 0x3d, 0xb7, 0xba, 0x04, 0x3b, 0x46, 0x2a, 0xd7, 0xbd,
  0x48, 0x52, 0x9c, 0xbd, 0xf3, 0x29, 0xb6, 0xbc, 0xdd, 0xdd, 0x70, 0xbe,
  0x4f, 0x21, 0x64, 0x3e, 0xac, 0x85, 0x41, 0xbe, 0xcd, 0xbc, 0xca, 0x3d,
  0x8a, 0x20, 0x6f, 0x3e, 0x31, 0x33, 0x8e, 0xbe, 0xb7, 0x54, 0xcd, 0x3d,
  0x21, 0x23, 0x29, 0xbe, 0x33, 0xb2, 0x8b, 0x3d, 0xf0, 0x5d, 0x59, 0xbe,
  0x3e, 0x50, 0xb3, 0x3c, 0x7a, 0xa0, 0xd1, 0xbc, 0x37, 0x60, 0x6d, 0x3e,
  0xf2, 0x38, 0xac, 0xbd, 0xc0, 0x41, 0x76, 0x3d, 0xda, 0x56, 0x1e, 0xbd,
  0xc9, 0xbe, 0x15, 0x3e, 0x0c, 0xc6, 0x68, 0x3e, 0x1b, 0x04, 0x11, 0x3e,
  0x74, 0x68, 0x80, 0xba, 0x9b, 0x90, 0x70, 0x3e, 0x87, 0x5b, 0x17, 0x3e,
  0x0f, 0x13, 0x3b, 0x3e, 0x69, 0x9c, 0x2a, 0xbd, 0xaa, 0x81, 0xa9, 0x3b,
  0x8d, 0xee, 0x37, 0x3c, 0x92, 0x04, 0xb4, 0x3c, 0xd2, 0xdc, 0xc9, 0x3d,
  0x75, 0x39, 0xbd, 0x3d, 0x01, 0x18, 0x67, 0xbd, 0x4a, 0x1d, 0x52, 0xbd,
  0xa9, 0x8d, 0x18, 0xbf, 0xd9, 0xf4, 0x8c, 0x3e, 0x11, 0x8b, 0xeb, 0xbe,
  0x0e, 0xc5, 0x10, 0x3f, 0x52, 0xe0, 0xb8, 0xbe, 0x61, 0x8a, 0x30, 0xbe,
  0x9a, 0x15, 0xe5, 0x3d, 0x1e, 0xfb, 0xd0, 0xbe, 0xe5, 0x57, 0x85, 0x3e,
  0x1b, 0x41, 0xb4, 0xbb, 0xbc, 0x42, 0xb9, 0xbe, 0xe3, 0x4d, 0x4a, 0x3e,
  0xd5, 0x5f, 0xaa, 0xbe, 0x97, 0xcd, 0x16, 0x3e, 0xd2, 0x04, 0xae, 0xbe,
  0xfc, 0xa9, 0xd4, 0x3d, 0x9a, 0x50, 0xad, 0xbe, 0xee, 0xf5, 0x30, 0x3d,
  0xf2, 0x8c, 0xe0, 0xbd, 0x9a, 0x18, 0xcd, 0x3e, 0x22, 0x11, 0x6a, 0x3d,
  0x36, 0x2d, 0x0d, 0x3e, 0x53, 0xdc, 0x00, 0x3f, 0xd4, 0x4e, 0x16, 0xbd,
  0xe9, 0x46, 0x94, 0x3e, 0xb4, 0xfd, 0xb6, 0x3e, 0xf2, 0xf2, 0x92, 0xbe,
  0x11, 0x4c, 0x02, 0x3f, 0x97, 0xa3, 0x85, 0xbe, 0xaf, 0x52, 0xb5, 0x3e,
  0x8f, 0xf3, 0x31, 0xbf, 0x6e, 0x75, 0x77, 0x3d, 0x6a, 0x34, 0x9d, 0x3c,
  0xda, 0x1f, 0xaa, 0x3e, 0x2f, 0xfb, 0x6b, 0xbd, 0x9b, 0x2c, 0x6f, 0x3e,
  0x97, 0x50, 0x37, 0x3e, 0x42, 0x35, 0x6e, 0x3e, 0x67, 0xdb, 0xfb, 0x3e,
  0x24, 0xc3, 0x28, 0x3e, 0x20, 0x63, 0xa5, 0x3e, 0x4c, 0x7a, 0x32, 0x3f,
  0x25, 0x66, 0x59, 0xbd, 0x11, 0x53, 0x6b, 0x3f, 0x26, 0xfc, 0x20, 0xbe,
  0xc7, 0x91, 0x85, 0x3e, 0x4e, 0x5d, 0x39, 0xbe, 0xbe, 0xa2, 0x44, 0x3d,
  0x29, 0xc2, 0x07, 0xbd, 0x67, 0x09, 0xfd, 0x3d, 0x6f, 0x01, 0x16, 0x3e,
  0x80, 0x0d, 0x66, 0x3e, 0x23, 0x0f, 0x10, 0x3e, 0x02, 0xa2, 0x90, 0x3e,
  0x34, 0x4d, 0xcd, 0x3e, 0x82, 0x65, 0x46, 0x3d, 0xc8, 0x25, 0xa4, 0x3e,
  0xe9, 0xf5, 0x19, 0x3f, 0x71, 0xaa, 0x22, 0xbe, 0x09, 0xcb, 0x1f, 0x3f,
  0xa7, 0xbe, 0x92, 0xbc, 0x9f, 0xb3, 0xd9, 0x3e, 0x38, 0xda, 0x2d, 0x3c,
  0x8f, 0x6e, 0x5a, 0x3d, 0x93, 0x35, 0x1f, 0xbe, 0xda, 0x62, 0x18, 0x3e,
  0x5c, 0xa0, 0x79, 0xbd, 0xa8, 0x52, 0xa4, 0x3e, 0x66, 0xd2, 0xad, 0x3e,
  0x9e, 0xf5, 0x8e, 0xbc, 0x79, 0x36, 0x20, 0x3f, 0x94, 0x1b, 0x37, 0xbe,
  0x26, 0x35, 0xf5, 0x3e, 0xae, 0xea, 0xab, 0x3e, 0x91, 0xca, 0x93, 0x3c,
  0x97, 0x3b, 0x47, 0x3f, 0xa5, 0xc4, 0x66, 0xbe, 0xe6, 0xa7, 0x42, 0x3e,
  0xbe, 0xa8, 0xfb, 0xbd, 0xd5, 0x66, 0x83, 0x3d, 0xc4, 0x95, 0x9e, 0xbe,
  0xd5, 0x05, 0xc0, 0xbd, 0x38, 0x4b, 0x9c, 0xbd, 0x5e, 0xe4, 0x58, 0x3e,
  0x59, 0x19, 0x28, 0x3e, 0x40, 0xdb, 0x02, 0xbe, 0xa2, 0x7e, 0x1d, 0x3f,
  0xc7, 0x06, 0x78, 0x3c, 0x62, 0xf8, 0xab, 0x3e, 0x3b, 0xc7, 0xeb, 0x3d,
  0x93, 0xb1, 0xbd, 0xbb, 0x71, 0x17, 0x05, 0x3f, 0xa4, 0xd9, 0x20, 0xbf,
  0xda, 0x1d, 0xea, 0x3d, 0xc6, 0xe8, 0xb8, 0xbe, 0xf1, 0x9c, 0x98, 0x3b,
  0x82, 0x39, 0x85, 0xbd, 0x40, 0xbf, 0xa1, 0x3e, 0xd1, 0xfb, 0x41, 0x3c,
  0x53, 0x70, 0xbd, 0x3e, 0xdb, 0x53, 0x5a, 0x3d, 0xc2, 0x08, 0x58, 0xbe,
  0x44, 0xaf, 0x7e, 0xbd, 0x3a, 0x28, 0xe3, 0xbd, 0xbc, 0xb4, 0x1a, 0xba,
  0xe6, 0x6f, 0xde, 0xbd, 0x45, 0x32, 0x20, 0xbe, 0xdd, 0x9a, 0xd0, 0x3e,
  0xda, 0xd2, 0x01, 0xbf, 0x92, 0x90, 0x4e, 0x3e, 0x39, 0x7f, 0x74, 0xbe,
  0x05, 0x40, 0xbc, 0xbe, 0x0f, 0xf2, 0x3f, 0xbe, 0xb7, 0xcc, 0xa6, 0x3c,
  0x14, 0xdf, 0xa6, 0xbd, 0xe5, 0x00, 0x35, 0xbe, 0x2b, 0xb8, 0xc5, 0x3d,
  0xb4, 0x5e, 0x7b, 0xbd, 0xdb, 0x11, 0xe9, 0x3c, 0x4a, 0x58, 0x39, 0xbe,
  0x4c, 0x0d, 0x56, 0xbd, 0x1f, 0x4d, 0x39, 0xbe, 0x7b, 0x94, 0xa4, 0x3d,
  0x4d, 0xf5, 0x69, 0x3e, 0x13, 0x31, 0x59, 0xbe, 0xd7, 0x45, 0xc1, 0x3c,
  0xb7, 0x77, 0x22, 0x3e, 0x14, 0xac, 0xc1, 0xbe, 0x86, 0x10, 0x43, 0xbd,
  0x41, 0xa7, 0x81, 0x3e, 0x1d, 0x41, 0x7c, 0xbd, 0x50, 0x78, 0xb8, 0x3d,
  0xaf, 0xcd, 0x7d, 0xbe, 0x43, 0x49, 0xe8, 0x3d, 0x3c, 0x65, 0xba, 0xbd,
  0x97, 0x35, 0x25, 0xbe, 0x63, 0x61, 0x3e, 0x3e, 0x54, 0xb5, 0x0c, 0xbe,
  0xd4, 0x14, 0x9d, 0xbd, 0xf3, 0x2a, 0xb9, 0x3d, 0xf0, 0xd1, 0xd9, 0x3b,
  0x01, 0x08, 0xd7, 0x3d, 0xeb, 0xd1, 0xcc, 0xbd, 0xe2, 0xdb, 0xbc, 0xbe,
  0xd9, 0x20, 0xfd, 0x3c, 0x2c, 0x34, 0x27, 0xbe, 0xdc, 0x5c, 0x8f, 0x3d,
  0x3a, 0xde, 0x56, 0xbe, 0x2e, 0x8c, 0x41, 0xbe, 0xbd, 0xd4, 0x7b, 0xbd,
  0x92, 0x8e, 0x65, 0x3b, 0xd9, 0x65, 0xd1, 0x3d, 0x13, 0x7b, 0x67, 0x3d,
  0x33, 0xb1, 0x93, 0x3c, 0x53, 0xad, 0x02, 0x3e, 0xd5, 0x45, 0x7a, 0xbd,
  0x93, 0x4b, 0x57, 0x3e, 0xe7, 0x76, 0x2c, 0xbe, 0x27, 0x54, 0xe7, 0xbd,
  0x66, 0xbb, 0x66, 0xbe, 0xc3, 0x83, 0xa7, 0xbc, 0x1a, 0xe2, 0x19, 0xbd,
  0x6e, 0x01, 0x0a, 0x3e, 0xaf, 0x2f, 0xd6, 0xbd, 0x8b, 0xee, 0xbe, 0x3d,
  0x95, 0xb7, 0x6f, 0xbd, 0xec, 0x5c, 0xca, 0x3d, 0xe2, 0x46, 0xef, 0x3d,
  0x9d, 0xbc, 0x67, 0x3e, 0x14, 0xf1, 0x61, 0x3d, 0x61, 0xa0, 0x10, 0xbb,
  0xcf, 0x27, 0x3c, 0xbe, 0xbe, 0x5d, 0xc5, 0x3d, 0x95, 0xaf, 0xbe, 0x3c,
  0x8c, 0x35, 0xcf, 0xbd, 0x84, 0x86, 0x95, 0xbd, 0x86, 0xe9, 0x86, 0xbe,
  0x35, 0xee, 0x1c, 0x3e, 0xa7, 0x46, 0x1d, 0xbe, 0xf1, 0xc0, 0x0a, 0x3d,
  0xc5, 0x60, 0x60, 0x3c, 0x01, 0xf5, 0xd8, 0x3d, 0xac, 0x3a, 0x97, 0x3d,
  0xe8, 0xc5, 0xa9, 0x3d, 0x3b, 0x23, 0x4e, 0xbd, 0x42, 0x79, 0x4e, 0xbe,
  0x63, 0x1c, 0x91, 0xbd, 0x39, 0x23, 0x19, 0xbd, 0x91, 0x50, 0x2b, 0xbe,
  0xaf, 0xbf, 0x2c, 0xbe, 0x73, 0x77, 0x3c, 0xbe, 0x75, 0xd6, 0x25, 0xbe,
  0x91, 0x8a, 0x85, 0xbe, 0xc4, 0xf9, 0xd2, 0x3d, 0xeb, 0x91, 0x90, 0xbd,
  0x51, 0x8d, 0xcc, 0x3d, 0x05, 0x6c, 0x84, 0xbd, 0xab, 0x30, 0xe8, 0xbd,
  0xbf, 0xb0, 0xa1, 0xbd, 0x85, 0x94, 0x26, 0x3e, 0x85, 0xfb, 0x53, 0x3d,
  0xb2, 0xb8, 0xcf, 0xbd, 0xc1, 0xfa, 0xdf, 0x3c, 0x58, 0xce, 0x2a, 0xbd,
  0x88, 0xe2, 0x03, 0xbe, 0xe3, 0x19, 0xdc, 0x3c, 0x26, 0xb3, 0x40, 0xbd,
  0x26, 0x93, 0x84, 0xbe, 0x5f, 0x6f, 0x3c, 0xbd, 0x58, 0xac, 0x2a, 0xbd,
  0xc1, 0x34, 0xd9, 0xbd, 0x47, 0xde, 0x53, 0xbe, 0xf1, 0xd3, 0xd4, 0xbd,
  0xf6, 0xcb, 0x65, 0xbe, 0x2b, 0xc2, 0x08, 0xbe, 0x63, 0xe6, 0x2c, 0xbc,
  0xbd, 0xf2, 0xbc, 0x3d, 0x75, 0x40, 0x28, 0x3c, 0xa9, 0x8d, 0x29, 0x3e,
  0x56, 0x02, 0x55, 0xbe, 0x5f, 0x1b, 0xd6, 0xbd, 0x2a, 0x36, 0x2d, 0xbe,
  0xd9, 0x93, 0x48, 0xbe, 0x93, 0x88, 0x72, 0x3b, 0xaf, 0x0c, 0x87, 0x3e,
  0x5b, 0xd4, 0xbc, 0xbe, 0x98, 0x8a, 0xf5, 0xbd, 0x0f, 0x08, 0xf8, 0xbd,
  0x36, 0xb0, 0x89, 0xbe, 0x44, 0x71, 0x4e, 0xbe, 0x9d, 0xf8, 0x23, 0xbe,
  0xd0, 0xef, 0x5e, 0x3e, 0x7a, 0x05, 0x0f, 0xbd, 0xc0, 0xce, 0x57, 0xbe,
  0xd8, 0x79, 0xbf, 0x3b, 0xc8, 0x9e, 0xd5, 0xbd, 0xe7, 0x4d, 0x7f, 0x3c,
  0xb8, 0xfb, 0x11, 0xbe, 0x74, 0x08, 0x68, 0x3d, 0x98, 0xa5, 0x2d, 0xbd,
  0x35, 0x57, 0xe6, 0x3c, 0x04, 0xdb, 0x98, 0xbc, 0x2a, 0x52, 0x72, 0x3d,
  0xc6, 0x39, 0x35, 0xbe, 0x2e, 0x75, 0xae, 0xbe, 0x8b, 0xa7, 0x2b, 0x3d,
  0xb5, 0xc2, 0x69, 0xbe, 0xad, 0xe1, 0x04, 0x3d, 0x76, 0x27, 0xc1, 0xbe,
  0x26, 0x57, 0x33, 0xbe, 0x03, 0x62, 0xee, 0xba, 0x3a, 0x98, 0xb2, 0xbe,
  0x30, 0xb4, 0xe2, 0x3d, 0x08, 0x2e, 0xff, 0xbd, 0x0f, 0x61, 0x72, 0x3e,
  0x65, 0xac, 0x2c, 0xbd, 0x78, 0x7d, 0xcd, 0x3c, 0x38, 0xa0, 0x14, 0xbe,
  0xbe, 0xdc, 0xc8, 0x3e, 0xcb, 0xbe, 0x87, 0xbe, 0x58, 0x7a, 0x07, 0xbe,
  0xbb, 0xe8, 0x21, 0x3f, 0x50, 0xbf, 0xce, 0xbd, 0x98, 0xdf, 0xce, 0x3d,
  0x25, 0x40, 0x2c, 0xbe, 0x7e, 0x50, 0xb1, 0x3d, 0x04, 0x42, 0x5a, 0xbe,
  0x6a, 0x37, 0xe0, 0xbe, 0xe1, 0xc8, 0x9f, 0x3e, 0xea, 0x41, 0xa6, 0xbd,
  0xe6, 0x0d, 0xd3, 0x3e, 0x2d, 0x5f, 0x70, 0xbc, 0x64, 0x21, 0x23, 0x3d,
  0x98, 0xbb, 0x4e, 0xbe, 0x66, 0x11, 0xcc, 0x3e, 0xc8, 0xda, 0x8d, 0xbe,
  0xbd, 0x67, 0xb7, 0x3c, 0x4d, 0x16, 0xc5, 0x3e, 0xbc, 0xf4, 0xff, 0xbd,
  0x5a, 0x61, 0xda, 0xbb, 0xa5, 0x8b, 0x69, 0xbe, 0x6f, 0xd6, 0x4a, 0xbe,
  0xb8, 0x11, 0x78, 0xbe, 0x52, 0x1d, 0xd3, 0xbe, 0x3e, 0x2a, 0x99, 0x3e,
  0x46, 0x56, 0x72, 0xbe, 0x4b, 0x20, 0xd1, 0x3e, 0xde, 0xaa, 0x0e, 0xbd,
  0x2a, 0x0f, 0xf9, 0xbd, 0x9d, 0x4f, 0xc1, 0x3b, 0x24, 0xf7, 0x77, 0x3c,
  0x36, 0xe3, 0xef, 0xbd, 0xb0, 0x15, 0xcd, 0xbe, 0x7f, 0x14, 0xc0, 0xbe,
  0x0b, 0xa7, 0x5f, 0xbe, 0x2b, 0xb8, 0xbc, 0xbe, 0xd4, 0x3f, 0xb2, 0xbe,
  0xd6, 0xa8, 0x2c, 0xbf, 0x1f, 0xd6, 0x83, 0xbe, 0xf7, 0x12, 0x89, 0xbe,
  0x43, 0x32, 0x76, 0x3e, 0xbb, 0x70, 0xed, 0xbd, 0x35, 0x79, 0x0a, 0x3f,
  0x42, 0x63, 0x10, 0x3c, 0x99, 0x69, 0x2d, 0xbd, 0x1c, 0x22, 0x93, 0x3c,
  0xd7, 0xe1, 0xb3, 0xbe, 0x3d, 0x07, 0x6e, 0xbd, 0x01, 0x7c, 0x47, 0xbf,
  0xb0, 0x9b, 0xd0, 0xbe, 0x99, 0x63, 0xa8, 0xbe, 0x15, 0x79, 0x39, 0xbe,
  0x47, 0xbf, 0x8b, 0xbe, 0xb0, 0x4b, 0x02, 0xbf, 0xe5, 0x8d, 0xca, 0xbc,
  0x6b, 0xc4, 0x9b, 0xbe, 0x8e, 0xcd, 0x59, 0x3e, 0x48, 0x63, 0x8c, 0xbe,
  0xcf, 0xc2, 0xdd, 0x3e, 0xd4, 0x2d, 0x5b, 0x3c, 0x8a, 0x5e, 0x3e, 0x3c,
  0x2c, 0x2c, 0x4b, 0xbe, 0x2d, 0x5f, 0x93, 0xbe, 0x84, 0xa3, 0x95, 0xbd,
  0xd1, 0x3c, 0x57, 0xbe, 0x2e, 0xd3, 0x87, 0xbe, 0x98, 0xc7, 0xfa, 0x3d,
  0xcb, 0xd3, 0xaa, 0xbd, 0x53, 0x01, 0xe4, 0xbd, 0x1a, 0xae, 0x1f, 0xbd,
  0xbf, 0xee, 0x20, 0x3e, 0x2f, 0x25, 0x5f, 0xbe, 0x78, 0x5e, 0xf0, 0x3d,
  0xf4, 0x74, 0xa8, 0xbd, 0x98, 0x30, 0xea, 0x3d, 0x5b, 0x68, 0x9e, 0xbe,
  0x18, 0xb1, 0xde, 0x3c, 0xed, 0x5a, 0x87, 0xbd, 0x2e, 0xa6, 0x06, 0xbd,
  0x76, 0x79, 0x9d, 0x3d, 0xdc, 0xf2, 0xe4, 0x3d, 0xa6, 0xb0, 0x23, 0xbe,
  0xf9, 0x73, 0xb6, 0x3d, 0x4b, 0x7f, 0xe9, 0x3b, 0xda, 0x69, 0xf5, 0x3e,
  0xb8, 0xae, 0xb1, 0xbd, 0x56, 0x33, 0x74, 0xbd, 0x45, 0x51, 0x84, 0x3e,
  0x98, 0x1e, 0x30, 0x3b, 0xbf, 0x02, 0xa3, 0x3d, 0x95, 0x3c, 0xa5, 0x3d,
  0x41, 0x58, 0x82, 0xbe, 0xf8, 0x1d, 0x5a, 0xbd, 0x2b, 0x2d, 0x6e, 0x3d,
  0x00, 0x13, 0x9c, 0xbd, 0xd6, 0x85, 0x0d, 0x3e, 0x6f, 0x2c, 0x80, 0x3e,
  0xb9, 0xd0, 0x12, 0x3e, 0x58, 0xe2, 0x2b, 0x3d, 0xb5, 0x8c, 0xca, 0xbc,
  0x07, 0x60, 0xa7, 0x3e, 0x86, 0x9a, 0x10, 0x3e, 0xc1, 0x41, 0xdd, 0x3d,
  0x1b, 0x1c, 0x5f, 0x3e, 0x79, 0x60, 0xb4, 0xbd, 0x17, 0xb2, 0x0b, 0x3e,
  0xaf, 0x2c, 0xc4, 0x3d, 0x7d, 0x88, 0xf4, 0xbd, 0xbd, 0x06, 0x93, 0x3d,
  0xad, 0x8a, 0xdc, 0xbd, 0x0d, 0xef, 0xb8, 0x3d, 0xb6, 0x02, 0xaa, 0x3e,
  0xd5, 0x17, 0x61, 0x3e, 0xdd, 0x18, 0xa3, 0xbc, 0x19, 0x78, 0x2d, 0x3e,
  0x3d, 0xcd, 0xa1, 0x3e, 0x4c, 0x61, 0x52, 0x3d, 0xc6, 0xae, 0x90, 0x3e,
  0xc5, 0x82, 0x01, 0x3e, 0x85, 0xfa, 0x57, 0x3e, 0xe9, 0xd4, 0x03, 0x3e,
  0xa3, 0x36, 0xc3, 0x3d, 0xa3, 0x11, 0x02, 0x3b, 0xad, 0xcf, 0x92, 0xbe,
  0x63, 0xa6, 0xb2, 0x3d, 0x4e, 0xb5, 0x3d, 0xbd, 0x32, 0xe5, 0xd4, 0x3d,
  0xe5, 0x7c, 0x87, 0x3e, 0x96, 0xa5, 0x61, 0x3e, 0x2f, 0x9d, 0xb2, 0xbc,
  0x7f, 0x92, 0x4d, 0xbc, 0xf4, 0x83, 0xe3, 0xbc, 0x2a, 0xcf, 0xa4, 0x3e,
  0x02, 0x01, 0xbb, 0x3d, 0x16, 0x04, 0xd2, 0x3e, 0xbb, 0x6e, 0x97, 0x3e,
  0xcb, 0xac, 0x15, 0xbc, 0x62, 0x39, 0x7f, 0x3e, 0x33, 0x85, 0x5f, 0x3e,
  0x43, 0x7c, 0x19, 0xbe, 0xcb, 0x17, 0x63, 0x3c, 0xe5, 0xe0, 0x59, 0x3c,
  0xf0, 0xe7, 0x14, 0xbe, 0x29, 0x7f, 0xe5, 0x3d, 0x33, 0xa0, 0x33, 0x3e,
  0x0f, 0x3b, 0x4c, 0xbd, 0x81, 0x7d, 0x9a, 0x3d, 0x41, 0x8e, 0x38, 0xbe,
  0x7f, 0x67, 0xb5, 0x3e, 0xf0, 0xc1, 0xdb, 0x3c, 0x12, 0xe7, 0x9d, 0xbe,
  0xb8, 0xb7, 0xab, 0xbc, 0x22, 0x61, 0x9c, 0x3d, 0x6d, 0x31, 0x5c, 0x3e,
  0x92, 0x6c, 0x1b, 0xbe, 0x97, 0x6e, 0x2d, 0xbe, 0x16, 0x51, 0x90, 0x3e,
  0xd7, 0x95, 0x6c, 0x3d, 0xe4, 0x66, 0x15, 0xbd, 0x4f, 0x56, 0x84, 0x3e,
  0x98, 0x15, 0xa4, 0xbd, 0xfd, 0x32, 0x1e, 0xbe, 0xd9, 0xd6, 0x08, 0xbe,
  0xd7, 0x3f, 0x92, 0xbc, 0xef, 0xaa, 0x91, 0x3e, 0x65, 0xbf, 0x59, 0x3e,
  0xa1, 0x9a, 0x0d, 0xbe, 0x75, 0x78, 0x88, 0x3e, 0xd5, 0xe9, 0x69, 0xbd,
  0x19, 0xac, 0x64, 0x3d, 0xb2, 0x4f, 0x48, 0xbd, 0xd4, 0x0f, 0x9b, 0xbe,
  0x3a, 0xc6, 0x82, 0xbe, 0x6c, 0x6e, 0xab, 0x3d, 0xc6, 0x29, 0xd9, 0xbd,
  0x4f, 0x49, 0x92, 0x3d, 0x1d, 0x82, 0x24, 0xbc, 0x80, 0xc6, 0x04, 0x3d,
  0xe1, 0xfe, 0x8d, 0xbe, 0x31, 0x31, 0x05, 0x3e, 0x13, 0x2c, 0x77, 0xbc,
  0x27, 0x5c, 0x18, 0x3d, 0xb6, 0x9e, 0x71, 0x3d, 0x98, 0xde, 0x88, 0xbc,
  0xc2, 0x6b, 0xc2, 0xbd, 0xc5, 0x7a, 0x43, 0xbd, 0xf7, 0x09, 0x02, 0xbd,
  0xdd, 0x57, 0xaf, 0x3c, 0xcd, 0x03, 0x2e, 0x3e, 0x67, 0xb5, 0x81, 0xbe,
  0x09, 0xf1, 0x22, 0xbe, 0xfe, 0xc7, 0x39, 0x3d, 0x92, 0x3c, 0x96, 0xbe,
  0x50, 0x50, 0x29, 0xbe, 0xb2, 0x12, 0x73, 0xbe, 0x13, 0x90, 0x43, 0x3e,
  0xc0, 0x2f, 0x87, 0xbd, 0x20, 0x0f, 0xa9, 0xbe, 0x01, 0xde, 0x28, 0x3e,
  0xf2, 0x1c, 0xa3, 0xbd, 0xb0, 0x5a, 0x30, 0xbd, 0x69, 0xba, 0x52, 0xbe,
  0xee, 0x96, 0x89, 0x3e, 0xe6, 0x72, 0xb6, 0xbd, 0x9e, 0xf9, 0x87, 0xbd,
  0x01, 0x49, 0x63, 0x3e, 0xb7, 0xc1, 0x16, 0x3e, 0x13, 0x20, 0x57, 0xbe,
  0xb8, 0xfd, 0x4c, 0xbd, 0xcd, 0xd7, 0xb1, 0xbc, 0x75, 0xf8, 0xff, 0xbd,
  0xf6, 0xde, 0x48, 0x3e, 0xd3, 0x3f, 0xeb, 0xbd, 0xa3, 0x65, 0xc1, 0xbd,
  0x16, 0x39, 0xac, 0x3e, 0xfa, 0xa1, 0x76, 0xbd, 0x02, 0x39, 0x85, 0xbd,
  0xd7, 0xc0, 0x79, 0xbe, 0x34, 0x7e, 0x3b, 0x3e, 0x0b, 0x4b, 0xb7, 0xbd,
  0xc5, 0x2a, 0xca, 0xbe, 0xf8, 0x26, 0x28, 0x3e, 0x87, 0xe2, 0x4c, 0x3e,
  0x82, 0x4f, 0xc4, 0xbd, 0xd2, 0xc5, 0xc0, 0xbd, 0x05, 0x48, 0x04, 0x3f,
  0x3c, 0x3d, 0xa2, 0x3d, 0xe2, 0xe1, 0x08, 0xbd, 0x60, 0xb3, 0x26, 0xbe,
  0xfa, 0x7a, 0x9d, 0xbd, 0xa9, 0xb9, 0x02, 0x3e, 0x92, 0x51, 0xb1, 0xbd,
  0x22, 0x04, 0xd6, 0x3e, 0xc1, 0x93, 0x30, 0xbe, 0x24, 0x9b, 0x82, 0x3e,
  0x5d, 0x11, 0xee, 0xbc, 0x16, 0xe1, 0xb4, 0x3c, 0xdc, 0x4d, 0x95, 0xbd,
  0x12, 0xcc, 0x8c, 0x3d, 0xf6, 0x61, 0x06, 0xbe, 0x1c, 0x96, 0xf5, 0xbd,
  0x7d, 0xc9, 0x32, 0x3e, 0xb7, 0x08, 0xbc, 0x3d, 0x09, 0xcb, 0x16, 0xbe,
  0x35, 0x30, 0x62, 0xbd, 0x4f, 0x93, 0x4a, 0xbe, 0xb9, 0x81, 0x92, 0xbe,
  0xfe, 0xda, 0x73, 0xbe, 0x4e, 0x4f, 0xcb, 0x3e, 0xe2, 0x66, 0x85, 0xbe,
  0x53, 0x9c, 0x0c, 0x3e, 0xcd, 0x77, 0x35, 0xbb, 0x54, 0xa9, 0x52, 0x3e,
  0x56, 0x6d, 0x27, 0x3e, 0xf3, 0x77, 0x9f, 0xbe, 0xd5, 0x3f, 0x04, 0x3d,
  0xd0, 0xad, 0x8e, 0xbe, 0xa8, 0x0b, 0xb2, 0xbe, 0xef, 0x81, 0x00, 0x3c,
  0x04, 0x3f, 0xf4, 0xbb, 0x3f, 0x26, 0x16, 0xbe, 0x48, 0xfe, 0x0f, 0xbf,
  0x2d, 0xbe, 0x0d, 0x3d, 0x01, 0x60, 0x53, 0xbe, 0x31, 0x46, 0x9e, 0x3d,
  0xac, 0x59, 0x23, 0xbe, 0x53, 0xb4, 0x94, 0x3e, 0xe6, 0xb4, 0x1e, 0xbd,
  0xaa, 0x26, 0x82, 0x3e, 0x0d, 0x04, 0x1f, 0xbe, 0xed, 0xba, 0xec, 0xbb,
  0x61, 0xb5, 0x52, 0xbc, 0xc5, 0x8c, 0x0d, 0xbe, 0x64, 0x19, 0xa8, 0xbd,
  0xe0, 0x5c, 0x52, 0xbe, 0xc7, 0xeb, 0x66, 0xbe, 0x10, 0x86, 0x16, 0xbe,
  0x62, 0xd9, 0x63, 0xbe, 0x84, 0x13, 0xf9, 0xbd, 0x6d, 0xca, 0x41, 0xbe,
  0x27, 0x16, 0x01, 0x3e, 0x8e, 0xbc, 0x9a, 0xbe, 0xae, 0xfd, 0xca, 0x3e,
  0x17, 0xd9, 0xc1, 0xbd, 0xe5, 0x8b, 0xfb, 0xbd, 0x80, 0x23, 0x97, 0xbd,
  0x00, 0x92, 0x07, 0x3c, 0xcd, 0x0f, 0x58, 0x3c, 0xf5, 0xb1, 0x1d, 0xbe,
  0x3a, 0x3c, 0x45, 0x3e, 0xe6, 0x14, 0x17, 0xbd, 0xd1, 0xa5, 0xc8, 0xbc,
  0xd6, 0x83, 0x73, 0x3c, 0x80, 0xce, 0x64, 0xbe, 0x91, 0x18, 0x1a, 0xbe,
  0x80, 0x4e, 0x51, 0x3c, 0xea, 0x55, 0xf7, 0x3d, 0x48, 0x54, 0xc8, 0xbd,
  0x91, 0x50, 0xd4, 0x3d, 0x7b, 0x63, 0xc1, 0x3c, 0xa8, 0xc8, 0x9c, 0xbd,
  0xc9, 0xd4, 0x47, 0x3e, 0xec, 0xcf, 0x78, 0x3e, 0x55, 0x78, 0xc6, 0xbd,
  0xf1, 0xd0, 0x93, 0x3e, 0xed, 0x2b, 0x3b, 0x3e, 0x8f, 0x37, 0x0d, 0xbe,
  0x03, 0x19, 0xcf, 0x3d, 0x16, 0x71, 0xfb, 0xbd, 0x6b, 0x82, 0x09, 0x3e,
  0xfb, 0x76, 0xb5, 0x3e, 0x45, 0xa9, 0x3e, 0xbe, 0xe3, 0x1e, 0xbc, 0x3b,
  0x22, 0xf9, 0xe9, 0x3c, 0x8b, 0x20, 0x4a, 0xbe, 0x27, 0x42, 0x8a, 0xbb,
  0x49, 0xa9, 0x23, 0xbd, 0xb8, 0x15, 0xd5, 0xbd, 0x2a, 0x22, 0xff, 0x3c,
  0x84, 0xbc, 0xd0, 0xbe, 0x81, 0xf2, 0x90, 0x3c, 0x1a, 0x8f, 0xe5, 0x3d,
  0x9e, 0x63, 0xb1, 0x3d, 0xa7, 0xa6, 0x86, 0xbe, 0x06, 0x19, 0x6f, 0xbd,
  0x80, 0x7e, 0x86, 0xbe, 0x61, 0xa2, 0xdb, 0xbd, 0xe8, 0x11, 0xa2, 0xbd,
  0xdd, 0xd4, 0x81, 0x3b, 0x1b, 0x4b, 0x33, 0xbe, 0x97, 0x0d, 0x04, 0xbd,
  0x65, 0x08, 0x25, 0x3c, 0x35, 0x4f, 0x38, 0x3d, 0xfb, 0xf0, 0x77, 0xbc,
  0xc5, 0x4a, 0xc4, 0xbe, 0x55, 0x70, 0xa8, 0xbd, 0x04, 0x6a, 0xd1, 0xbe,
  0x68, 0xdb, 0x57, 0xbe, 0xb4, 0x76, 0xfb, 0x3d, 0xb2, 0x30, 0x55, 0x3c,
  0x4e, 0xdb, 0xf5, 0x3c, 0xc5, 0x62, 0x3d, 0xbf, 0xad, 0xb4, 0x7a, 0xbe,
  0x19, 0xfc, 0xd6, 0xbd, 0x57, 0x81, 0x17, 0xbf, 0xfb, 0x0f, 0x6c, 0x3b,
  0xa3, 0xec, 0x76, 0xbe, 0x41, 0xed, 0xa1, 0x3c, 0x36, 0xce, 0xf1, 0xbd,
  0x11, 0x71, 0xad, 0x3d, 0xde, 0x05, 0x9b, 0xbe, 0x07, 0xbe, 0x09, 0x3c,
  0x4a, 0xd7, 0xe0, 0xbc, 0xff, 0x79, 0xcc, 0x3d, 0x1e, 0xd9, 0xf4, 0xbd,
  0xa5, 0xf8, 0x5e, 0x3c, 0xe9, 0xfa, 0xd4, 0x3c, 0x19, 0xdb, 0x7f, 0xbe,
  0x97, 0x24, 0x8a, 0xbe, 0x4f, 0x89, 0x39, 0x3d, 0xef, 0x29, 0xf6, 0xbe,
  0x8c, 0x48, 0x84, 0x3d, 0x6a, 0x5e, 0xd0, 0xbe, 0x24, 0x36, 0xc0, 0xbb,
  0xcb, 0xf1, 0x0d, 0xbc, 0x95, 0x87, 0xbf, 0x3d, 0x63, 0xba, 0x55, 0xbc,
  0xe9, 0x75, 0xe9, 0xbd, 0x73, 0x4f, 0x4c, 0xbc, 0xea, 0x11, 0x93, 0xbe,
  0x9b, 0xdd, 0x9e, 0x3d, 0xa8, 0x47, 0xa3, 0xbc, 0x25, 0x48, 0x31, 0x3d,
  0x1c, 0x60, 0xcb, 0x3d, 0xee, 0x08, 0x0d, 0x3e, 0xe8, 0x2f, 0x87, 0x3d,
  0x63, 0xdc, 0x73, 0xbe, 0x4a, 0xb0, 0x7c, 0xbd, 0x4c, 0xa1, 0xae, 0xbe,
  0x34, 0x9e, 0x03, 0xbd, 0xf3, 0x8a, 0xb7, 0x3d, 0x87, 0x34, 0x5a, 0x3e,
  0xb2, 0xb0, 0xa8, 0xbe, 0xfd, 0x31, 0x8b, 0xbe, 0xcc, 0x62, 0x82, 0xbe,
  0xbc, 0x42, 0x99, 0xbd, 0x25, 0xbb, 0x2d, 0x3d, 0x67, 0x30, 0x9d, 0xbd,
  0xb0, 0xd0, 0x46, 0x3c, 0x0f, 0xd2, 0x10, 0xbe, 0x6c, 0xe3, 0x3d, 0xbe,
  0x5e, 0xd9, 0x1d, 0xbe, 0xee, 0xc5, 0x97, 0xbe, 0xd0, 0xd9, 0x6c, 0xbd,
  0x6e, 0xa3, 0x87, 0xbe, 0x25, 0x3c, 0xc1, 0xbc, 0x8a, 0x23, 0xdc, 0x3c,
  0x1c, 0xe8, 0xec, 0xbd, 0xb7, 0x34, 0xbc, 0xbd, 0x70, 0x5b, 0x07, 0xbd,
  0x59, 0xd8, 0xcc, 0xbd, 0xd2, 0x30, 0x85, 0x3e, 0x94, 0xa0, 0xc2, 0xbd,
  0x77, 0xe7, 0x6e, 0xbe, 0x6c, 0x55, 0x22, 0xbe, 0xd5, 0x3d, 0xdb, 0xbd,
  0x8b, 0x77, 0x9d, 0x3a, 0xe3, 0x66, 0x7d, 0xbd, 0xc5, 0x38, 0xb5, 0xbe,
  0x48, 0x01, 0xb1, 0xbb, 0x93, 0x72, 0x2d, 0xbd, 0xcb, 0x8c, 0xde, 0xbd,
  0x52, 0xf6, 0xa6, 0xbe, 0xd1, 0x80, 0x13, 0x3d, 0x1c, 0xaf, 0x29, 0xbe,
  0x1f, 0x70, 0x59, 0xbe, 0xbc, 0x3d, 0x83, 0xbe, 0x93, 0x09, 0x91, 0xbb,
  0x49, 0xe1, 0xfe, 0x3c, 0xd6, 0xa5, 0x4c, 0xbe, 0x20, 0x85, 0x03, 0xbe,
  0x1b, 0xad, 0xa7, 0xbd, 0x0d, 0xe3, 0x8b, 0xbe, 0x59, 0x07, 0x8a, 0xbc,
  0x5c, 0x32, 0xcd, 0xbe, 0x29, 0x25, 0xaa, 0xbd, 0x91, 0x30, 0xe1, 0xbd,
  0x50, 0x0d, 0x96, 0xbd, 0x20, 0x7b, 0xbc, 0xbe, 0x1c, 0xd4, 0x53, 0xbe,
  0x0e, 0x3d, 0x0d, 0x3e, 0x8b, 0x9f, 0x7e, 0x3d, 0x0d, 0x62, 0xb9, 0xbd,
  0x06, 0x95, 0x29, 0x3e, 0x3e, 0xf7, 0x2c, 0xbe, 0xcc, 0xfc, 0x86, 0xbe,
  0x37, 0x9d, 0x4e, 0xbd, 0x97, 0x6c, 0x52, 0xbd, 0x6b, 0xb7, 0x7f, 0x3c,
  0x67, 0x1d, 0x42, 0x3d, 0x3e, 0x7b, 0x16, 0xbe, 0xdf, 0xe9, 0x4e, 0xbd,
  0xb4, 0xb7, 0xe5, 0xbc, 0xc3, 0x7b, 0x72, 0xbd, 0xd6, 0x14, 0xb4, 0xbe,
  0x09, 0xb9, 0xef, 0xbd, 0xc4, 0xc6, 0xa7, 0xbd, 0x55, 0x8e, 0xb6, 0xbd,
  0xaf, 0x03, 0xa9, 0xbd, 0x43, 0x02, 0x03, 0xbe, 0xe9, 0x38, 0x25, 0xbc,
  0x5b, 0x79, 0xba, 0xbe, 0x82, 0x72, 0x3d, 0xbd, 0x1b, 0xb6, 0xe8, 0xbd,
  0x8f, 0x63, 0xb8, 0xbd, 0x25, 0xe1, 0xe3, 0xbd, 0x19, 0x00, 0x76, 0xbe,
  0x83, 0xaf, 0x65, 0x3d, 0x7f, 0x05, 0xae, 0x3d, 0x54, 0xe7, 0xdb, 0xbd,
  0x7f, 0x40, 0xf0, 0xbe, 0xcc, 0x95, 0x09, 0xbe, 0xd7, 0xdf, 0xe1, 0x3d,
  0x63, 0xea, 0x1f, 0xbe, 0x09, 0xb9, 0xb6, 0xbe, 0x45, 0x07, 0xc7, 0xbd,
  0x33, 0x66, 0x61, 0xbd, 0x59, 0xcb, 0xcc, 0xbe, 0x34, 0xb6, 0xae, 0xbc,
  0x12, 0xe0, 0xbc, 0xbe, 0xa2, 0x8b, 0x9d, 0xbd, 0xa0, 0x07, 0x90, 0xbd,
  0x05, 0x5b, 0x42, 0xbf, 0xfa, 0x76, 0x70, 0xbe, 0xea, 0xe2, 0x1d, 0xbe,
  0xef, 0x5a, 0xc0, 0xbd, 0xe4, 0xcb, 0x4e, 0xbe, 0x4d, 0x7a, 0x86, 0x3d,
  0xd5, 0x18, 0xdb, 0xbd, 0xc9, 0x66, 0x96, 0x3c, 0x98, 0x3d, 0x9a, 0xbe,
  0x16, 0xbd, 0x01, 0x3e, 0x46, 0x55, 0x51, 0xbe, 0x3d, 0xe5, 0x99, 0x3d,
  0x73, 0x7d, 0x93, 0xbd, 0xf1, 0x3e, 0x48, 0xbe, 0x2e, 0xd6, 0x67, 0xbe,
  0xad, 0x86, 0x5e, 0xbc, 0x4a, 0x9c, 0xf9, 0xbc, 0x7c, 0xbf, 0xd0, 0x3d,
  0x16, 0x54, 0x60, 0xbe, 0x1b, 0x7d, 0x16, 0xbd, 0x9f, 0xe0, 0xa9, 0xbe,
  0x32, 0x87, 0xf3, 0xbd, 0x15, 0xd0, 0x4b, 0x3e, 0x63, 0xec, 0xe6, 0xbd,
  0x21, 0xb6, 0x7a, 0x3e, 0xb1, 0x1a, 0x94, 0x3e, 0x82, 0x35, 0x7f, 0xbe,
  0xac, 0x2e, 0xd4, 0x3d, 0x47, 0x8d, 0x14, 0xbe, 0x0a, 0x94, 0x00, 0x3d,
  0x8a, 0x90, 0x12, 0xbe, 0x85, 0x72, 0x65, 0x3b, 0x43, 0x36, 0x12, 0xbd,
  0xc4, 0xec, 0x3b, 0xbd, 0x76, 0x18, 0x84, 0xbe, 0x2d, 0x37, 0xfe, 0x3d,
  0x49, 0x0f, 0x38, 0xbd, 0x02, 0x71, 0x05, 0xbd, 0x6c, 0x45, 0xcc, 0x3d,
  0xb1, 0x66, 0x0c, 0xbe, 0xfa, 0xb8, 0x5d, 0x3d, 0xd7, 0x15, 0x25, 0x3e,
  0xa0, 0x93, 0x9a, 0x3d, 0xe9, 0x64, 0xb7, 0x3e, 0x63, 0xde, 0xa1, 0x3d,
  0x7b, 0x1f, 0xd1, 0x3d, 0x80, 0x0c, 0x1e, 0x3e, 0xd6, 0x71, 0xae, 0x3d,
  0xce, 0xc5, 0xa6, 0x3d, 0xd8, 0xb4, 0x0d, 0xbd, 0xb0, 0x00, 0x88, 0xbc,
  0x9f, 0xbd, 0x08, 0x3d, 0x87, 0x17, 0x07, 0x3e, 0xac, 0x6e, 0x24, 0xbe,
  0xb9, 0x0e, 0xbf, 0xbc, 0x00, 0x95, 0xd0, 0xbd, 0x4f, 0xe3, 0x29, 0x3e,
  0x3c, 0x8e, 0xaf, 0x3d, 0x43, 0xd3, 0x33, 0xbe, 0xe1, 0xb1, 0x06, 0x3e,
  0x8a, 0xf1, 0x13, 0xbe, 0xf4, 0xf2, 0xb8, 0xbd, 0x5a, 0x0c, 0xaf, 0x3e,
  0xe3, 0xb9, 0x93, 0xbe, 0xc3, 0xe7, 0xfa, 0x3d, 0xc4, 0x77, 0x9b, 0x3c,
  0xaf, 0x7f, 0x25, 0x3e, 0x53, 0xf0, 0xb0, 0xbc, 0x7c, 0xab, 0xdf, 0x3d,
  0x5b, 0x4e, 0xc1, 0xbc, 0xfe, 0x9b, 0xaa, 0x3d, 0x78, 0xbb, 0x5f, 0x3d,
  0x67, 0x75, 0x52, 0xbe, 0x4f, 0x25, 0x37, 0x3e, 0x61, 0x0b, 0xa2, 0xbe,
  0x60, 0x61, 0xab, 0xbe, 0xc0, 0xfd, 0xfc, 0xbd, 0xa1, 0x2d, 0x08, 0xbe,
  0xae, 0x7b, 0x75, 0xbe, 0xef, 0x80, 0x3f, 0xbe, 0x51, 0x6a, 0xfc, 0x3b,
  0x72, 0xbd, 0x00, 0xbe, 0x58, 0xe2, 0x01, 0x3e, 0x5d, 0x22, 0xdb, 0xbc,
  0x56, 0x57, 0x4f, 0x3d, 0x28, 0x4c, 0x19, 0xbe, 0x1a, 0x14, 0x54, 0xbe,
  0xb6, 0xf0, 0x1b, 0xbd, 0x4f, 0x46, 0x9c, 0xbe, 0xf2, 0x7d, 0x64, 0xbe,
  0xfd, 0xb3, 0x15, 0xbe, 0xb9, 0x4a, 0xd0, 0xbd, 0xf5, 0x88, 0x8c, 0xbe,
  0x74, 0x65, 0xc2, 0xbe, 0x3c, 0xe8, 0xf4, 0x3d, 0xbb, 0xd1, 0xa5, 0xbb,
  0xa1, 0xa6, 0xbe, 0xbd, 0x09, 0x5d, 0x89, 0xbc, 0x4a, 0x30, 0x4a, 0x3e,
  0x44, 0x80, 0xb2, 0xbc, 0xc2, 0x7b, 0x9a, 0xbd, 0x71, 0x8f, 0x25, 0x3c,
  0xe0, 0xf3, 0x3f, 0xbd, 0x8d, 0xce, 0x1f, 0xbd, 0xb7, 0x97, 0xa8, 0xbe,
  0x5c, 0xa2, 0x2e, 0xbd, 0xcf, 0xb7, 0x3b, 0x3d, 0x5d, 0xfb, 0xd4, 0xbe,
  0x27, 0x64, 0xa0, 0xbe, 0xd7, 0xb7, 0xcf, 0xbe, 0x48, 0x7a, 0x82, 0xbd,
  0x5a, 0x9b, 0x07, 0xbe, 0x8a, 0x3c, 0x82, 0xbd, 0x59, 0x6d, 0x46, 0xbc,
  0xc2, 0x57, 0x97, 0x3d, 0x67, 0x64, 0xac, 0xbc, 0xef, 0x88, 0xf7, 0xbd,
  0x9d, 0x0d, 0xbf, 0xbd, 0xe6, 0x2d, 0xe6, 0xbd, 0x12, 0x97, 0xff, 0xbd,
  0xa5, 0x37, 0x3d, 0xbe, 0x92, 0x1f, 0x94, 0x3d, 0xd7, 0xc3, 0x18, 0xbe,
  0x79, 0xf1, 0x8c, 0x3e, 0xcf, 0x81, 0x88, 0x3b, 0x2c, 0x79, 0x85, 0xbe,
  0xbf, 0xc1, 0xc7, 0xbd, 0x26, 0x31, 0xb3, 0xbd, 0x7f, 0xc9, 0xe3, 0x3c,
  0x90, 0xc2, 0x07, 0xbe, 0xf5, 0x59, 0xfd, 0x3d, 0x2a, 0x92, 0x9d, 0xbc,
  0x0b, 0xa2, 0xc2, 0x3c, 0xd1, 0xe0, 0x88, 0xbd, 0x8e, 0xa2, 0xd2, 0x3d,
  0x09, 0xbb, 0x83, 0xbe, 0x64, 0xef, 0x77, 0xbd, 0x8a, 0x12, 0x8a, 0x3d,
  0xda, 0xc8, 0x2d, 0xbe, 0xdb, 0xcb, 0x86, 0x3d, 0x9d, 0x31, 0x21, 0xbe,
  0xbf, 0x88, 0xd2, 0xbc, 0x16, 0xbd, 0x06, 0xbe, 0xb9, 0x7f, 0xdb, 0xbc,
  0xcd, 0x7e, 0x3b, 0x3e, 0xa8, 0x16, 0x01, 0xbd, 0x54, 0x92, 0x2a, 0x3e,
  0xf6, 0x47, 0xac, 0x3c, 0x02, 0x72, 0x60, 0x3c, 0xb9, 0x4b, 0x3c, 0xbd,
  0x7f, 0xfb, 0x99, 0x3d, 0x2d, 0xb9, 0x5b, 0xbd, 0x0d, 0x12, 0xf1, 0xbd,
  0xcf, 0xab, 0xa3, 0x3d, 0xff, 0xf2, 0xad, 0x3c, 0xb7, 0x59, 0x51, 0x3e,
  0xfd, 0x55, 0xea, 0xbd, 0xbd, 0x12, 0x0c, 0x3e, 0x63, 0xb0, 0xeb, 0x3d,
  0x59, 0xdc, 0x63, 0xbe, 0x1c, 0xa8, 0xfd, 0x3d, 0xf5, 0x53, 0xd1, 0xbc,
  0x4d, 0x66, 0x6e, 0x3b, 0xbb, 0x4d, 0x4f, 0xbd, 0xc2, 0xf5, 0x89, 0xbe,
  0x71, 0xba, 0x08, 0xbd, 0x5f, 0xf1, 0xa4, 0x3e, 0x42, 0x29, 0xfd, 0x3d,
  0x38, 0x0c, 0x0e, 0x3e, 0x0c, 0x8a, 0x90, 0x3d, 0xb7, 0x5c, 0x80, 0x3c,
  0x0f, 0x66, 0x49, 0xbe, 0x13, 0x58, 0x52, 0xbc, 0x37, 0x6a, 0x07, 0x3e,
  0xc0, 0x31, 0xa7, 0x3e, 0x03, 0xd2, 0xb5, 0xbe, 0x7b, 0x14, 0x19, 0x3e,
  0x6b, 0xd2, 0x3e, 0x3e, 0x1f, 0xd3, 0x21, 0xbe, 0x70, 0x64, 0x01, 0xbd,
  0x38, 0x47, 0xca, 0xbd, 0x43, 0x8c, 0x6c, 0xbe, 0x95, 0x6f, 0x94, 0xbd,
  0xe2, 0x2f, 0x0f, 0xbe, 0x1d, 0x71, 0xe8, 0xbd, 0xf3, 0x00, 0x97, 0xbc,
  0x4f, 0x74, 0xe3, 0x3c, 0xfe, 0x9f, 0x1b, 0xbe, 0xe0, 0x4b, 0x62, 0xbe,
  0xa9, 0xde, 0x46, 0xbe, 0x3a, 0xff, 0x59, 0xbe, 0x97, 0x29, 0x05, 0xbe,
  0x56, 0xcd, 0x82, 0xbe, 0xbc, 0x9b, 0x57, 0x3d, 0xe9, 0xc1, 0x86, 0xbd,
  0xf5, 0x51, 0xe0, 0xbb, 0x43, 0x16, 0x05, 0xbc, 0xe2, 0x04, 0x0b, 0xbd,
  0xf8, 0x68, 0xe4, 0xbe, 0x4e, 0x28, 0x2f, 0xbe, 0x6e, 0xe1, 0x97, 0xbe,
  0x62, 0xa3, 0x99, 0xbe, 0xaf, 0xdf, 0xbb, 0x3d, 0xbf, 0xbd, 0xd7, 0x3c,
  0xa9, 0x90, 0x86, 0xbe, 0xd7, 0xac, 0xee, 0xbe, 0x3e, 0xaa, 0x36, 0xbe,
  0x83, 0xac, 0x85, 0xbe, 0x64, 0xb9, 0x80, 0xbe, 0x44, 0x83, 0xd5, 0xbc,
  0x5f, 0x5f, 0xc6, 0xbe, 0x69, 0x89, 0x18, 0xbd, 0xf4, 0x0a, 0xcd, 0xbd,
  0x53, 0x2c, 0x8c, 0xbd, 0xc2, 0x19, 0x9c, 0xbe, 0x52, 0x69, 0x2b, 0xbe,
  0x2f, 0x86, 0xab, 0xbe, 0x89, 0x3e, 0xbc, 0x3d, 0x64, 0x02, 0x30, 0x3d,
  0xca, 0x89, 0xe5, 0x3d, 0xe3, 0x85, 0xfd, 0xbd, 0x30, 0x51, 0x8a, 0xbd,
  0x2b, 0x32, 0x10, 0x3e, 0xd4, 0xd9, 0x58, 0xbe, 0x7c, 0xc7, 0x87, 0xbe,
  0x05, 0x1c, 0x0a, 0x3e, 0x5d, 0xc6, 0x00, 0xbe, 0x2c, 0x84, 0x57, 0xbd,
  0x1d, 0xf4, 0x04, 0x3e, 0xac, 0xfd, 0x0a, 0xbd, 0x62, 0x2e, 0x36, 0xbb,
  0x69, 0x85, 0x01, 0xbe, 0xc8, 0x8b, 0x67, 0xbe, 0x9b, 0x27, 0x16, 0xbe,
  0xe0, 0x2f, 0x62, 0xbe, 0x20, 0x44, 0x5b, 0x3e, 0x79, 0x06, 0x45, 0x3d,
  0x50, 0xff, 0x77, 0xbe, 0xc9, 0x5b, 0x49, 0xbd, 0x8e, 0xc7, 0x80, 0xbe,
  0xe0, 0x9c, 0xc8, 0xbd, 0xb3, 0x0f, 0x7e, 0x3d, 0x48, 0x12, 0x4f, 0xbd,
  0xd3, 0x04, 0x57, 0xbd, 0xff, 0xc8, 0xed, 0x3d, 0xe1, 0xc2, 0x87, 0xbe,
  0x42, 0xac, 0x83, 0xbe, 0x0c, 0x5d, 0x94, 0xbd, 0x9b, 0x06, 0xb0, 0xbd,
  0xdd, 0x81, 0x67, 0xbd, 0x4c, 0xbf, 0x53, 0xbe, 0xd8, 0x19, 0x94, 0xbe,
  0xd0, 0xea, 0xc9, 0x3c, 0x45, 0x24, 0x4a, 0xbe, 0x11, 0xa7, 0xcb, 0x3d,
  0xb2, 0xd9, 0x98, 0xbe, 0x16, 0x9d, 0x42, 0xbe, 0xff, 0xab, 0x5d, 0xbe,
  0x80, 0xd7, 0x52, 0xbe, 0x54, 0xd7, 0x3d, 0xbd, 0xa8, 0xd4, 0xbe, 0xbd,
  0xca, 0x06, 0x4a, 0xbe, 0xfe, 0xaf, 0x47, 0xbc, 0x8c, 0x5c, 0x34, 0x3d,
  0x78, 0x52, 0x59, 0xbe, 0xff, 0x46, 0xb9, 0xbd, 0xd5, 0xe6, 0x1b, 0xbe,
  0x7e, 0x55, 0xd7, 0x3d, 0xdd, 0x2c, 0x04, 0x3d, 0x82, 0xab, 0x32, 0xbe,
  0x93, 0xc1, 0x23, 0xbe, 0x5a, 0x09, 0x86, 0xbc, 0x6e, 0x28, 0x87, 0xbe,
  0xc4, 0xc4, 0x18, 0xbe, 0x15, 0x63, 0x30, 0xbe, 0x38, 0x68, 0x06, 0xbe,
  0xba, 0x11, 0x49, 0x3d, 0xc5, 0xde, 0xee, 0x3d, 0xd7, 0xa8, 0x96, 0x3d,
  0x4b, 0x7c, 0x3b, 0x3d, 0x74, 0x29, 0x18, 0x3e, 0x47, 0x89, 0x62, 0xbe,
  0xb1, 0x3a, 0x93, 0x3d, 0xb9, 0x92, 0x16, 0xbd, 0xa8, 0x26, 0x1a, 0xbe,
  0xf2, 0xf0, 0x8f, 0xbe, 0x70, 0x1e, 0x8a, 0x3d, 0xe7, 0x82, 0x55, 0x3d,
  0x84, 0x8f, 0xb8, 0x3d, 0xfb, 0x25, 0xb1, 0xbd, 0x52, 0xf5, 0xee, 0xbc,
  0xa5, 0x17, 0x96, 0xbe, 0x55, 0x4e, 0x54, 0xbe, 0x39, 0x3d, 0x24, 0x3e,
  0xbd, 0x16, 0x87, 0x3c, 0xf7, 0x1a, 0x18, 0xbe, 0x88, 0xbc, 0x3a, 0xbe,
  0x5c, 0x3d, 0x85, 0x3d, 0xd6, 0x82, 0x9e, 0xbd, 0x32, 0x55, 0x50, 0x3d,
  0x49, 0xd3, 0x4e, 0x3d, 0x8f, 0x41, 0xce, 0xbc, 0xcc, 0xac, 0x9b, 0xbc,
  0xfe, 0x5f, 0x0a, 0xbe, 0x89, 0x3a, 0xcc, 0xbd, 0x50, 0x40, 0x4d, 0x3d,
  0xb7, 0xe8, 0xa4, 0xbd, 0x9d, 0x82, 0x54, 0xbd, 0x2e, 0xaf, 0x95, 0xbd,
  0x58, 0x76, 0x38, 0x3e, 0xfe, 0xe3, 0xac, 0xbc, 0x3e, 0xf1, 0x99, 0xbd,
  0x68, 0xa7, 0x2e, 0x3e, 0xe7, 0xcf, 0x6e, 0xbe, 0xed, 0x7e, 0x10, 0x3e,
  0xb4, 0x18, 0x52, 0xbe, 0x03, 0xb8, 0x78, 0x3d, 0x59, 0x60, 0x7b, 0xbd,
  0x82, 0x8e, 0xa2, 0x3d, 0x81, 0xad, 0x1c, 0xbd, 0x2c, 0x46, 0x1a, 0xbe,
  0x8c, 0x8f, 0x33, 0xbe, 0xc6, 0xf5, 0x4d, 0xbd, 0x8f, 0x30, 0x1c, 0xbc,
  0xbe, 0x14, 0x46, 0xbe, 0x3c, 0x12, 0xde, 0xbc, 0xb9, 0x5a, 0xaf, 0x3d,
  0xae, 0xaa, 0x26, 0x3e, 0xff, 0x58, 0x01, 0xbe, 0x79, 0x72, 0xa6, 0xbc,
  0x74, 0x55, 0x6b, 0xbc, 0x71, 0xe5, 0x24, 0xbe, 0x85, 0x41, 0xb1, 0x3d,
  0x1e, 0xb0, 0x98, 0xbe, 0x25, 0x93, 0xeb, 0xbd, 0xbe, 0x72, 0x3a, 0xbc,
  0xa5, 0x94, 0x4b, 0x3c, 0xc5, 0xcf, 0xbb, 0xbc, 0x74, 0x63, 0x8f, 0x3d,
  0x69, 0x39, 0xa8, 0xbc, 0x3e, 0x51, 0xd1, 0x3a, 0x55, 0x0f, 0x5f, 0xbe,
  0xbd, 0x50, 0xed, 0x3b, 0x7c, 0xb0, 0xb0, 0xbc, 0x73, 0xcb, 0x97, 0x3c,
  0x3e, 0x4e, 0x25, 0x3d, 0xb4, 0xbd, 0x66, 0xbe, 0xa1, 0x81, 0x62, 0xbe,
  0xd6, 0xe1, 0xe0, 0xbc, 0x1f, 0x73, 0xc6, 0xbd, 0xc7, 0xb1, 0xc4, 0xbd,
  0xf5, 0x2a, 0x51, 0xbe, 0x14, 0x32, 0xa1, 0xbd, 0x8b, 0xf9, 0x04, 0xbe,
  0xaf, 0x72, 0x66, 0xbe, 0x98, 0x81, 0x72, 0xbe, 0x45, 0x27, 0xf9, 0xbd,
  0xd5, 0x0b, 0x52, 0xbe, 0x7f, 0x0b, 0x25, 0x3e, 0x1d, 0x21, 0x99, 0xbd,
  0x6a, 0x48, 0x7c, 0x3d, 0x66, 0x5d, 0x1d, 0xbe, 0x9d, 0x2c, 0x29, 0x3e,
  0x4d, 0x1f, 0x50, 0xbe, 0x71, 0x52, 0x9b, 0x3c, 0x48, 0xca, 0x13, 0xbd,
  0x7a, 0x17, 0x01, 0xbe, 0x33, 0x8b, 0x19, 0x3e, 0x75, 0xa4, 0xb8, 0xbc,
  0x42, 0xd5, 0xbf, 0xbb, 0x6f, 0x5a, 0x94, 0xbe, 0x1c, 0x2e, 0x6d, 0xbe,
  0x09, 0x93, 0x06, 0xbe, 0x58, 0x81, 0x34, 0xbd, 0x55, 0xaa, 0x5e, 0x3c,
  0xf5, 0x4f, 0x84, 0xbd, 0xd1, 0x9e, 0xd3, 0xb9, 0x4b, 0x44, 0x1a, 0xbe,
  0xcf, 0x2d, 0x2e, 0x3e, 0x7a, 0x55, 0x57, 0x3e, 0x3c, 0x43, 0x1c, 0xbe,
  0x22, 0x21, 0x6e, 0x3d, 0x02, 0x1e, 0x36, 0x3e, 0x1d, 0xba, 0x71, 0x3e,
  0xca, 0x7e, 0x79, 0xbd, 0xb6, 0x0f, 0xd9, 0xbd, 0x05, 0x24, 0x2c, 0xbe,
  0x49, 0x54, 0xbd, 0xbd, 0x7c, 0x94, 0xc2, 0xbe, 0x26, 0x8d, 0x5a, 0x3d,
  0xd7, 0x25, 0x01, 0xbe, 0xdc, 0x17, 0x1c, 0x3b, 0xab, 0x47, 0xb4, 0xbe,
  0xfd, 0xc1, 0xee, 0x3b, 0x57, 0xfb, 0xa8, 0xbd, 0xa8, 0x75, 0x01, 0xbe,
  0x6d, 0xcd, 0x58, 0xbc, 0xcf, 0x0b, 0x08, 0xbf, 0x36, 0x2b, 0x03, 0xbe,
  0xb4, 0x64, 0x4b, 0xbe, 0xff, 0xd7, 0x6f, 0xbe, 0x2c, 0xa2, 0x84, 0xbd,
  0xc2, 0xce, 0x54, 0xbe, 0x63, 0x1e, 0x17, 0xbd, 0xcb, 0x51, 0xee, 0xbe,
  0x78, 0x36, 0x3e, 0x3d, 0x90, 0xb5, 0x60, 0xbe, 0x1d, 0x8e, 0x97, 0xbd,
  0x5e, 0x3c, 0xb2, 0xbd, 0xd0, 0x16, 0x2e, 0x3e, 0x02, 0xc7, 0x9e, 0x3d,
  0x87, 0x18, 0xa0, 0xbd, 0x62, 0x75, 0xb8, 0xbe, 0x8e, 0x72, 0xa6, 0xbe,
  0x4f, 0xcf, 0x27, 0x3d, 0xd7, 0x18, 0x75, 0xbe, 0xc9, 0x40, 0x92, 0xbe,
  0xb4, 0xb7, 0x40, 0xbd, 0xd2, 0xc7, 0x75, 0x3d, 0x35, 0x3d, 0x8e, 0xbc,
  0xed, 0x3e, 0xee, 0xbe, 0x74, 0x21, 0x2c, 0xbd, 0xf5, 0x97, 0x8d, 0xbd,
  0xaf, 0xa3, 0x1e, 0xbe, 0x8c, 0x5a, 0x0d, 0xbe, 0xa4, 0x20, 0x8d, 0x3d,
  0x35, 0x05, 0x3a, 0x3e, 0x9c, 0xd8, 0x26, 0xbd, 0x5a, 0x83, 0xd6, 0xbd,
  0x87, 0xfe, 0x0d, 0xbe, 0x41, 0xfb, 0x94, 0xbe, 0x64, 0x69, 0x93, 0xbe,
  0xdf, 0xd0, 0x3d, 0x3d, 0xde, 0x21, 0x73, 0xbe, 0x3a, 0x80, 0x1c, 0xbc,
  0x92, 0xd0, 0xcd, 0xbc, 0x3e, 0xc3, 0xa5, 0xbe, 0xbd, 0x26, 0x62, 0x3d,
  0x2f, 0x05, 0x2d, 0x3e, 0x64, 0xf2, 0x0d, 0xbe, 0x48, 0x4e, 0x0a, 0xbe,
  0x97, 0x4f, 0xa1, 0x3d, 0x20, 0x04, 0x08, 0x3d, 0x25, 0x13, 0x80, 0x3d,
  0xf3, 0xb5, 0x72, 0xbc, 0x22, 0x0d, 0x1d, 0xbe, 0x35, 0xa6, 0x95, 0xbd,
  0xdd, 0xc8, 0x6f, 0xbe, 0xea, 0xce, 0xfe, 0x3d, 0xca, 0x7c, 0x10, 0x3c,
  0x3a, 0xbe, 0x5d, 0xbe, 0x96, 0xd3, 0xc1, 0x3c, 0x8f, 0x21, 0x43, 0x3e,
  0xb9, 0x8d, 0x08, 0x3e, 0x2c, 0x25, 0xd4, 0xbe, 0x9e, 0x5f, 0xd6, 0xbd,
  0xeb, 0x27, 0x33, 0xbe, 0x99, 0xcd, 0x87, 0xbe, 0x7a, 0xea, 0x0b, 0xbe,
  0x73, 0xad, 0x1f, 0xbe, 0x5e, 0x32, 0xa0, 0xbd, 0x7f, 0xd9, 0x08, 0xbf,
  0x90, 0xf3, 0xad, 0xbd, 0x15, 0xe8, 0x05, 0xbe, 0xf3, 0xdd, 0x72, 0x3d,
  0x2d, 0xf7, 0x51, 0xbe, 0x2c, 0xef, 0x07, 0xbd, 0xd4, 0x3f, 0x31, 0x3c,
  0xd3, 0x22, 0x92, 0x3e, 0x86, 0xb6, 0xac, 0x3d, 0xab, 0x95, 0xc4, 0xbe,
  0x97, 0x37, 0xb5, 0x3d, 0x5d, 0xce, 0xef, 0xbe, 0x4f, 0x94, 0xab, 0xbe,
  0x7e, 0x75, 0xb0, 0xbe, 0xd8, 0xdf, 0x0c, 0xbb, 0x33, 0x86, 0x95, 0xbe,
  0xb7, 0xc7, 0x01, 0xbf, 0xe6, 0x1d, 0x68, 0x3d, 0xf3, 0xe7, 0x84, 0xbe,
  0xf1, 0x07, 0x82, 0x3d, 0x66, 0x92, 0x5b, 0xbe, 0x99, 0xc6, 0x6e, 0x3e,
  0xea, 0x51, 0x59, 0x3d, 0x58, 0xf3, 0xcd, 0xbc, 0x28, 0xa5, 0xf5, 0xbd,
  0xde, 0x22, 0xba, 0xbd, 0xcf, 0xbb, 0x7d, 0xbe, 0x20, 0x19, 0x2e, 0xbe,
  0xd5, 0x58, 0xce, 0xbd, 0xbc, 0x17, 0x8b, 0xbe, 0x3a, 0x3f, 0x6d, 0xbb,
  0x93, 0xeb, 0x82, 0xbe, 0x65, 0xe6, 0x03, 0xbe, 0x52, 0xdb, 0xe3, 0x3d,
  0x3b, 0x84, 0x9c, 0xbe, 0x7c, 0x87, 0xf1, 0x3d, 0xb9, 0xd7, 0x61, 0xbe,
  0xc6, 0xa6, 0x09, 0x3e, 0x17, 0xd1, 0xf7, 0xbc, 0x4c, 0x08, 0x04, 0xbe,
  0x95, 0x99, 0x7d, 0x3b, 0x38, 0x8e, 0x8a, 0x3e, 0x4e, 0xeb, 0x9b, 0x3b,
  0x97, 0x43, 0x70, 0x3e, 0xaf, 0xb1, 0x21, 0x3e, 0xe8, 0xa1, 0x26, 0x3e,
  0x2a, 0xf9, 0x4b, 0x3d, 0x30, 0x3a, 0x96, 0xbe, 0x7e, 0xa6, 0x8b, 0x3d,
  0xaf, 0x65, 0xf0, 0x3e, 0xbc, 0xd6, 0xaf, 0xbd, 0xbb, 0x8c, 0xb7, 0xbd,
  0xa5, 0xd0, 0xc1, 0xbd, 0xe3, 0x7d, 0xd3, 0x3c, 0xe2, 0xbb, 0x11, 0xbe,
  0x7c, 0xc6, 0x8d, 0xbd, 0x1a, 0x3a, 0xc5, 0xbd, 0x64, 0x6f, 0xbf, 0xbe,
  0x90, 0x88, 0xd0, 0x3d, 0xa9, 0xd9, 0x15, 0xbe, 0xa3, 0x6f, 0x05, 0xbe,
  0x37, 0x6b, 0xc7, 0x3c, 0xc0, 0xbf, 0xd5, 0xbe, 0x2d, 0x1c, 0x76, 0xbe,
  0x87, 0xb0, 0x9a, 0xbe, 0x81, 0xdc, 0x6d, 0xbe, 0x1e, 0xbd, 0xed, 0x3c,
  0x24, 0x62, 0x81, 0xbe, 0x69, 0xa5, 0x21, 0x3e, 0xc2, 0xb8, 0x98, 0xbd,
  0x3c, 0x92, 0xcf, 0xbd, 0x40, 0xce, 0xaf, 0xbd, 0x64, 0x19, 0xee, 0xbd,
  0x35, 0xf4, 0xa0, 0xbe, 0x78, 0x7f, 0x10, 0x3e, 0x05, 0x86, 0xde, 0xbe,
  0x57, 0x59, 0x55, 0xbe, 0xe4, 0x39, 0xb3, 0xbd, 0xe9, 0xc8, 0x0d, 0xbe,
  0x83, 0x61, 0x2d, 0xbd, 0x73, 0xc7, 0xf2, 0xbe, 0xbe, 0xbe, 0x05, 0xbd,
  0xed, 0x3d, 0x6b, 0x3d, 0x9e, 0x73, 0xde, 0xbe, 0x6b, 0x96, 0xfc, 0x3d,
  0x24, 0x33, 0x8d, 0xbe, 0x0e, 0xf5, 0x88, 0xbd, 0x5f, 0xb8, 0x07, 0xbe,
  0xd3, 0xf5, 0xdd, 0x3c, 0x7e, 0x42, 0x19, 0xbe, 0x6e, 0xc9, 0x36, 0xbd,
  0x28, 0xca, 0x51, 0xbe, 0x10, 0x70, 0x97, 0xbe, 0x45, 0xfa, 0x07, 0xbd,
  0x03, 0x41, 0x18, 0x3d, 0xbd, 0xbc, 0xb4, 0x3b, 0x99, 0xe0, 0x8a, 0xbe,
  0x2f, 0x77, 0xa8, 0x3c, 0xbf, 0x2a, 0x89, 0xbe, 0xfe, 0xad, 0xf3, 0xbe,
  0xc0, 0x0d, 0x97, 0xbe, 0x3d, 0xd0, 0x38, 0xbe, 0xac, 0xd9, 0x7e, 0xbc,
  0xab, 0x60, 0xd7, 0xbd, 0x90, 0x44, 0xc9, 0xbd, 0x79, 0x10, 0x45, 0x3e,
  0xbe, 0x31, 0xa8, 0x3c, 0xdf, 0x4c, 0xb4, 0x3d, 0xed, 0x44, 0x80, 0x3e,
  0x98, 0x12, 0x75, 0x3e, 0x58, 0x09, 0x18, 0x3e, 0xcb, 0xfd, 0x3b, 0xbe,
  0xe7, 0x76, 0xbb, 0x3d, 0xfa, 0xcc, 0x2e, 0xbd, 0x2c, 0x61, 0x93, 0xbc,
  0x69, 0x6b, 0x08, 0x3e, 0x7a, 0x0c, 0x83, 0x3e, 0xf1, 0xbf, 0xf7, 0xbd,
  0x94, 0xd6, 0x50, 0xbd, 0x6a, 0x35, 0x22, 0xbc, 0xa9, 0xe7, 0xfd, 0x3d,
  0xcd, 0x8d, 0xe0, 0x3d, 0xcb, 0xcf, 0xb8, 0x3c, 0x80, 0xee, 0x1a, 0x3e,
  0x34, 0x2b, 0x91, 0x3e, 0x24, 0x9b, 0x04, 0x3c, 0x49, 0xbc, 0x9c, 0x3e,
  0xe3, 0xbb, 0x00, 0xbe, 0x6a, 0xdd, 0x2c, 0x3e, 0x49, 0xe3, 0x2a, 0x3d,
  0xd7, 0x21, 0xd6, 0xbb, 0x5c, 0x9f, 0x2f, 0x3d, 0x8f, 0x2e, 0xd0, 0x3d,
  0x55, 0x8b, 0xdd, 0xbd, 0x64, 0xe3, 0x55, 0x3c, 0x63, 0x47, 0xce, 0x3c,
  0xcc, 0x9b, 0x68, 0xbe, 0xfe, 0xbf, 0x96, 0xbe, 0x26, 0x83, 0x82, 0xbe,
  0xa2, 0x8f, 0xb8, 0xbe, 0x19, 0x68, 0x31, 0xbe, 0xcc, 0x42, 0xfa, 0xbd,
  0xc3, 0x52, 0x66, 0xbd, 0x6d, 0x40, 0xe7, 0xbd, 0x04, 0xe1, 0xdd, 0xbe,
  0x62, 0x62, 0x93, 0xbd, 0x3b, 0xce, 0xa2, 0xbd, 0xe1, 0x84, 0x92, 0xbd,
  0x94, 0x88, 0x46, 0xbe, 0xef, 0xff, 0xd3, 0x3c, 0x34, 0xbd, 0x17, 0xbe,
  0xee, 0xa5, 0xa4, 0xbd, 0x17, 0xf6, 0xfc, 0x3d, 0xa0, 0xc4, 0x9b, 0xbb,
  0x44, 0x02, 0xef, 0x3e, 0xf7, 0x92, 0xe8, 0x3d, 0xff, 0x60, 0x14, 0xbe,
  0x6f, 0x35, 0xe0, 0x3e, 0x18, 0xfb, 0xbe, 0x3c, 0x6b, 0x2a, 0xa6, 0x3e,
  0xb8, 0xe3, 0xa3, 0xbd, 0xf1, 0x88, 0xec, 0xbd, 0xf6, 0x18, 0x2a, 0x3f,
  0xd8, 0xf6, 0x13, 0x3d, 0xd1, 0x28, 0x8d, 0x3d, 0x09, 0x84, 0xc2, 0xbd,
  0xd0, 0x2e, 0x9b, 0xbe, 0x2e, 0xcc, 0x1a, 0xbe, 0x13, 0xf0, 0x3b, 0xbd,
  0x4f, 0xc6, 0x1c, 0xbd, 0x27, 0xc2, 0xd1, 0x3e, 0x98, 0xb4, 0x91, 0x3e,
  0x1d, 0xea, 0x98, 0xbe, 0x27, 0x95, 0x5d, 0x3e, 0x07, 0xae, 0x89, 0x3e,
  0xf5, 0x2f, 0xd4, 0x3e, 0xa0, 0x60, 0x96, 0x3e, 0x39, 0x90, 0xa0, 0xbd,
  0x1b, 0xab, 0x70, 0x3e, 0x3f, 0x2b, 0x52, 0xbd, 0x9d, 0x05, 0xec, 0x3d,
  0x4c, 0x55, 0x9a, 0xbc, 0x03, 0xfb, 0xab, 0xbe, 0x06, 0xa0, 0x2d, 0x3c,
  0xa1, 0x00, 0x26, 0x3e, 0x89, 0x81, 0x3c, 0x3e, 0xd5, 0x2b, 0xce, 0x3e,
  0x7d, 0xcc, 0x9c, 0x3e, 0x89, 0x5e, 0x8b, 0x3d, 0x2f, 0x29, 0xd8, 0x3d,
  0xe6, 0x5d, 0xdf, 0x3e, 0x0a, 0x60, 0xec, 0x3e, 0xc2, 0x1a, 0x06, 0x3e,
  0xc5, 0x0a, 0x3b, 0xbe, 0xa1, 0x9d, 0x33, 0x3f, 0xc4, 0x33, 0xae, 0xbd,
  0xba, 0x4e, 0x1f, 0x3e, 0xcb, 0x1e, 0x9e, 0x3d, 0xe4, 0xb1, 0x75, 0xbe,
  0x48, 0x2e, 0x01, 0x3e, 0x68, 0x86, 0xb0, 0x3c, 0x54, 0xd2, 0x41, 0xbe,
  0xef, 0x83, 0x3d, 0x3e, 0x86, 0x2d, 0xe2, 0x3e, 0x2a, 0x66, 0x67, 0x3d,
  0xc5, 0xd3, 0x08, 0xbb, 0x5a, 0x8f, 0x90, 0x3d, 0xd2, 0x5b, 0xb7, 0x3d,
  0xc1, 0x78, 0xb6, 0x3e, 0x85, 0x8f, 0xdb, 0x3d, 0xce, 0x6d, 0xb2, 0x3d,
  0x58, 0xcb, 0x71, 0x3e, 0xa9, 0x2d, 0x8c, 0x3d, 0xe1, 0x45, 0x0c, 0x3e,
  0x40, 0xf7, 0x45, 0xbe, 0xac, 0x10, 0xa9, 0xbd, 0x3e, 0x72, 0xa0, 0x3d,
  0x15, 0x0d, 0xe9, 0xbd, 0x39, 0x8a, 0xbd, 0x3e, 0xc8, 0xfb, 0x46, 0x3d,
  0x68, 0xc1, 0xa0, 0xbd, 0x20, 0x98, 0xb6, 0x3e, 0x26, 0xac, 0x2b, 0xbc,
  0xcc, 0x14, 0xcc, 0x3e, 0x71, 0x24, 0xdf, 0x3d, 0x84, 0xa2, 0xa5, 0x3c,
  0xed, 0xee, 0x25, 0x3f, 0xbf, 0x75, 0x89, 0x3d, 0x82, 0xec, 0x2f, 0x3e,
  0xf1, 0x42, 0xe0, 0xbd, 0x48, 0x65, 0x83, 0xbe, 0x02, 0x21, 0x8c, 0x3d,
  0xba, 0xf9, 0x05, 0xbe, 0x36, 0xf1, 0x08, 0xbd, 0xfe, 0xb5, 0xd6, 0x3e,
  0x1a, 0x5b, 0x4f, 0x3e, 0xe2, 0x1d, 0xb9, 0x3c, 0xf1, 0x7b, 0x6a, 0x3e,
  0xf0, 0xd2, 0xb2, 0x3d, 0x16, 0x0b, 0xa3, 0x3e, 0x07, 0x39, 0xd2, 0xbc,
  0x5b, 0x93, 0x33, 0x3e, 0xe3, 0x6c, 0xe9, 0x3e, 0x52, 0x7f, 0x21, 0xbe,
  0xdd, 0x0c, 0xbe, 0x3e, 0x51, 0x65, 0xab, 0x3d, 0xab, 0x69, 0x6e, 0xbe,
  0xb4, 0x5f, 0xb9, 0xbe, 0x96, 0x46, 0xa6, 0x3d, 0x49, 0xe7, 0x85, 0xbe,
  0x61, 0xb8, 0x07, 0x3f, 0x62, 0x08, 0x72, 0x3c, 0xb1, 0xf1, 0x5c, 0xbd,
  0x9a, 0x1e, 0x18, 0xbe, 0x54, 0x75, 0x46, 0x3e, 0xd1, 0x56, 0xba, 0x3e,
  0x85, 0xbe, 0x59, 0x3d, 0x4f, 0x01, 0x7a, 0xbc, 0xf8, 0x22, 0x81, 0x3e,
  0x8a, 0xfb, 0x0e, 0xbe, 0x18, 0x91, 0x22, 0x3e, 0x37, 0x13, 0x89, 0xbe,
  0xf5, 0x86, 0x13, 0x3c, 0x3e, 0x16, 0x31, 0xbd, 0xf9, 0xc5, 0xf8, 0xbd,
  0x23, 0x5c, 0x6c, 0xbe, 0x0d, 0xd7, 0x86, 0xbe, 0xf2, 0x87, 0xcb, 0xbe,
  0x3c, 0xa4, 0xd5, 0xbe, 0x46, 0x52, 0x20, 0xbe, 0x18, 0x08, 0x5d, 0xbd,
  0xcf, 0x9d, 0x8f, 0xbe, 0x69, 0x8f, 0x07, 0xbf, 0x89, 0x5b, 0xbf, 0x3c,
  0x51, 0xac, 0xa2, 0xbe, 0xb3, 0x2a, 0x90, 0xbb, 0xf9, 0x5f, 0x72, 0xbe,
  0xef, 0x27, 0xa8, 0x3e, 0x8d, 0x62, 0x92, 0xbc, 0x75, 0xe0, 0x0c, 0x3e,
  0xbe, 0xc1, 0xe8, 0x3c, 0xcc, 0x7b, 0x73, 0x3e, 0xc1, 0xe2, 0x9f, 0xbe,
  0xac, 0xf2, 0xc1, 0xbd, 0xa0, 0x17, 0x8f, 0x3d, 0x2e, 0x0b, 0x8b, 0xbe,
  0xa7, 0x9d, 0x88, 0xbd, 0xee, 0xab, 0x9f, 0xbe, 0x8d, 0x2b, 0x50, 0xbd,
  0xb0, 0xb4, 0x6b, 0xbd, 0xf0, 0x4b, 0xe0, 0xbe, 0xaf, 0xca, 0x57, 0x3e,
  0xc1, 0x1d, 0xb0, 0xbe, 0x5b, 0xe7, 0x57, 0x3e, 0x22, 0xe1, 0x13, 0xbd,
  0xc6, 0x50, 0x9a, 0x3c, 0x1c, 0x93, 0x5c, 0x3c, 0xf5, 0x30, 0xe2, 0x3e,
  0x79, 0x25, 0x83, 0xbe, 0x82, 0x53, 0xfe, 0x3d, 0xaa, 0x5b, 0xae, 0x3e,
  0x89, 0xee, 0x51, 0xbe, 0xc6, 0x77, 0x15, 0x3e, 0x59, 0x2c, 0xc1, 0xbe,
  0x38, 0x9e, 0x15, 0xbd, 0xbb, 0xf0, 0xa4, 0xbe, 0x71, 0x85, 0xb7, 0xbe,
  0x26, 0xef, 0x76, 0x3e, 0x0e, 0x96, 0x8c, 0xbe, 0x97, 0x31, 0x5e, 0x3e,
  0x63, 0xec, 0xb9, 0x3c, 0x78, 0x12, 0x58, 0x3d, 0xc6, 0x75, 0x50, 0xbc,
  0x50, 0x70, 0xbe, 0x3e, 0x99, 0x39, 0xa2, 0xbe, 0x13, 0x7d, 0x29, 0xbe,
  0x5c, 0x45, 0xcc, 0x3d, 0x0b, 0x1e, 0x53, 0xbe, 0xbc, 0x2a, 0x69, 0x3c,
  0x58, 0xfe, 0x89, 0xbe, 0x9a, 0x34, 0xad, 0xbe, 0xa2, 0xef, 0xa2, 0xbe,
  0xec, 0xd2, 0xe3, 0xbd, 0x8e, 0xed, 0x48, 0x3e, 0x52, 0x00, 0x9b, 0xbd,
  0x4f, 0x18, 0x92, 0x3e, 0x3a, 0xf1, 0x87, 0xba, 0xc5, 0xdc, 0x38, 0x3e,
  0x31, 0x37, 0x66, 0xbd, 0x1e, 0x81, 0x13, 0x3b, 0xd5, 0xa2, 0x99, 0xbe,
  0x93, 0xd4, 0xa2, 0xbe, 0x56, 0xf5, 0xb4, 0xbd, 0x32, 0xcf, 0xb4, 0xbe,
  0x21, 0x41, 0x34, 0xbe, 0x7b, 0xb7, 0x51, 0xbe, 0xef, 0xb1, 0x87, 0xbe,
  0xd3, 0x00, 0x8c, 0xbd, 0xe6, 0x28, 0xc8, 0xbe, 0xb6, 0x61, 0xf1, 0x3d,
  0xc0, 0x26, 0x9b, 0xbe, 0x85, 0xb1, 0xe9, 0x3e, 0x6e, 0x13, 0x0f, 0xbd,
  0x1a, 0x64, 0xd7, 0xbb, 0x7b, 0x01, 0x24, 0xbe, 0x42, 0xac, 0x32, 0xbd,
  0x42, 0xdb, 0x27, 0xbe, 0x04, 0x7f, 0x2b, 0xbe, 0xdb, 0x1a, 0x3f, 0xbb,
  0x78, 0xd8, 0xdc, 0xbe, 0x8f, 0x42, 0xa0, 0xbe, 0x97, 0x8b, 0x82, 0xbe,
  0xaf, 0x7b, 0xfa, 0xbd, 0xe4, 0x50, 0xbf, 0x3b, 0xb9, 0x65, 0xb2, 0xbe,
  0xa5, 0xe4, 0x90, 0x3d, 0x5f, 0xb2, 0xe4, 0xbe, 0xa7, 0xdb, 0x9f, 0x3e,
  0x64, 0x29, 0x26, 0xbd, 0x7c, 0xb3, 0x45, 0x3d, 0x34, 0xb2, 0x30, 0xbe,
  0x82, 0xe7, 0x00, 0xbe, 0x3a, 0x92, 0x3e, 0xbe, 0x71, 0x40, 0x91, 0xbe,
  0x42, 0xad, 0xdb, 0xbd, 0x22, 0x14, 0x4c, 0x3e, 0x73, 0x61, 0x0f, 0xbe,
  0x97, 0xfb, 0x90, 0xbe, 0xa1, 0xbe, 0x2d, 0xbe, 0xfa, 0x71, 0x92, 0x3d,
  0x23, 0x6d, 0xe0, 0xbd, 0xda, 0x76, 0xbc, 0x3d, 0x1b, 0xf4, 0x23, 0xbe,
  0xb7, 0x48, 0xed, 0xbe, 0x54, 0x9a, 0xb2, 0x3c, 0x70, 0xa2, 0x07, 0x3e,
  0xca, 0x22, 0xbb, 0xbd, 0x59, 0xa1, 0xd1, 0xbe, 0xca, 0x92, 0xb3, 0xbd,
  0x2f, 0x6d, 0xf1, 0xbd, 0xf2, 0x0a, 0x6b, 0xbe, 0xfc, 0x8a, 0xb1, 0xbc,
  0x7c, 0x76, 0xcc, 0x3d, 0x1e, 0x1c, 0xc3, 0xbd, 0x4e, 0xc6, 0x80, 0xbe,
  0x70, 0xaa, 0xd6, 0x3d, 0x26, 0x03, 0x7d, 0xbd, 0x37, 0xa5, 0x71, 0xbe,
  0xd9, 0x74, 0x87, 0xbe, 0x22, 0xb1, 0x0f, 0x3e, 0x4f, 0x17, 0x12, 0xbe,
  0xe0, 0x03, 0x19, 0xbd, 0xb5, 0xef, 0xb2, 0x3d, 0xbf, 0x08, 0x30, 0x3e,
  0xb9, 0x7b, 0xcc, 0xbd, 0x7f, 0xdc, 0xfe, 0xbc, 0xe9, 0x7a, 0x63, 0x3d,
  0x00, 0xad, 0x48, 0x3c, 0x97, 0x30, 0x59, 0xbe, 0x42, 0x3a, 0x7a, 0x3e,
  0xfd, 0x10, 0x81, 0x3a, 0xf2, 0x52, 0x84, 0x3e, 0x70, 0xdb, 0x04, 0xbe,
  0x05, 0x31, 0x25, 0x3d, 0xe0, 0x4a, 0x59, 0x3d, 0x63, 0x11, 0x21, 0x3e,
  0x6b, 0x9b, 0x7f, 0xbe, 0xf9, 0xe7, 0x49, 0xbe, 0xa1, 0xbe, 0x59, 0xbd,
  0x93, 0x4a, 0x44, 0x3e, 0xf6, 0x99, 0xba, 0xbd, 0xca, 0x8f, 0xf6, 0xbd,
  0x4e, 0xca, 0x19, 0x3e, 0x3c, 0x64, 0x22, 0xbe, 0x33, 0x4f, 0x21, 0x3c,
  0x25, 0x8a, 0x05, 0x3e, 0xf4, 0xf8, 0x1c, 0xbc, 0x0c, 0xb9, 0x84, 0xbc,
  0x7c, 0xe5, 0x9a, 0xbd, 0x86, 0x55, 0xa2, 0x3e, 0x25, 0xf0, 0x4b, 0x3d,
  0xc8, 0xf9, 0x69, 0xbd, 0x3c, 0xee, 0x6d, 0xbe, 0xca, 0xf1, 0x12, 0xbe,
  0x54, 0x86, 0xef, 0xbd, 0xb6, 0x31, 0x4c, 0x3b, 0xa1, 0xca, 0x6b, 0x3d,
  0xad, 0x2b, 0xe9, 0xbd, 0x07, 0xaa, 0x56, 0xbd, 0xd9, 0x06, 0x84, 0xbd,
  0x97, 0xf7, 0x41, 0xbe, 0x15, 0x89, 0x82, 0x3e, 0xb0, 0xa3, 0x96, 0xbe,
  0xdc, 0x7d, 0x07, 0xbe, 0xd3, 0xc3, 0x33, 0xbe, 0xbf, 0xbd, 0xb6, 0x3d,
  0x0f, 0x10, 0xee, 0xba, 0xfc, 0xc8, 0xa5, 0x3c, 0x78, 0xba, 0x4d, 0xbe,
  0xcc, 0xdc, 0xb2, 0xbd, 0x87, 0xd4, 0xc2, 0x3c, 0x47, 0xa7, 0x48, 0xbe,
  0x1c, 0x0c, 0x11, 0xbe, 0xba, 0x2a, 0x20, 0xbe, 0x54, 0xf2, 0x2b, 0xbd,
  0xc9, 0xca, 0x27, 0xbe, 0x85, 0x50, 0x54, 0xbe, 0x5c, 0x92, 0x14, 0x3e,
  0x92, 0xca, 0x9e, 0xbe, 0xa4, 0x40, 0x0d, 0xbd, 0x2f, 0x3b, 0x2f, 0xbd,
  0x38, 0xe0, 0xa9, 0xbc, 0x9f, 0x4f, 0x22, 0x3b, 0x65, 0x69, 0x9d, 0xbe,
  0x14, 0x5b, 0x2d, 0xbe, 0xdd, 0xe3, 0x4a, 0xbe, 0x60, 0x55, 0x3c, 0xbd,
  0x5e, 0xac, 0xd7, 0x3d, 0xc3, 0xad, 0x25, 0x3b, 0x1c, 0x47, 0x09, 0xbe,
  0xc0, 0x44, 0x92, 0xbd, 0x97, 0x22, 0xee, 0x3d, 0x62, 0x3e, 0x0b, 0x3c,
  0x4e, 0x4e, 0x85, 0x3e, 0x4c, 0x60, 0x42, 0xbe, 0xe9, 0x02, 0xb2, 0xbd,
  0x16, 0x21, 0x5c, 0xbd, 0x23, 0x0b, 0x46, 0xbe, 0x08, 0x12, 0x8b, 0x3e,
  0xe9, 0xac, 0x0f, 0xbe, 0xa0, 0x8d, 0x55, 0xbe, 0x93, 0xc1, 0xfc, 0xbd,
  0x33, 0x6c, 0xf5, 0xba, 0x5c, 0xf0, 0x59, 0xbe, 0x96, 0x67, 0xed, 0xbd,
  0x7f, 0x05, 0x97, 0xbe, 0xff, 0xae, 0x34, 0xbe, 0x57, 0xc8, 0x63, 0xbd,
  0xdd, 0x9d, 0xaf, 0xbc, 0xc7, 0x6a, 0xed, 0x3d, 0x10, 0x4f, 0x94, 0xbe,
  0x3c, 0x81, 0x85, 0xbe, 0x2f, 0xf0, 0x93, 0xbe, 0x1b, 0xb6, 0x0e, 0xbd,
  0xd6, 0x8d, 0x9a, 0xbe, 0x31, 0x80, 0xd8, 0xbd, 0x4a, 0xfe, 0xff, 0xff,
  0x10, 0x00, 0x00, 0x00, 0x05, 0x00, 0x00, 0x00, 0x14, 0x00, 0x00, 0x00,
  0x2c, 0x00, 0x00, 0x00, 0x02, 0x00, 0x00, 0x00, 0x10, 0x00, 0x00, 0x00,
  0x70, 0x00, 0x00, 0x00, 0x17, 0x00, 0x00, 0x00, 0x73, 0x65, 0x71, 0x75,
  0x65, 0x6e, 0x74, 0x69, 0x61, 0x6c, 0x2f, 0x64, 0x65, 0x6e, 0x73, 0x65,
  0x2f, 0x4d, 0x61, 0x74, 0x4d, 0x75, 0x6c, 0x00, 0x38, 0xfe, 0xff, 0xff,
  0x2e, 0xff, 0xff, 0xff, 0x04, 0x00, 0x00, 0x00, 0x08, 0x00, 0x00, 0x00,
  0xff, 0xff, 0xff, 0xff, 0x70, 0x00, 0x00, 0x00, 0x00, 0x00, 0x0e, 0x00,
  0x18, 0x00, 0x08, 0x00, 0x07, 0x00, 0x0c, 0x00, 0x10, 0x00, 0x14, 0x00,
  0x0e, 0x00, 0x00, 0x00, 0x00, 0x00, 0x00, 0x02, 0x10, 0x00, 0x00, 0x00,
  0x04, 0x00, 0x00, 0x00, 0x10, 0x00, 0x00, 0x00, 0x2c, 0x00, 0x00, 0x00,
  0x01, 0x00, 0x00, 0x00, 0x02, 0x00, 0x00, 0x00, 0x18, 0x00, 0x00, 0x00,
  0x73, 0x65, 0x71, 0x75, 0x65, 0x6e, 0x74, 0x69, 0x61, 0x6c, 0x2f, 0x66,
  0x6c, 0x61, 0x74, 0x74, 0x65, 0x6e, 0x2f, 0x43, 0x6f, 0x6e, 0x73, 0x74,
  0x00, 0x00, 0x00, 0x00, 0xa0, 0xfe, 0xff, 0xff, 0x96, 0xff, 0xff, 0xff,
  0x04, 0x00, 0x00, 0x00, 0x0c, 0x00, 0x00, 0x00, 0x5a, 0xeb, 0xdf, 0xbf,
  0x1c, 0xd1, 0x50, 0xc0, 0xf7, 0x32, 0x55, 0x40, 0x0a, 0xff, 0xff, 0xff,
  0x10, 0x00, 0x00, 0x00, 0x03, 0x00, 0x00, 0x00, 0x10, 0x00, 0x00, 0x00,
  0x3c, 0x00, 0x00, 0x00, 0x01, 0x00, 0x00, 0x00, 0x03, 0x00, 0x00, 0x00,
  0x29, 0x00, 0x00, 0x00, 0x73, 0x65, 0x71, 0x75, 0x65, 0x6e, 0x74, 0x69,
  0x61, 0x6c, 0x2f, 0x64, 0x65, 0x6e, 0x73, 0x65, 0x5f, 0x31, 0x2f, 0x42,
  0x69, 0x61, 0x73, 0x41, 0x64, 0x64, 0x2f, 0x52, 0x65, 0x61, 0x64, 0x56,
  0x61, 0x72, 0x69, 0x61, 0x62, 0x6c, 0x65, 0x4f, 0x70, 0x00, 0x00, 0x00,
  0x60, 0xff, 0xff, 0xff, 0x00, 0x00, 0x06, 0x00, 0x08, 0x00, 0x04, 0x00,
  0x06, 0x00, 0x00, 0x00, 0x04, 0x00, 0x00, 0x00, 0x40, 0x00, 0x00, 0x00,
  0xdf, 0x21, 0xfd, 0xbe, 0xc7, 0x3b, 0x13, 0x3e, 0xc4, 0x01, 0x8f, 0x40,
  0xc3, 0xf4, 0xc5, 0xbf, 0x07, 0xc2, 0xd6, 0xbe, 0xf5, 0x3c, 0x2d, 0xbf,
  0x67, 0x69, 0x47, 0xbf, 0x2b, 0x77, 0xbb, 0xbe, 0xad, 0x6a, 0xf3, 0xbf,
  0xd0, 0xf7, 0x42, 0xbf, 0x71, 0xa4, 0x5d, 0xbe, 0xad, 0x14, 0x76, 0xbf,
  0x09, 0xf9, 0x65, 0xbf, 0x9c, 0xaf, 0xf8, 0xbe, 0x3a, 0x80, 0x8a, 0xbf,
  0xb3, 0x95, 0x94, 0x40, 0xae, 0xff, 0xff, 0xff, 0x10, 0x00, 0x00, 0x00,
  0x02, 0x00, 0x00, 0x00, 0x10, 0x00, 0x00, 0x00, 0x3c, 0x00, 0x00, 0x00,
  0x01, 0x00, 0x00, 0x00, 0x10, 0x00, 0x00, 0x00, 0x27, 0x00, 0x00, 0x00,
  0x73, 0x65, 0x71, 0x75, 0x65, 0x6e, 0x74, 0x69, 0x61, 0x6c, 0x2f, 0x64,
  0x65, 0x6e, 0x73, 0x65, 0x2f, 0x42, 0x69, 0x61, 0x73, 0x41, 0x64, 0x64,
  0x2f, 0x52, 0x65, 0x61, 0x64, 0x56, 0x61, 0x72, 0x69, 0x61, 0x62, 0x6c,
  0x65, 0x4f, 0x70, 0x00, 0x04, 0x00, 0x06, 0x00, 0x04, 0x00, 0x00, 0x00,
  0x00, 0x00, 0x0e, 0x00, 0x14, 0x00, 0x04, 0x00, 0x00, 0x00, 0x08, 0x00,
  0x0c, 0x00, 0x10, 0x00, 0x0e, 0x00, 0x00, 0x00, 0x10, 0x00, 0x00, 0x00,
  0x01, 0x00, 0x00, 0x00, 0x1c, 0x00, 0x00, 0x00, 0x2c, 0x00, 0x00, 0x00,
  0x04, 0x00, 0x00, 0x00, 0x01, 0x00, 0x00, 0x00, 0x40, 0x00, 0x00, 0x00,
  0x03, 0x00, 0x00, 0x00, 0x01, 0x00, 0x00, 0x00, 0x0c, 0x00, 0x00, 0x00,
  0x63, 0x6f, 0x6e, 0x76, 0x32, 0x64, 0x5f, 0x69, 0x6e, 0x70, 0x75, 0x74,
  0x00, 0x00, 0x00, 0x00, 0xfc, 0xff, 0xff, 0xff, 0x04, 0x00, 0x04, 0x00,
  0x04, 0x00, 0x00, 0x00
};
unsigned int model_tflite_len = 12316;

