#include "magic_wand_model_data.h"

// We need to keep the data array aligned on some architectures.
#ifdef __has_attribute
#define HAVE_ATTRIBUTE(x) __has_attribute(x)
#else
#define HAVE_ATTRIBUTE(x) 0
#endif
#if HAVE_ATTRIBUTE(aligned) || (defined(__GNUC__) && !defined(__clang__))
#define DATA_ALIGN_ATTRIBUTE __attribute__((aligned(4)))
#else
#define DATA_ALIGN_ATTRIBUTE
#endif




const unsigned char g_magic_wand_model_data[] DATA_ALIGN_ATTRIBUTE = {

  0x08, 0x00, 0x00, 0x00, 0x54, 0x46, 0x4c, 0x33, 0x62, 0xff, 0xff, 0xff,
  0x03, 0x00, 0x00, 0x00, 0x10, 0x00, 0x00, 0x00, 0x24, 0x00, 0x00, 0x00,
  0x78, 0x00, 0x00, 0x00, 0x24, 0x00, 0x00, 0x00, 0x05, 0x00, 0x00, 0x00,
  0x78, 0x05, 0x00, 0x00, 0xb0, 0x04, 0x00, 0x00, 0xe0, 0x02, 0x00, 0x00,
  0x60, 0x02, 0x00, 0x00, 0x54, 0x01, 0x00, 0x00, 0x01, 0x00, 0x00, 0x00,
  0x78, 0x00, 0x00, 0x00, 0x13, 0x00, 0x00, 0x00, 0x18, 0x30, 0x00, 0x00,
  0x14, 0x30, 0x00, 0x00, 0x20, 0x2f, 0x00, 0x00, 0xa8, 0x2e, 0x00, 0x00,
  0x3c, 0x2e, 0x00, 0x00, 0xec, 0x11, 0x00, 0x00, 0x98, 0x10, 0x00, 0x00,
  0xbc, 0x0e, 0x00, 0x00, 0x60, 0x06, 0x00, 0x00, 0xfc, 0x05, 0x00, 0x00,
  0x78, 0x05, 0x00, 0x00, 0xec, 0x2f, 0x00, 0x00, 0xe8, 0x2f, 0x00, 0x00,
  0xe4, 0x2f, 0x00, 0x00, 0xe0, 0x2f, 0x00, 0x00, 0xdc, 0x2f, 0x00, 0x00,
  0xd8, 0x2f, 0x00, 0x00, 0xd4, 0x2f, 0x00, 0x00, 0xd0, 0x2f, 0x00, 0x00,
  0x0f, 0x00, 0x00, 0x00, 0x4d, 0x4c, 0x49, 0x52, 0x20, 0x43, 0x6f, 0x6e,
  0x76, 0x65, 0x72, 0x74, 0x65, 0x64, 0x2e, 0x00, 0x00, 0x00, 0x0e, 0x00,
  0x18, 0x00, 0x04, 0x00, 0x08, 0x00, 0x0c, 0x00, 0x10, 0x00, 0x14, 0x00,
  0x0e, 0x00, 0x00, 0x00, 0x14, 0x00, 0x00, 0x00, 0x5c, 0x00, 0x00, 0x00,
  0x60, 0x00, 0x00, 0x00, 0x64, 0x00, 0x00, 0x00, 0x84, 0x00, 0x00, 0x00,
  0x12, 0x00, 0x00, 0x00, 0x48, 0x2f, 0x00, 0x00, 0xe4, 0x2e, 0x00, 0x00,
  0x3c, 0x2e, 0x00, 0x00, 0xd8, 0x2d, 0x00, 0x00, 0x70, 0x2d, 0x00, 0x00,
  0x1c, 0x11, 0x00, 0x00, 0xc0, 0x0f, 0x00, 0x00, 0xe4, 0x0d, 0x00, 0x00,
  0xa0, 0x05, 0x00, 0x00, 0x3c, 0x05, 0x00, 0x00, 0xb0, 0x04, 0x00, 0x00,
  0xe8, 0x03, 0x00, 0x00, 0x38, 0x03, 0x00, 0x00, 0xa4, 0x02, 0x00, 0x00,
  0x10, 0x02, 0x00, 0x00, 0x90, 0x01, 0x00, 0x00, 0xfc, 0x00, 0x00, 0x00,
  0x80, 0x00, 0x00, 0x00, 0x01, 0x00, 0x00, 0x00, 0x00, 0x00, 0x00, 0x00,
  0x01, 0x00, 0x00, 0x00, 0x11, 0x00, 0x00, 0x00, 0x08, 0x00, 0x00, 0x00,
  0x1c, 0x04, 0x00, 0x00, 0x58, 0x03, 0x00, 0x00, 0xc8, 0x02, 0x00, 0x00,
  0x24, 0x02, 0x00, 0x00, 0xac, 0x01, 0x00, 0x00, 0x10, 0x01, 0x00, 0x00,
  0x94, 0x00, 0x00, 0x00, 0x10, 0x00, 0x00, 0x00, 0x04, 0x00, 0x00, 0x00,
  0x6d, 0x61, 0x69, 0x6e, 0x00, 0x00, 0x00, 0x00, 0x8e, 0xff, 0xff, 0xff,
  0x00, 0x00, 0x00, 0x09, 0x04, 0x00, 0x00, 0x00, 0x1c, 0x00, 0x00, 0x00,
  0x10, 0x00, 0x00, 0x00, 0x04, 0x00, 0x00, 0x00, 0x0a, 0xd2, 0xff, 0xff,
  0x00, 0x00, 0x80, 0x3f, 0x01, 0x00, 0x00, 0x00, 0x11, 0x00, 0x00, 0x00,
  0x01, 0x00, 0x00, 0x00, 0x10, 0x00, 0x00, 0x00, 0xf6, 0xfb, 0xff, 0xff,
  0x00, 0x00, 0x00, 0x19, 0x01, 0x00, 0x00, 0x00, 0x8a, 0xd1, 0xff, 0xff,
  0x10, 0x00, 0x00, 0x00, 0x12, 0x00, 0x00, 0x00, 0x14, 0x00, 0x00, 0x00,
  0x20, 0x00, 0x00, 0x00, 0x02, 0x00, 0x00, 0x00, 0x01, 0x00, 0x00, 0x00,
  0x04, 0x00, 0x00, 0x00, 0x08, 0x00, 0x00, 0x00, 0x49, 0x64, 0x65, 0x6e,
  0x74, 0x69, 0x74, 0x79, 0x00, 0x00, 0x00, 0x00, 0xc4, 0xd1, 0xff, 0xff,
  0x00, 0x00, 0x0e, 0x00, 0x18, 0x00, 0x08, 0x00, 0x0c, 0x00, 0x10, 0x00,
  0x07, 0x00, 0x14, 0x00, 0x0e, 0x00, 0x00, 0x00, 0x00, 0x00, 0x00, 0x08,
  0x03, 0x00, 0x00, 0x00, 0x18, 0x00, 0x00, 0x00, 0x0c, 0x00, 0x00, 0x00,
  0x04, 0x00, 0x00, 0x00, 0x98, 0xd1, 0xff, 0xff, 0x01, 0x00, 0x00, 0x00,
  0x10, 0x00, 0x00, 0x00, 0x03, 0x00, 0x00, 0x00, 0x0f, 0x00, 0x00, 0x00,
  0x05, 0x00, 0x00, 0x00, 0x02, 0x00, 0x00, 0x00, 0x02, 0xd2, 0xff, 0xff,
  0x10, 0x00, 0x00, 0x00, 0x11, 0x00, 0x00, 0x00, 0x14, 0x00, 0x00, 0x00,
  0x30, 0x00, 0x00, 0x00, 0x02, 0x00, 0x00, 0x00, 0x01, 0x00, 0x00, 0x00,
  0x04, 0x00, 0x00, 0x00, 0x1a, 0x00, 0x00, 0x00, 0x73, 0x65, 0x71, 0x75,
  0x65, 0x6e, 0x74, 0x69, 0x61, 0x6c, 0x2f, 0x64, 0x65, 0x6e, 0x73, 0x65,
  0x5f, 0x31, 0x2f, 0x42, 0x69, 0x61, 0x73, 0x41, 0x64, 0x64, 0x00, 0x00,
  0xf4, 0xd1, 0xff, 0xff, 0xd6, 0xfd, 0xff, 0xff, 0x00, 0x00, 0x00, 0x08,
  0x03, 0x00, 0x00, 0x00, 0x24, 0x00, 0x00, 0x00, 0x18, 0x00, 0x00, 0x00,
  0x0c, 0x00, 0x00, 0x00, 0x00, 0x00, 0x06, 0x00, 0x08, 0x00, 0x07, 0x00,
  0x06, 0x00, 0x00, 0x00, 0x00, 0x00, 0x00, 0x01, 0x01, 0x00, 0x00, 0x00,
  0x0f, 0x00, 0x00, 0x00, 0x03, 0x00, 0x00, 0x00, 0x0e, 0x00, 0x00, 0x00,
  0x04, 0x00, 0x00, 0x00, 0x01, 0x00, 0x00, 0x00, 0xfe, 0xfc, 0xff, 0xff,
  0x00, 0x00, 0x00, 0x09, 0x01, 0x00, 0x00, 0x00, 0x92, 0xd2, 0xff, 0xff,
  0x10, 0x00, 0x00, 0x00, 0x10, 0x00, 0x00, 0x00, 0x14, 0x00, 0x00, 0x00,
  0x2c, 0x00, 0x00, 0x00, 0x02, 0x00, 0x00, 0x00, 0x01, 0x00, 0x00, 0x00,
  0x10, 0x00, 0x00, 0x00, 0x15, 0x00, 0x00, 0x00, 0x73, 0x65, 0x71, 0x75,
  0x65, 0x6e, 0x74, 0x69, 0x61, 0x6c, 0x2f, 0x64, 0x65, 0x6e, 0x73, 0x65,
  0x2f, 0x52, 0x65, 0x6c, 0x75, 0x00, 0x00, 0x00, 0xd8, 0xd2, 0xff, 0xff,
  0x00, 0x00, 0x0a, 0x00, 0x10, 0x00, 0x04, 0x00, 0x08, 0x00, 0x0c, 0x00,
  0x0a, 0x00, 0x00, 0x00, 0x02, 0x00, 0x00, 0x00, 0x10, 0x00, 0x00, 0x00,
  0x04, 0x00, 0x00, 0x00, 0x01, 0x00, 0x00, 0x00, 0x0e, 0x00, 0x00, 0x00,
  0x02, 0x00, 0x00, 0x00, 0x0d, 0x00, 0x00, 0x00, 0x03, 0x00, 0x00, 0x00,
  0x7a, 0xfd, 0xff, 0xff, 0x00, 0x00, 0x00, 0x16, 0x01, 0x00, 0x00, 0x00,
  0x0e, 0xd3, 0xff, 0xff, 0x10, 0x00, 0x00, 0x00, 0x0f, 0x00, 0x00, 0x00,
  0x14, 0x00, 0x00, 0x00, 0x30, 0x00, 0x00, 0x00, 0x02, 0x00, 0x00, 0x00,
  0x01, 0x00, 0x00, 0x00, 0x70, 0x00, 0x00, 0x00, 0x1a, 0x00, 0x00, 0x00,
  0x73, 0x65, 0x71, 0x75, 0x65, 0x6e, 0x74, 0x69, 0x61, 0x6c, 0x2f, 0x66,
  0x6c, 0x61, 0x74, 0x74, 0x65, 0x6e, 0x2f, 0x52, 0x65, 0x73, 0x68, 0x61,
  0x70, 0x65, 0x00, 0x00, 0x00, 0xd3, 0xff, 0xff, 0xe2, 0xfe, 0xff, 0xff,
  0x00, 0x00, 0x00, 0x05, 0x01, 0x00, 0x00, 0x00, 0x38, 0x00, 0x00, 0x00,
  0x2c, 0x00, 0x00, 0x00, 0x14, 0x00, 0x00, 0x00, 0x00, 0x00, 0x0e, 0x00,
  0x14, 0x00, 0x00, 0x00, 0x10, 0x00, 0x0c, 0x00, 0x08, 0x00, 0x04, 0x00,
  0x0e, 0x00, 0x00, 0x00, 0x03, 0x00, 0x00, 0x00, 0x01, 0x00, 0x00, 0x00,
  0x03, 0x00, 0x00, 0x00, 0x01, 0x00, 0x00, 0x00, 0x01, 0x00, 0x00, 0x00,
  0x0d, 0x00, 0x00, 0x00, 0x01, 0x00, 0x00, 0x00, 0x0c, 0x00, 0x00, 0x00,
  0x9e, 0xd3, 0xff, 0xff, 0x10, 0x00, 0x00, 0x00, 0x0e, 0x00, 0x00, 0x00,
  0x1c, 0x00, 0x00, 0x00, 0x40, 0x00, 0x00, 0x00, 0x04, 0x00, 0x00, 0x00,
  0x01, 0x00, 0x00, 0x00, 0x07, 0x00, 0x00, 0x00, 0x01, 0x00, 0x00, 0x00,
  0x10, 0x00, 0x00, 0x00, 0x22, 0x00, 0x00, 0x00, 0x73, 0x65, 0x71, 0x75,
  0x65, 0x6e, 0x74, 0x69, 0x61, 0x6c, 0x2f, 0x6d, 0x61, 0x78, 0x5f, 0x70,
  0x6f, 0x6f, 0x6c, 0x69, 0x6e, 0x67, 0x32, 0x64, 0x5f, 0x31, 0x2f, 0x4d,
  0x61, 0x78, 0x50, 0x6f, 0x6f, 0x6c, 0x00, 0x00, 0xa0, 0xd3, 0xff, 0xff,
  0xc2, 0xfe, 0xff, 0xff, 0x00, 0x00, 0x00, 0x01, 0x24, 0x00, 0x00, 0x00,
  0x18, 0x00, 0x00, 0x00, 0x04, 0x00, 0x00, 0x00, 0xb4, 0xfe, 0xff, 0xff,
  0x01, 0x00, 0x00, 0x00, 0x01, 0x00, 0x00, 0x00, 0x00, 0x00, 0x00, 0x01,
  0x01, 0x00, 0x00, 0x00, 0x0c, 0x00, 0x00, 0x00, 0x03, 0x00, 0x00, 0x00,
  0x0b, 0x00, 0x00, 0x00, 0x07, 0x00, 0x00, 0x00, 0x09, 0x00, 0x00, 0x00,
  0x2e, 0xd4, 0xff, 0xff, 0x10, 0x00, 0x00, 0x00, 0x0d, 0x00, 0x00, 0x00,
  0x1c, 0x00, 0x00, 0x00, 0x2c, 0x00, 0x00, 0x00, 0x04, 0x00, 0x00, 0x00,
  0x01, 0x00, 0x00, 0x00, 0x15, 0x00, 0x00, 0x00, 0x01, 0x00, 0x00, 0x00,
  0x10, 0x00, 0x00, 0x00, 0x0c, 0x00, 0x00, 0x00, 0x74, 0x66, 0x6c, 0x2e,
  0x63, 0x6f, 0x6e, 0x76, 0x5f, 0x32, 0x64, 0x31, 0x00, 0x00, 0x00, 0x00,
  0x74, 0xd4, 0xff, 0xff, 0x00, 0x00, 0x0e, 0x00, 0x1a, 0x00, 0x08, 0x00,
  0x0c, 0x00, 0x10, 0x00, 0x07, 0x00, 0x14, 0x00, 0x0e, 0x00, 0x00, 0x00,
  0x00, 0x00, 0x00, 0x05, 0x01, 0x00, 0x00, 0x00, 0x3c, 0x00, 0x00, 0x00,
  0x30, 0x00, 0x00, 0x00, 0x14, 0x00, 0x00, 0x00, 0x00, 0x00, 0x0e, 0x00,
  0x18, 0x00, 0x17, 0x00, 0x10, 0x00, 0x0c, 0x00, 0x08, 0x00, 0x04, 0x00,
  0x0e, 0x00, 0x00, 0x00, 0x03, 0x00, 0x00, 0x00, 0x03, 0x00, 0x00, 0x00,
  0x03, 0x00, 0x00, 0x00, 0x03, 0x00, 0x00, 0x00, 0x00, 0x00, 0x00, 0x01,
  0x01, 0x00, 0x00, 0x00, 0x0b, 0x00, 0x00, 0x00, 0x01, 0x00, 0x00, 0x00,
  0x0a, 0x00, 0x00, 0x00, 0x46, 0xff, 0xff, 0xff, 0x00, 0x00, 0x00, 0x11,
  0x01, 0x00, 0x00, 0x00, 0xda, 0xd4, 0xff, 0xff, 0x10, 0x00, 0x00, 0x00,
  0x0c, 0x00, 0x00, 0x00, 0x1c, 0x00, 0x00, 0x00, 0x40, 0x00, 0x00, 0x00,
  0x04, 0x00, 0x00, 0x00, 0x01, 0x00, 0x00, 0x00, 0x15, 0x00, 0x00, 0x00,
  0x01, 0x00, 0x00, 0x00, 0x08, 0x00, 0x00, 0x00, 0x20, 0x00, 0x00, 0x00,
  0x73, 0x65, 0x71, 0x75, 0x65, 0x6e, 0x74, 0x69, 0x61, 0x6c, 0x2f, 0x6d,
  0x61, 0x78, 0x5f, 0x70, 0x6f, 0x6f, 0x6c, 0x69, 0x6e, 0x67, 0x32, 0x64,
  0x2f, 0x4d, 0x61, 0x78, 0x50, 0x6f, 0x6f, 0x6c, 0x00, 0x00, 0x00, 0x00,
  0x34, 0xd5, 0xff, 0xff, 0x00, 0x00, 0x0e, 0x00, 0x14, 0x00, 0x00, 0x00,
  0x08, 0x00, 0x0c, 0x00, 0x07, 0x00, 0x10, 0x00, 0x0e, 0x00, 0x00, 0x00,
  0x00, 0x00, 0x00, 0x01, 0x30, 0x00, 0x00, 0x00, 0x24, 0x00, 0x00, 0x00,
  0x10, 0x00, 0x00, 0x00, 0x0c, 0x00, 0x10, 0x00, 0x00, 0x00, 0x04, 0x00,
  0x08, 0x00, 0x0f, 0x00, 0x0c, 0x00, 0x00, 0x00, 0x01, 0x00, 0x00, 0x00,
  0x01, 0x00, 0x00, 0x00, 0x00, 0x00, 0x00, 0x01, 0x01, 0x00, 0x00, 0x00,
  0x0a, 0x00, 0x00, 0x00, 0x03, 0x00, 0x00, 0x00, 0x00, 0x00, 0x00, 0x00,
  0x06, 0x00, 0x00, 0x00, 0x08, 0x00, 0x00, 0x00, 0x00, 0x00, 0x0a, 0x00,
  0x0c, 0x00, 0x07, 0x00, 0x00, 0x00, 0x08, 0x00, 0x0a, 0x00, 0x00, 0x00,
  0x00, 0x00, 0x00, 0x03, 0x01, 0x00, 0x00, 0x00, 0x9e, 0xd5, 0xff, 0xff,
  0x10, 0x00, 0x00, 0x00, 0x0b, 0x00, 0x00, 0x00, 0x1c, 0x00, 0x00, 0x00,
  0x28, 0x00, 0x00, 0x00, 0x04, 0x00, 0x00, 0x00, 0x01, 0x00, 0x00, 0x00,
  0x40, 0x00, 0x00, 0x00, 0x03, 0x00, 0x00, 0x00, 0x08, 0x00, 0x00, 0x00,
  0x0b, 0x00, 0x00, 0x00, 0x74, 0x66, 0x6c, 0x2e, 0x63, 0x6f, 0x6e, 0x76,
  0x5f, 0x32, 0x64, 0x00, 0x88, 0xd5, 0xff, 0xff, 0x7e, 0xd6, 0xff, 0xff,
  0x04, 0x00, 0x00, 0x00, 0x40, 0x00, 0x00, 0x00, 0xaf, 0x5d, 0xbc, 0xbe,
  0x67, 0x58, 0x7b, 0xbf, 0x11, 0xaa, 0x99, 0xbe, 0xaa, 0x1c, 0xbf, 0xbf,
  0x40, 0xa3, 0x76, 0x3f, 0xc3, 0x85, 0x7b, 0x40, 0x08, 0xe2, 0x0c, 0xc0,
  0x95, 0xde, 0x32, 0xbe, 0x3d, 0xf8, 0x95, 0xbf, 0xac, 0xce, 0xcc, 0xbf,
  0xcd, 0x58, 0x36, 0x3e, 0x66, 0x52, 0x9e, 0xbf, 0x27, 0x78, 0x98, 0x3d,
  0x74, 0xbf, 0x8c, 0xbf, 0xb8, 0x8f, 0xa7, 0xbf, 0x28, 0xc3, 0x8b, 0x3f,
  0x26, 0xd6, 0xff, 0xff, 0x10, 0x00, 0x00, 0x00, 0x0a, 0x00, 0x00, 0x00,
  0x10, 0x00, 0x00, 0x00, 0x20, 0x00, 0x00, 0x00, 0x01, 0x00, 0x00, 0x00,
  0x10, 0x00, 0x00, 0x00, 0x0d, 0x00, 0x00, 0x00, 0x73, 0x74, 0x64, 0x2e,
  0x63, 0x6f, 0x6e, 0x73, 0x74, 0x61, 0x6e, 0x74, 0x31, 0x00, 0x00, 0x00,
  0x08, 0xd6, 0xff, 0xff, 0xfe, 0xd6, 0xff, 0xff, 0x04, 0x00, 0x00, 0x00,
  0x20, 0x00, 0x00, 0x00, 0x26, 0xbc, 0x47, 0x3f, 0x2f, 0x6d, 0x3d, 0xbf,
  0xcc, 0x68, 0x1f, 0xc0, 0xd5, 0x08, 0x5a, 0xbf, 0x60, 0x47, 0x8b, 0x3c,
  0x61, 0x0d, 0x77, 0xc0, 0xfd, 0xf4, 0xb4, 0xbf, 0x24, 0xcf, 0xaa, 0xbf,
  0x86, 0xd6, 0xff, 0xff, 0x10, 0x00, 0x00, 0x00, 0x09, 0x00, 0x00, 0x00,
  0x10, 0x00, 0x00, 0x00, 0x20, 0x00, 0x00, 0x00, 0x01, 0x00, 0x00, 0x00,
  0x08, 0x00, 0x00, 0x00, 0x0c, 0x00, 0x00, 0x00, 0x73, 0x74, 0x64, 0x2e,
  0x63, 0x6f, 0x6e, 0x73, 0x74, 0x61, 0x6e, 0x74, 0x00, 0x00, 0x00, 0x00,
  0x68, 0xd6, 0xff, 0xff, 0x5e, 0xd7, 0xff, 0xff, 0x04, 0x00, 0x00, 0x00,
  0x00, 0x08, 0x00, 0x00, 0x46, 0xf2, 0xdc, 0x3c, 0x73, 0x3e, 0x8f, 0xbe,
  0xe7, 0x64, 0xf4, 0xbe, 0x96, 0xf2, 0x08, 0xbd, 0x88, 0x76, 0xdd, 0xbd,
  0xad, 0x29, 0x6e, 0xbe, 0x76, 0x4b, 0x12, 0xbf, 0x5a, 0x6c, 0x0e, 0xbe,
  0x1b, 0x0d, 0xb0, 0x3b, 0x48, 0x07, 0xa5, 0xbe, 0x0e, 0x29, 0xa3, 0x3e,
  0x7b, 0xa8, 0x83, 0xbd, 0x53, 0x78, 0xa6, 0xbe, 0x90, 0x52, 0xe4, 0x3e,
  0x5b, 0x62, 0x69, 0xbe, 0xa0, 0x69, 0x1b, 0xbe, 0x00, 0x39, 0xb8, 0xb8,
  0xf1, 0x3e, 0x90, 0xbe, 0x98, 0x3a, 0xaf, 0x3d, 0x26, 0xa5, 0x02, 0xbe,
  0x3b, 0xa8, 0xbc, 0x3d, 0x1d, 0xc0, 0x84, 0x3d, 0xab, 0x9d, 0x9f, 0x3e,
  0xcb, 0x99, 0x2f, 0x3d, 0x7d, 0x22, 0x52, 0xbd, 0xfe, 0xf6, 0xfb, 0xbd,
  0x63, 0x6e, 0xb5, 0xbe, 0xd3, 0xa2, 0xc2, 0xbd, 0x24, 0x90, 0x15, 0x3e,
  0x26, 0xec, 0x9b, 0xbe, 0x83, 0xfe, 0x49, 0x3d, 0x01, 0x45, 0x36, 0x3c,
  0xfd, 0xa5, 0xe9, 0xbe, 0x53, 0x32, 0x7c, 0x3e, 0xbc, 0x88, 0x61, 0x3e,
  0x79, 0xd3, 0x7f, 0x3e, 0x88, 0xef, 0xd2, 0x3c, 0xdf, 0xbb, 0x47, 0x3f,
  0x60, 0x9a, 0x8e, 0x3b, 0x99, 0xeb, 0x0a, 0x3d, 0x9e, 0xbe, 0xfd, 0xbe,
  0x4a, 0x4e, 0xd7, 0xbc, 0x7c, 0x7d, 0x5b, 0xbd, 0xe9, 0x7a, 0x42, 0xbc,
  0x6c, 0x3f, 0x83, 0xbe, 0xd1, 0xe2, 0x0c, 0xbe, 0x24, 0x65, 0x19, 0xbe,
  0x29, 0x48, 0x3c, 0x3e, 0xa6, 0x2c, 0x83, 0xbe, 0xa6, 0x01, 0xf0, 0x3c,
  0xce, 0xee, 0x72, 0x3d, 0x34, 0x14, 0x48, 0xbd, 0x2b, 0xc2, 0xe9, 0xbe,
  0x46, 0xde, 0x02, 0xbe, 0x0a, 0x4a, 0x54, 0x3e, 0x69, 0x8b, 0x5e, 0x3d,
  0x72, 0x7a, 0xb1, 0xbd, 0x5f, 0x8a, 0x0d, 0xbe, 0x40, 0x77, 0x6e, 0x3e,
  0x52, 0xbb, 0xb9, 0xbd, 0x64, 0x43, 0x93, 0xbe, 0x4f, 0x4f, 0x48, 0xbe,
  0x12, 0xd5, 0x0b, 0x3e, 0x84, 0x13, 0x3d, 0x3e, 0xe3, 0xfe, 0xa1, 0xbd,
  0x4c, 0x4c, 0x88, 0x3b, 0x9c, 0x06, 0x85, 0x3e, 0x19, 0xc6, 0x18, 0xbe,
  0x81, 0x34, 0x22, 0x3d, 0xc1, 0x89, 0xb2, 0x3d, 0x1b, 0x6b, 0xa8, 0x3e,
  0x35, 0x3f, 0xbd, 0x3e, 0x40, 0x6c, 0xa7, 0xbe, 0x71, 0x52, 0xa0, 0xbd,
  0x14, 0x47, 0x3c, 0xbe, 0x61, 0xc2, 0xb1, 0xbb, 0x5e, 0xad, 0x9b, 0x3c,
  0x49, 0xb0, 0xaf, 0xbd, 0x30, 0xcc, 0x48, 0x3e, 0x10, 0xb0, 0x22, 0x3e,
  0xc4, 0xd0, 0x55, 0xbe, 0x87, 0xf6, 0xe2, 0xbc, 0x71, 0x37, 0x33, 0xbd,
  0x99, 0xc3, 0x63, 0x3b, 0x57, 0x2a, 0xbe, 0xbe, 0xa7, 0xff, 0x0e, 0xbd,
  0xaa, 0x1b, 0x9d, 0xbd, 0x93, 0x20, 0xc3, 0xbd, 0x52, 0x4d, 0x11, 0xbe,
  0x3b, 0x17, 0xa9, 0x3e, 0x10, 0x20, 0x7e, 0xbd, 0x37, 0xff, 0x36, 0x3d,
  0x33, 0x64, 0xc0, 0xbe, 0x93, 0x8c, 0x77, 0x3e, 0x0d, 0xae, 0xd7, 0xbd,
  0xd7, 0xfa, 0x99, 0xbe, 0x92, 0x89, 0xb2, 0xbe, 0xf8, 0xa6, 0xe7, 0xbd,
  0xff, 0xe9, 0xa7, 0xbe, 0xfe, 0x50, 0x0c, 0xbd, 0x54, 0xde, 0x3f, 0xbe,
  0xce, 0xad, 0xa8, 0xbe, 0xe6, 0x82, 0x20, 0xbf, 0x26, 0xbf, 0xf1, 0xbe,
  0x5d, 0x46, 0x22, 0xbe, 0xba, 0x44, 0x12, 0xbd, 0x3c, 0xde, 0xd5, 0xbd,
  0x28, 0x4d, 0x6d, 0x3d, 0xff, 0x60, 0x53, 0xbd, 0x9f, 0x93, 0x7a, 0x3e,
  0xfa, 0xe0, 0x4a, 0x3b, 0x01, 0x36, 0xb1, 0xbe, 0xb0, 0x65, 0x31, 0xbe,
  0x2d, 0xd7, 0x7b, 0x3d, 0x02, 0x52, 0xc5, 0x3e, 0x0e, 0xa6, 0x9d, 0x39,
  0x88, 0x05, 0x35, 0x3d, 0x25, 0x11, 0x8e, 0x3e, 0x7c, 0x2f, 0x9e, 0x3e,
  0xe5, 0x05, 0xb8, 0xbd, 0xb0, 0xb7, 0x8a, 0xbe, 0xac, 0x12, 0x5e, 0x3d,
  0x80, 0xd9, 0xad, 0x3e, 0xae, 0x96, 0xf2, 0xbd, 0xf4, 0x65, 0x55, 0xbb,
  0x36, 0x87, 0x3e, 0x3e, 0xe1, 0xaa, 0xa9, 0xbd, 0x8c, 0xa4, 0x9a, 0x3c,
  0x68, 0x60, 0x7f, 0xbe, 0x1d, 0x02, 0x2f, 0xbd, 0x2f, 0x79, 0x9e, 0x3c,
  0x89, 0x96, 0xee, 0x3d, 0xa5, 0x66, 0xe7, 0xbd, 0x04, 0x1e, 0x7d, 0x3c,
  0x22, 0xe4, 0x69, 0xbe, 0x7e, 0x83, 0x0a, 0xbe, 0x1d, 0x13, 0x32, 0xbe,
  0x5c, 0x35, 0xe6, 0xbd, 0x05, 0x6b, 0x0a, 0x3d, 0x2e, 0xf2, 0x01, 0x3e,
  0x9a, 0x8f, 0xaa, 0x3d, 0xcb, 0x88, 0x07, 0x3d, 0x4c, 0x05, 0x12, 0xbe,
  0x11, 0x20, 0x99, 0xbd, 0xff, 0x35, 0x95, 0xbd, 0xf6, 0x3f, 0x91, 0x3e,
  0x1e, 0x09, 0xbe, 0x3d, 0xdf, 0xb7, 0xda, 0xbc, 0x30, 0x63, 0xd8, 0x3c,
  0x9c, 0x11, 0xc3, 0x3d, 0x91, 0xb9, 0x0c, 0x3d, 0x48, 0x22, 0x41, 0xbe,
  0x77, 0xaa, 0x5c, 0xbe, 0x7b, 0xfc, 0x04, 0xbd, 0x1b, 0x58, 0x75, 0xbd,
  0x3e, 0xe0, 0x3d, 0x3e, 0xd0, 0xd4, 0x34, 0x3e, 0xe5, 0x95, 0x0a, 0x3a,
  0x8f, 0x4c, 0xf6, 0x3c, 0xd6, 0x08, 0x21, 0x3e, 0x23, 0x58, 0x41, 0xbd,
  0xac, 0x1a, 0xa5, 0xbe, 0xdc, 0x98, 0xfe, 0xbe, 0x4b, 0xd3, 0x56, 0xbd,
  0x36, 0x81, 0x57, 0xbe, 0xc9, 0xbc, 0x7f, 0xbe, 0x79, 0x6a, 0x9d, 0xbe,
  0x8e, 0x3e, 0x42, 0xbe, 0xac, 0xd9, 0x14, 0xbd, 0xe9, 0x83, 0xaf, 0xbe,
  0x12, 0xbb, 0x5c, 0x3e, 0x58, 0x29, 0x51, 0xbd, 0xcd, 0x54, 0xb1, 0xbe,
  0x09, 0xb1, 0x5f, 0x3d, 0xb9, 0x37, 0xa0, 0xbe, 0x39, 0xef, 0x25, 0xbe,
  0x61, 0xdd, 0x63, 0x3c, 0x30, 0x62, 0x4b, 0xbe, 0x35, 0x9b, 0xa6, 0x3e,
  0x9b, 0xc5, 0xb2, 0xbd, 0x74, 0x05, 0x30, 0xbb, 0x8d, 0xdd, 0x42, 0xbc,
  0x44, 0x04, 0x63, 0x3e, 0x42, 0x12, 0xe7, 0xbd, 0x88, 0x73, 0xa1, 0xbd,
  0xd8, 0xca, 0xd9, 0xbd, 0x1c, 0xeb, 0x0b, 0xbe, 0x70, 0x4e, 0x22, 0xbe,
  0xbc, 0x5e, 0xbe, 0x3d, 0xa4, 0x35, 0x97, 0xbe, 0x39, 0xa3, 0x46, 0xbd,
  0xaf, 0x04, 0x14, 0x3e, 0xa2, 0xdb, 0x11, 0xbe, 0x7a, 0x3d, 0x08, 0xbe,
  0xc0, 0xf3, 0xed, 0xbe, 0xa2, 0x8c, 0xb1, 0xbd, 0xd3, 0xb0, 0x6b, 0xbe,
  0xcf, 0x13, 0x51, 0xbe, 0xea, 0x84, 0x0e, 0xbd, 0x7b, 0x47, 0xe2, 0xbe,
  0x7c, 0xfa, 0x35, 0xbe, 0xc9, 0xf0, 0xa9, 0xbc, 0x16, 0x3e, 0xa8, 0x3d,
  0x25, 0x7f, 0xa4, 0xbc, 0x0c, 0x49, 0xe9, 0x3b, 0xfa, 0x85, 0xa2, 0x3e,
  0xb1, 0x29, 0x89, 0x3e, 0x43, 0x6b, 0xf0, 0xbe, 0xa9, 0xf7, 0x8a, 0xbe,
  0xa8, 0x34, 0x9c, 0x3d, 0x1a, 0xd0, 0xa8, 0x3d, 0x63, 0xd4, 0xc0, 0xbd,
  0xbf, 0xf1, 0xe5, 0x3e, 0xb0, 0x15, 0x75, 0x3e, 0x79, 0x35, 0x5a, 0x3d,
  0x1a, 0xc4, 0x44, 0xbf, 0xdd, 0xe4, 0xd3, 0xbd, 0xca, 0x82, 0x6f, 0xbc,
  0xa0, 0x87, 0x8d, 0x3e, 0x84, 0x7b, 0xc0, 0xbd, 0xa3, 0x2d, 0x99, 0xbe,
  0x12, 0x85, 0x97, 0x3c, 0x0c, 0x53, 0x28, 0xbe, 0xf8, 0x3d, 0xa8, 0xbd,
  0x95, 0x35, 0x6e, 0x3d, 0xd4, 0x8c, 0x49, 0xbe, 0x1e, 0xf1, 0xd8, 0x3e,
  0xef, 0x1f, 0x45, 0xbe, 0xed, 0xb0, 0xd4, 0x3d, 0xc2, 0xd0, 0xea, 0x3e,
  0xaf, 0xa6, 0x0b, 0xbd, 0x23, 0xf0, 0x04, 0x3d, 0xef, 0xaf, 0x00, 0x3d,
  0xfb, 0x1f, 0x62, 0xbe, 0x41, 0x6b, 0xac, 0x3d, 0xb8, 0x82, 0x80, 0xbe,
  0xa5, 0x3c, 0x33, 0xbe, 0x4f, 0x01, 0x45, 0x3e, 0x39, 0x10, 0x80, 0x3e,
  0xfd, 0xac, 0x0b, 0x3d, 0xfb, 0x5d, 0x4f, 0x3d, 0xed, 0x29, 0xf4, 0xbd,
  0xc7, 0x94, 0xa0, 0xbc, 0x33, 0xac, 0xb2, 0xbe, 0xe4, 0x59, 0x22, 0x3f,
  0x97, 0x4c, 0x78, 0xbd, 0x47, 0xf0, 0x9a, 0xbd, 0x48, 0x54, 0x7e, 0xbb,
  0x05, 0x00, 0xc4, 0x3d, 0x83, 0xf8, 0x00, 0xbe, 0xaf, 0xe9, 0x94, 0x3c,
  0xea, 0x84, 0xbe, 0xbe, 0x26, 0xbf, 0x7a, 0xbe, 0xb3, 0xa8, 0x09, 0xbe,
  0x8b, 0x41, 0x0a, 0x3e, 0x4c, 0xf4, 0x0d, 0xbd, 0x6a, 0xc3, 0xfd, 0xbc,
  0xac, 0x98, 0x23, 0xbe, 0xba, 0xc2, 0xb0, 0xbd, 0x32, 0xa8, 0xcc, 0xbd,
  0x06, 0x24, 0xc1, 0xbe, 0x25, 0x6b, 0x9d, 0xbe, 0x25, 0xf9, 0x0a, 0xbe,
  0x66, 0xf0, 0xeb, 0xbd, 0x6f, 0x6a, 0x48, 0xbc, 0x07, 0x55, 0x21, 0xbe,
  0xa1, 0x52, 0x48, 0xbe, 0x4a, 0x2f, 0x69, 0xbd, 0x29, 0xf2, 0x10, 0xbe,
  0x83, 0x6f, 0x3c, 0xbe, 0xde, 0xd1, 0x16, 0x3e, 0xdc, 0x5b, 0x71, 0xbd,
  0xf3, 0xe3, 0xea, 0x3c, 0x84, 0x99, 0x05, 0xbe, 0xb3, 0xa2, 0x05, 0x3e,
  0x62, 0xe9, 0x17, 0x3d, 0x05, 0x0b, 0x0f, 0x3e, 0x68, 0x8a, 0x74, 0x3e,
  0x40, 0x91, 0xcf, 0x3e, 0x0e, 0x2f, 0x2a, 0xbd, 0x84, 0x16, 0x9d, 0xbc,
  0xbe, 0xbf, 0x6b, 0x3e, 0xb8, 0x7f, 0xa7, 0x3d, 0xdc, 0x94, 0xc1, 0x3d,
  0x6c, 0xcd, 0xfc, 0x3e, 0x84, 0xef, 0x2c, 0x3e, 0xa2, 0x10, 0xb7, 0x3e,
  0xbf, 0x57, 0x70, 0xbc, 0xa3, 0x11, 0xbf, 0xbd, 0xc0, 0xe4, 0xdc, 0x3e,
  0x45, 0x47, 0x93, 0x3e, 0x5f, 0x10, 0x09, 0x3d, 0x7e, 0x65, 0x28, 0xbc,
  0x29, 0x0c, 0xde, 0x3e, 0x20, 0x53, 0xf8, 0xbd, 0x95, 0xc0, 0xfe, 0xbd,
  0x24, 0x52, 0xb0, 0xbd, 0xe2, 0x71, 0x9d, 0xbd, 0xf6, 0x78, 0xe8, 0x3d,
  0xca, 0xe6, 0xe7, 0xbd, 0xd3, 0x55, 0x8b, 0xbe, 0x6a, 0x59, 0x52, 0x3b,
  0xb7, 0x23, 0xb4, 0xbe, 0x36, 0x66, 0x39, 0xbe, 0x31, 0x16, 0xc8, 0x3a,
  0xd4, 0x88, 0xcd, 0xbd, 0x9b, 0xf5, 0x94, 0x3e, 0xad, 0x21, 0xe4, 0xbd,
  0xeb, 0xa5, 0xba, 0xbe, 0xeb, 0xf1, 0xd9, 0xbd, 0x72, 0x76, 0xc4, 0x3e,
  0x2d, 0x9a, 0x01, 0x3d, 0xad, 0xfa, 0x9e, 0x3c, 0x64, 0xdd, 0x12, 0xbe,
  0x26, 0x98, 0x9e, 0xbc, 0xf5, 0xf0, 0xa3, 0xbd, 0x0a, 0x14, 0x9c, 0xbe,
  0xc0, 0x70, 0xdb, 0xbe, 0x25, 0x56, 0x1b, 0x3c, 0x66, 0x63, 0x66, 0xbd,
  0x4a, 0x50, 0x57, 0xbd, 0x25, 0x0e, 0x17, 0x3d, 0x5b, 0x8e, 0x6a, 0xbf,
  0x34, 0xfd, 0x52, 0x3d, 0x68, 0xf1, 0x43, 0x3e, 0xc1, 0x28, 0x1b, 0x3d,
  0x29, 0x3d, 0xb6, 0xbe, 0x92, 0x8d, 0x7e, 0xbe, 0x04, 0x11, 0x16, 0xbe,
  0x09, 0x65, 0xbe, 0xbd, 0x6e, 0x96, 0x6d, 0xbf, 0x8f, 0xf5, 0x97, 0xbc,
  0x04, 0xfe, 0x05, 0xbe, 0xea, 0xe7, 0x1b, 0xbe, 0xa3, 0x2a, 0x27, 0xbe,
  0x93, 0x98, 0x3c, 0x3b, 0x0a, 0x35, 0x62, 0xbd, 0x1f, 0xa5, 0x37, 0xbd,
  0x11, 0x8b, 0x46, 0xbf, 0xd2, 0x42, 0x29, 0x3c, 0x63, 0xad, 0x6b, 0xbd,
  0x02, 0x24, 0x1b, 0x3e, 0xd6, 0xfa, 0x79, 0xbe, 0x19, 0x03, 0x7e, 0x3d,
  0x84, 0x39, 0x94, 0xbe, 0x34, 0x04, 0xae, 0xbd, 0x9c, 0x94, 0x4d, 0xbf,
  0xa7, 0x54, 0xe5, 0x3d, 0x7a, 0xe4, 0x44, 0xbd, 0xaa, 0x12, 0x2b, 0x3e,
  0xab, 0xf1, 0x29, 0xbd, 0x67, 0xfc, 0x9f, 0x3d, 0xe7, 0xdd, 0x40, 0x3d,
  0x47, 0x93, 0x72, 0xbf, 0xb8, 0xf7, 0xe0, 0x3e, 0x30, 0xca, 0x3d, 0xbe,
  0xe6, 0xbb, 0x0e, 0xbf, 0xfb, 0x3f, 0x12, 0x3f, 0x5e, 0x83, 0x85, 0xbd,
  0xc9, 0x3e, 0xbe, 0xbd, 0x86, 0x8b, 0x78, 0x3c, 0xd7, 0xd6, 0x0f, 0xbf,
  0x56, 0xeb, 0x83, 0x3c, 0xaa, 0x55, 0x8a, 0xbe, 0x4e, 0x8b, 0x72, 0x3d,
  0xaf, 0xb0, 0x05, 0xbe, 0x46, 0xaf, 0xef, 0x3d, 0x75, 0x25, 0xcb, 0x3e,
  0xe9, 0x70, 0x36, 0xbc, 0xe4, 0x55, 0xdb, 0x3d, 0x6b, 0x67, 0x9b, 0xbe,
  0x99, 0x23, 0x66, 0xbd, 0x4a, 0x6c, 0x1d, 0x3e, 0xbd, 0x5c, 0x5c, 0xbd,
  0xf0, 0x3d, 0x58, 0x3e, 0x50, 0x24, 0x5f, 0x3d, 0xfe, 0x36, 0x7a, 0xbd,
  0x65, 0x00, 0xf8, 0x3d, 0x32, 0x63, 0x1f, 0xbe, 0xd0, 0x43, 0x22, 0xbd,
  0x95, 0x73, 0x25, 0x3e, 0x5c, 0xbe, 0x83, 0x3d, 0x5d, 0xec, 0xc0, 0xbe,
  0x25, 0x34, 0x0f, 0xbe, 0xc4, 0xf2, 0x2c, 0xbd, 0x6d, 0x4e, 0x8c, 0xbe,
  0x02, 0xae, 0xc9, 0x3e, 0x76, 0x73, 0x20, 0xbf, 0x1c, 0x96, 0x4f, 0xbc,
  0x51, 0x87, 0xc1, 0x3d, 0x9f, 0x84, 0x14, 0x3f, 0x47, 0x06, 0x42, 0x3d,
  0x77, 0x68, 0x1e, 0xbe, 0x79, 0xf7, 0x26, 0xbe, 0x44, 0x30, 0x3b, 0xbe,
  0xc1, 0x11, 0x05, 0xbf, 0x45, 0x2a, 0x6b, 0x3d, 0x6d, 0xa5, 0x27, 0xbd,
  0xd0, 0xf5, 0x63, 0x3e, 0xee, 0x27, 0xbf, 0x3c, 0x4d, 0x89, 0xea, 0xbd,
  0x1c, 0x44, 0xe0, 0xbc, 0xa9, 0xbc, 0x86, 0x3e, 0x93, 0x44, 0xd6, 0xbe,
  0x8c, 0x59, 0x54, 0x3e, 0x3f, 0xf3, 0x00, 0x3e, 0x21, 0x32, 0x5d, 0xbc,
  0x3f, 0xae, 0xb1, 0xbd, 0x78, 0x09, 0xcb, 0xbd, 0xcc, 0xe9, 0x14, 0xbe,
  0xd5, 0x6d, 0x03, 0x3e, 0x3a, 0x1c, 0xba, 0xbe, 0xf0, 0x5e, 0x5d, 0x3e,
  0x7b, 0xe4, 0x1b, 0x3d, 0xec, 0x06, 0xb4, 0x3e, 0x4e, 0xc1, 0xda, 0xbd,
  0x00, 0x5f, 0xd6, 0xbc, 0x99, 0x10, 0x41, 0xbe, 0x5e, 0x51, 0xc1, 0xbe,
  0x97, 0x9e, 0x14, 0xbe, 0x90, 0x02, 0x95, 0x3e, 0xb0, 0x77, 0x83, 0xbe,
  0xe6, 0x80, 0x02, 0x3f, 0xa5, 0xcc, 0xdb, 0x3d, 0x8d, 0xa5, 0x8a, 0xbd,
  0x4e, 0x01, 0xd6, 0xbd, 0x8a, 0x59, 0xbc, 0xbe, 0x4d, 0x8a, 0xee, 0xbd,
  0x8a, 0x95, 0x54, 0xbe, 0x56, 0x36, 0x2d, 0xbe, 0xbb, 0x90, 0x48, 0x3e,
  0xe2, 0x85, 0xea, 0xbc, 0x74, 0x68, 0x5b, 0xbd, 0x2d, 0xd1, 0xca, 0x3c,
  0x63, 0x8c, 0x80, 0x3e, 0x80, 0xe0, 0x53, 0xbd, 0x7a, 0xc2, 0xec, 0x3d,
  0xb7, 0x8f, 0x0c, 0x3e, 0xc9, 0xc9, 0xb8, 0xbe, 0x56, 0x03, 0x1e, 0xbe,
  0xe6, 0x5b, 0xb6, 0x3b, 0x8a, 0x32, 0x6a, 0xbd, 0x24, 0x7d, 0x72, 0x3e,
  0x28, 0x06, 0xa3, 0xbc, 0x03, 0x4a, 0xa8, 0x3e, 0x01, 0x53, 0xaa, 0x3d,
  0x6f, 0xda, 0x95, 0xba, 0xc2, 0x6b, 0xeb, 0xbd, 0xdb, 0xa5, 0xb3, 0xbe,
  0xc2, 0x48, 0xb8, 0xbc, 0x56, 0x51, 0x90, 0x3e, 0xc6, 0x32, 0x22, 0xbb,
  0x02, 0xaa, 0x58, 0xbf, 0xeb, 0xa8, 0x7e, 0xbd, 0x3c, 0xad, 0x0a, 0x3c,
  0x63, 0x67, 0x38, 0xbc, 0xb5, 0x17, 0xbc, 0xbe, 0x61, 0x2f, 0x29, 0xbe,
  0x65, 0xb2, 0xec, 0x3d, 0x46, 0x1b, 0xab, 0x3c, 0x44, 0x65, 0xac, 0xbe,
  0xe3, 0xcb, 0x4b, 0xbe, 0x6d, 0xf4, 0x5c, 0x3e, 0xf9, 0xe4, 0xbf, 0x3e,
  0x88, 0x0c, 0xfb, 0xbe, 0x71, 0xa7, 0x65, 0x3c, 0xfa, 0x9d, 0x89, 0xb9,
  0x78, 0x3e, 0x32, 0x3e, 0xed, 0x7b, 0xd5, 0x3d, 0xc2, 0x99, 0x1e, 0xbe,
  0x2e, 0x0e, 0x2a, 0xba, 0xbd, 0x40, 0x5f, 0x3e, 0x0a, 0x8a, 0xcf, 0xbe,
  0x45, 0x98, 0xc3, 0x3d, 0xc8, 0x2f, 0x0b, 0xbe, 0xe1, 0x45, 0x91, 0x3d,
  0xb2, 0xc5, 0xf4, 0xbd, 0xcc, 0x0c, 0x56, 0x3e, 0x58, 0xad, 0x65, 0xbd,
  0x50, 0x98, 0xbf, 0xbd, 0x52, 0x03, 0x75, 0xbb, 0xaa, 0x79, 0x8b, 0x3d,
  0xdd, 0x60, 0x1b, 0xbd, 0xa2, 0x36, 0x5e, 0xbc, 0x49, 0x0e, 0x86, 0x3d,
  0xf2, 0x36, 0x52, 0x3d, 0xbf, 0x32, 0x2e, 0x3c, 0x4a, 0x3e, 0x67, 0x3d,
  0x37, 0x50, 0x52, 0x3e, 0x69, 0xb6, 0x83, 0x3b, 0x4a, 0x07, 0xf3, 0x3d,
  0x1b, 0xba, 0xc5, 0xbd, 0x80, 0x79, 0x48, 0x3d, 0x54, 0xe7, 0xbb, 0xbd,
  0x4f, 0xb4, 0x13, 0x3e, 0x5c, 0x77, 0x58, 0x3d, 0xd7, 0xb0, 0x8c, 0x3c,
  0x83, 0x3f, 0x10, 0x3d, 0xc7, 0x3e, 0x79, 0xbd, 0x72, 0xe1, 0xf8, 0xbc,
  0xa4, 0x9d, 0x30, 0x3d, 0xfe, 0xea, 0x37, 0xbd, 0xde, 0xeb, 0xd3, 0xbd,
  0x03, 0xa8, 0x1f, 0x3e, 0x9e, 0x31, 0x9a, 0x3c, 0x12, 0x94, 0x57, 0x3e,
  0x8c, 0x6a, 0xe9, 0xbc, 0xaf, 0xff, 0x26, 0x3d, 0x85, 0xb6, 0x0f, 0x3e,
  0xe7, 0x95, 0x1d, 0xbe, 0x88, 0xa0, 0x86, 0x3d, 0xe3, 0x2c, 0x07, 0x3c,
  0xc6, 0xde, 0xff, 0xff, 0x10, 0x00, 0x00, 0x00, 0x08, 0x00, 0x00, 0x00,
  0x1c, 0x00, 0x00, 0x00, 0x38, 0x00, 0x00, 0x00, 0x04, 0x00, 0x00, 0x00,
  0x10, 0x00, 0x00, 0x00, 0x04, 0x00, 0x00, 0x00, 0x01, 0x00, 0x00, 0x00,
  0x08, 0x00, 0x00, 0x00, 0x1a, 0x00, 0x00, 0x00, 0x73, 0x65, 0x71, 0x75,
  0x65, 0x6e, 0x74, 0x69, 0x61, 0x6c, 0x2f, 0x63, 0x6f, 0x6e, 0x76, 0x32,
  0x64, 0x5f, 0x31, 0x2f, 0x43, 0x6f, 0x6e, 0x76, 0x32, 0x44, 0x00, 0x00,
  0xc0, 0xde, 0xff, 0xff, 0xb6, 0xdf, 0xff, 0xff, 0x04, 0x00, 0x00, 0x00,
  0x80, 0x01, 0x00, 0x00, 0xd5, 0xa2, 0x69, 0x3e, 0xcc, 0xac, 0xfa, 0xbd,
  0x62, 0x0b, 0x47, 0x3d, 0x8e, 0xab, 0x9f, 0x3d, 0x6c, 0x0d, 0x75, 0xbd,
  0xa5, 0x2a, 0x58, 0x3d, 0x47, 0x13, 0xd4, 0x3e, 0xa0, 0x30, 0xfe, 0x3b,
  0x36, 0x1e, 0x08, 0xbe, 0xfb, 0xbc, 0xcc, 0x3e, 0xbb, 0xc1, 0x0c, 0x3e,
  0xfb, 0xc1, 0xe2, 0xbd, 0x4c, 0x4e, 0xaf, 0x3d, 0xc4, 0xe6, 0x7f, 0xbe,
  0xce, 0x85, 0xaf, 0x3b, 0xfb, 0x43, 0xb7, 0x3b, 0xfa, 0xc6, 0xa2, 0xbd,
  0xe9, 0xab, 0x8a, 0x3e, 0x88, 0xf9, 0x21, 0xbe, 0x07, 0x17, 0xde, 0x3d,
  0xf8, 0x43, 0x56, 0xbe, 0x35, 0x36, 0xbf, 0xbd, 0x5e, 0xda, 0xa4, 0x3d,
  0x04, 0x21, 0x53, 0xbc, 0x71, 0x50, 0xad, 0xbd, 0x69, 0xc5, 0x7d, 0xbd,
  0x3b, 0xc5, 0x28, 0xbe, 0x40, 0xc8, 0xdd, 0xbd, 0x7e, 0x48, 0x94, 0xbe,
  0xcf, 0xb1, 0xdb, 0xbe, 0x20, 0x83, 0x42, 0x3d, 0x9e, 0xa7, 0x06, 0x3e,
  0xf9, 0xc2, 0x95, 0x3d, 0xfd, 0xe4, 0x76, 0x3e, 0x4a, 0x98, 0xae, 0x3d,
  0x20, 0x27, 0xb4, 0x3e, 0x71, 0x51, 0xe5, 0xbd, 0x25, 0xdf, 0xcb, 0xbc,
  0xed, 0x6f, 0xc1, 0xbd, 0x33, 0x09, 0x92, 0xbd, 0x66, 0x88, 0x25, 0x3c,
  0x2c, 0xab, 0x77, 0xbd, 0xbb, 0xc8, 0xe5, 0xbc, 0xab, 0x28, 0x37, 0x3c,
  0xce, 0x2e, 0xb4, 0xbd, 0x18, 0x8a, 0xe4, 0x3b, 0x4e, 0x93, 0x20, 0xbd,
  0x5f, 0x1f, 0xab, 0xbd, 0x5c, 0xa5, 0xa3, 0x3e, 0x83, 0x15, 0xc1, 0x3e,
  0x51, 0xc0, 0xbd, 0x3d, 0xd7, 0x6d, 0xb4, 0x3d, 0x76, 0x17, 0xf6, 0xbd,
  0xd5, 0x2f, 0xba, 0x3c, 0x06, 0xee, 0xe3, 0xbe, 0xbc, 0x86, 0x4a, 0xbe,
  0xea, 0xe4, 0xf4, 0xbd, 0x7f, 0x86, 0x95, 0xbd, 0x22, 0xfd, 0x85, 0xbe,
  0xee, 0x21, 0x15, 0xbe, 0x61, 0xff, 0x51, 0x3d, 0x7f, 0x97, 0xb3, 0x3d,
  0x74, 0x7b, 0x3c, 0xbe, 0x30, 0x61, 0x70, 0xbd, 0x81, 0x08, 0x14, 0x3e,
  0x2b, 0xdc, 0xc1, 0xbe, 0xfc, 0x5e, 0x25, 0x3e, 0xd2, 0x6a, 0xd2, 0xbd,
  0x16, 0x8b, 0x77, 0x3d, 0x20, 0x22, 0x52, 0x3d, 0xb0, 0x0f, 0x2a, 0xbe,
  0x6e, 0x87, 0xd6, 0x3e, 0xf5, 0x11, 0x21, 0x3d, 0x5d, 0xe9, 0x5b, 0xbe,
  0xd6, 0x70, 0x26, 0xbe, 0x83, 0xaf, 0xe1, 0x3e, 0xd2, 0xda, 0x58, 0x3e,
  0xe4, 0x2e, 0xdc, 0x3e, 0x74, 0x83, 0x49, 0xbe, 0x35, 0x2f, 0xa1, 0x3d,
  0xb0, 0x6c, 0xe4, 0xbd, 0x69, 0x92, 0x99, 0xbe, 0x5a, 0xc1, 0x49, 0xbe,
  0x3b, 0x80, 0x12, 0xbe, 0x45, 0x0e, 0x3d, 0x3e, 0x60, 0x59, 0x87, 0x3e,
  0xdc, 0xa0, 0xf1, 0x3d, 0xfb, 0x47, 0xb7, 0xbd, 0xa7, 0x35, 0x4d, 0x3d,
  0x2e, 0xe9, 0xbe, 0x3e, 0x59, 0xdb, 0xa4, 0x3c, 0xf5, 0x38, 0x23, 0xbd,
  0xc4, 0x70, 0x60, 0x3d, 0xec, 0x76, 0x45, 0x3d, 0xf6, 0x88, 0xd3, 0xbc,
  0x70, 0x5f, 0x74, 0xbe, 0x9e, 0xe0, 0xff, 0xff, 0x10, 0x00, 0x00, 0x00,
  0x07, 0x00, 0x00, 0x00, 0x1c, 0x00, 0x00, 0x00, 0x38, 0x00, 0x00, 0x00,
  0x04, 0x00, 0x00, 0x00, 0x08, 0x00, 0x00, 0x00, 0x04, 0x00, 0x00, 0x00,
  0x03, 0x00, 0x00, 0x00, 0x01, 0x00, 0x00, 0x00, 0x18, 0x00, 0x00, 0x00,
  0x73, 0x65, 0x71, 0x75, 0x65, 0x6e, 0x74, 0x69, 0x61, 0x6c, 0x2f, 0x63,
  0x6f, 0x6e, 0x76, 0x32, 0x64, 0x2f, 0x43, 0x6f, 0x6e, 0x76, 0x32, 0x44,
  0x00, 0x00, 0x00, 0x00, 0x98, 0xe0, 0xff, 0xff, 0x8e, 0xe1, 0xff, 0xff,
  0x04, 0x00, 0x00, 0x00, 0x00, 0x01, 0x00, 0x00, 0xb8, 0x85, 0xa9, 0x3e,
  0xd3, 0xdf, 0x33, 0xbe, 0x9c, 0x41, 0x50, 0x3b, 0x84, 0x9c, 0x41, 0xbe,
  0x4a, 0xa9, 0x55, 0x3c, 0x30, 0xc8, 0xed, 0xbe, 0xf4, 0xf0, 0x64, 0x3e,
  0x42, 0x1c, 0xc5, 0x3e, 0x93, 0x34, 0x2f, 0xbe, 0x45, 0x4c, 0x87, 0x3c,
  0x8f, 0xa4, 0x22, 0x3e, 0x52, 0x68, 0x94, 0x3e, 0x24, 0x34, 0x80, 0xbd,
  0x80, 0xc9, 0xe3, 0xbd, 0x06, 0x01, 0xc6, 0x3b, 0x99, 0x7a, 0x0f, 0x3e,
  0x5d, 0x00, 0xc4, 0x3e, 0x32, 0xc9, 0x36, 0xbe, 0xdb, 0xce, 0x08, 0x3e,
  0x5f, 0x9d, 0x39, 0xbd, 0x32, 0xd4, 0xa7, 0x3d, 0x7d, 0xc9, 0xe4, 0xbe,
  0xac, 0xe6, 0x92, 0x3e, 0x39, 0x2e, 0x90, 0x3e, 0x26, 0xd0, 0xdc, 0xbc,
  0xcb, 0x24, 0x9d, 0xbe, 0x8f, 0x97, 0x8f, 0x3e, 0xb6, 0x23, 0x72, 0x3e,
  0x86, 0x35, 0x17, 0xbe, 0x34, 0x75, 0xb3, 0xbd, 0x09, 0xf7, 0x4e, 0x3d,
  0xee, 0xf3, 0x25, 0x3e, 0xd0, 0x91, 0xa8, 0xba, 0x9f, 0xb5, 0x1a, 0xbf,
  0x92, 0x64, 0x46, 0x3e, 0x26, 0xd8, 0x8c, 0x3e, 0xe5, 0x75, 0x02, 0xbd,
  0xe3, 0x0f, 0x2c, 0xbe, 0xae, 0xa4, 0xcf, 0xbd, 0x41, 0x74, 0x1a, 0xbe,
  0x27, 0x4a, 0xd5, 0x3e, 0xb8, 0x0d, 0x01, 0xbf, 0xf1, 0x7d, 0xcd, 0xbe,
  0x22, 0xd3, 0x31, 0xbe, 0x94, 0x44, 0xd7, 0x3e, 0x5d, 0x61, 0x52, 0xbe,
  0x87, 0xe5, 0x97, 0xbd, 0x51, 0xa3, 0x15, 0xbc, 0xa9, 0xd2, 0x8d, 0x3e,
  0xa2, 0x71, 0x70, 0xbe, 0x05, 0x6d, 0x5d, 0x3e, 0xe0, 0x0d, 0x26, 0x3e,
  0x83, 0xeb, 0xc9, 0x3d, 0x36, 0xbc, 0x9b, 0xbc, 0x3c, 0xe6, 0x8b, 0x3e,
  0x3a, 0x52, 0x82, 0xbe, 0x1c, 0x10, 0xd2, 0xbe, 0x0e, 0x16, 0x9a, 0xbe,
  0xa6, 0x78, 0x00, 0x3e, 0xf6, 0x94, 0x75, 0x3e, 0xad, 0x42, 0xd6, 0x3e,
  0x59, 0x07, 0xa3, 0xbd, 0x8b, 0xb5, 0x3c, 0xbc, 0x61, 0x45, 0xa6, 0x3d,
  0xf6, 0xe1, 0xff, 0xff, 0x10, 0x00, 0x00, 0x00, 0x06, 0x00, 0x00, 0x00,
  0x14, 0x00, 0x00, 0x00, 0x30, 0x00, 0x00, 0x00, 0x02, 0x00, 0x00, 0x00,
  0x04, 0x00, 0x00, 0x00, 0x10, 0x00, 0x00, 0x00, 0x19, 0x00, 0x00, 0x00,
  0x73, 0x65, 0x71, 0x75, 0x65, 0x6e, 0x74, 0x69, 0x61, 0x6c, 0x2f, 0x64,
  0x65, 0x6e, 0x73, 0x65, 0x5f, 0x31, 0x2f, 0x4d, 0x61, 0x74, 0x4d, 0x75,
  0x6c, 0x00, 0x00, 0x00, 0xe8, 0xe1, 0xff, 0xff, 0xde, 0xe2, 0xff, 0xff,
  0x04, 0x00, 0x00, 0x00, 0x00, 0x1c, 0x00, 0x00, 0x23, 0x27, 0x4a, 0x3d,
  0x65, 0x12, 0x77, 0xbe, 0xaf, 0x5f, 0x74, 0x3e, 0x81, 0x70, 0x2e, 0xbd,
  0x63, 0x7f, 0x83, 0xbe, 0x60, 0x7c, 0x95, 0x3e, 0xd2, 0x80, 0x20, 0xbe,
  0x5f, 0x19, 0x14, 0x3e, 0xb3, 0x15, 0x41, 0x3d, 0x9c, 0x23, 0xa5, 0xbe,
  0xa2, 0x93, 0xc3, 0xbe, 0xcb, 0x85, 0x92, 0x3e, 0xad, 0x87, 0x77, 0x3e,
  0x18, 0x60, 0x82, 0x3e, 0xb9, 0xcb, 0xc0, 0x3d, 0x6f, 0x67, 0xae, 0xbc,
  0x1b, 0x8a, 0xd7, 0xbd, 0x5e, 0xc7, 0x39, 0xbe, 0x94, 0xa3, 0xec, 0x3d,
  0x35, 0xce, 0x86, 0xbe, 0x3f, 0xe9, 0x74, 0xbd, 0x48, 0x1c, 0x3a, 0x3f,
  0x00, 0x76, 0x2d, 0x3e, 0xe5, 0xbc, 0x74, 0xbe, 0xa4, 0xb7, 0xa8, 0xbe,
  0x21, 0xe9, 0xe0, 0x3d, 0x75, 0xc3, 0x9c, 0xbe, 0x11, 0xc9, 0xe7, 0x3b,
  0x2d, 0x86, 0x80, 0xbe, 0x1e, 0xb8, 0xa4, 0x3d, 0xd8, 0x7b, 0x9b, 0xbe,
  0x0d, 0x2b, 0xc7, 0xbd, 0x3f, 0x57, 0xab, 0x3d, 0x5d, 0x45, 0xf6, 0xbd,
  0x8a, 0x74, 0x4a, 0xbe, 0x2e, 0x14, 0x5e, 0xbc, 0x04, 0x2d, 0xee, 0xbb,
  0x51, 0xed, 0xb1, 0x3f, 0x49, 0xd8, 0xd8, 0x3d, 0xff, 0x78, 0xf5, 0xbd,
  0xb2, 0x46, 0xbc, 0xbe, 0x81, 0xab, 0x3a, 0xbe, 0x5b, 0x15, 0x9a, 0xbd,
  0x9b, 0x4d, 0x12, 0xbf, 0xc1, 0x5a, 0x05, 0xbf, 0xdc, 0x93, 0xb5, 0xbe,
  0x7b, 0x69, 0xaa, 0xbc, 0x79, 0x0c, 0xdb, 0xbd, 0x47, 0xc8, 0xc1, 0x3c,
  0x9b, 0x90, 0x8b, 0x3d, 0x89, 0x94, 0xc5, 0xbe, 0x76, 0x51, 0x16, 0xbe,
  0x05, 0x5d, 0x15, 0xbe, 0x05, 0x29, 0x90, 0x3f, 0xc6, 0x28, 0x9a, 0xbe,
  0x15, 0x3c, 0xb1, 0xbe, 0xc7, 0x99, 0x14, 0xbf, 0x8a, 0x07, 0x3a, 0xbe,
  0xd4, 0xd8, 0x0f, 0xbe, 0x65, 0x51, 0xc1, 0xbe, 0x9e, 0xf7, 0x0f, 0xbf,
  0x1e, 0xff, 0xc9, 0xbe, 0x9c, 0xe3, 0x1a, 0xbe, 0x8e, 0xf0, 0x26, 0xbe,
  0xf0, 0xe7, 0x64, 0x3e, 0x14, 0x47, 0x91, 0xbe, 0x98, 0xff, 0x0a, 0xbe,
  0x4e, 0x35, 0xb4, 0x3c, 0xfe, 0x0e, 0x49, 0xbd, 0xdd, 0xf6, 0x4e, 0x3f,
  0x34, 0x36, 0xc1, 0xbc, 0xd1, 0x18, 0xba, 0xbe, 0x7c, 0xd6, 0x4a, 0xbd,
  0xa4, 0xe1, 0xb8, 0xbe, 0x96, 0xaa, 0x95, 0xbe, 0xa0, 0xeb, 0xa2, 0xbd,
  0x3f, 0x12, 0x54, 0xbe, 0x2d, 0x05, 0x8a, 0x3c, 0x34, 0x12, 0x4d, 0xbd,
  0xe8, 0x06, 0x28, 0xbe, 0x8b, 0xe4, 0xf5, 0x3e, 0xe3, 0x37, 0xbb, 0xbd,
  0x05, 0xbb, 0x31, 0x3e, 0xd8, 0x90, 0x0b, 0xbe, 0xa2, 0x8c, 0x6e, 0xbe,
  0xb7, 0x01, 0x30, 0x3f, 0xa3, 0x80, 0xbd, 0xbd, 0xcc, 0x0a, 0x30, 0xbb,
  0x23, 0x30, 0x75, 0x3d, 0xb1, 0x28, 0xea, 0xbd, 0xc8, 0x69, 0x55, 0xbe,
  0x28, 0xa5, 0x4d, 0x3e, 0xb4, 0x35, 0xf1, 0x3d, 0xc3, 0xb4, 0x92, 0xbd,
  0xd2, 0x3b, 0x43, 0x3d, 0x31, 0xfe, 0xe3, 0xbd, 0xad, 0x6b, 0x14, 0x3e,
  0x65, 0x0f, 0x11, 0xbe, 0xb3, 0x20, 0x1a, 0x3c, 0xcd, 0x44, 0xd2, 0xbd,
  0x47, 0x19, 0x96, 0x3d, 0x80, 0x38, 0x03, 0x3f, 0xff, 0x0d, 0xed, 0xbd,
  0xa1, 0xb5, 0x77, 0x3e, 0xd3, 0xa4, 0x0d, 0x3e, 0x14, 0x6b, 0x2e, 0x3e,
  0x14, 0x6e, 0x77, 0xbd, 0x3f, 0x49, 0x59, 0x3d, 0xb3, 0xf0, 0x0b, 0x3d,
  0x04, 0xba, 0xd9, 0x3d, 0x4c, 0x81, 0xae, 0xbd, 0x04, 0x0f, 0x77, 0x3d,
  0x77, 0xe7, 0x71, 0x3d, 0xb3, 0x60, 0xa4, 0x3d, 0x23, 0x6a, 0x4e, 0xbe,
  0x20, 0xb5, 0x0e, 0x3e, 0xb9, 0x3b, 0x64, 0xbc, 0x9d, 0x49, 0xb7, 0x3d,
  0x1b, 0x55, 0x81, 0x3d, 0x51, 0x1b, 0x80, 0xbb, 0xd0, 0x99, 0xa0, 0x3d,
  0x63, 0x25, 0x75, 0x3e, 0xa1, 0x83, 0xf7, 0xbd, 0xa5, 0x5c, 0xb1, 0x3d,
  0x89, 0x12, 0xbf, 0xbc, 0xf2, 0x2d, 0x27, 0xbd, 0x5c, 0x2a, 0x86, 0xbd,
  0xe4, 0x55, 0x25, 0xbd, 0x2d, 0x35, 0xb0, 0xbd, 0x7e, 0x40, 0x1d, 0x3e,
  0x27, 0x5e, 0x2d, 0x3d, 0x52, 0x8c, 0x24, 0xbe, 0x2f, 0x42, 0xff, 0xbd,
  0x4a, 0x23, 0x2e, 0x3f, 0xe5, 0x82, 0x09, 0xbd, 0xd9, 0x51, 0x01, 0xbd,
  0x49, 0xc0, 0x59, 0x3e, 0xa4, 0x51, 0xff, 0x3d, 0xda, 0xf1, 0x2b, 0xbe,
  0xb9, 0xe5, 0x82, 0xbc, 0xdc, 0x6b, 0x3f, 0xbe, 0x54, 0x0b, 0x61, 0x3d,
  0xf6, 0x78, 0xa2, 0xbe, 0x96, 0xe8, 0x98, 0xbd, 0xb7, 0x29, 0x9d, 0xbd,
  0xc5, 0x63, 0x1e, 0xbd, 0x92, 0x8c, 0x83, 0xbe, 0x4b, 0x45, 0x26, 0xbd,
  0xef, 0x18, 0x6b, 0xbd, 0x06, 0xe0, 0x1f, 0x3f, 0xf2, 0x75, 0x02, 0x3d,
  0xa2, 0xc2, 0x8b, 0xbe, 0x96, 0x23, 0x8e, 0x3e, 0xb7, 0x86, 0x47, 0x3e,
  0xc0, 0x33, 0xa1, 0xbd, 0x18, 0xb7, 0xce, 0xbb, 0xa4, 0xfc, 0xee, 0xbe,
  0x54, 0x89, 0x4d, 0x3e, 0xcc, 0xc8, 0x87, 0xbe, 0x9b, 0x97, 0x52, 0xbd,
  0xde, 0x6b, 0x7e, 0xbe, 0xe5, 0x8c, 0x7b, 0x3d, 0x4e, 0x70, 0x38, 0xbe,
  0x0f, 0x5d, 0x8e, 0x3d, 0x73, 0x2b, 0x6a, 0xba, 0x16, 0xdf, 0x42, 0x3e,
  0x24, 0x87, 0x2e, 0x3e, 0xce, 0x3e, 0x10, 0xbe, 0xf2, 0x52, 0x24, 0x3e,
  0xc2, 0x7b, 0x38, 0x3e, 0xbc, 0x61, 0x12, 0xbe, 0x5b, 0x5a, 0xd1, 0xbd,
  0x34, 0xaa, 0xe8, 0xbe, 0xf5, 0x4b, 0x13, 0x3e, 0xfc, 0x80, 0xba, 0xbd,
  0x04, 0xb1, 0x0d, 0xbd, 0xbe, 0x7f, 0x19, 0x3d, 0x19, 0x7d, 0xcd, 0x3d,
  0xe6, 0xf5, 0xe6, 0xbd, 0xa1, 0xb7, 0xc8, 0x3d, 0x85, 0x0d, 0x0b, 0xbd,
  0x99, 0xfb, 0x11, 0x3e, 0xdb, 0x0c, 0x41, 0x3e, 0x1e, 0xc3, 0x6e, 0xbe,
  0xc9, 0xef, 0x10, 0x3e, 0x49, 0x7e, 0x81, 0x3e, 0x8d, 0x9e, 0x81, 0xbe,
  0xa5, 0xb1, 0x85, 0xbd, 0xfa, 0xe7, 0xd7, 0xbe, 0xe6, 0x64, 0xe6, 0x3c,
  0x6e, 0x2b, 0x70, 0xbe, 0x3a, 0xa4, 0x94, 0xbd, 0xd1, 0x6f, 0x01, 0xbe,
  0x6f, 0x49, 0x0a, 0x3d, 0xfc, 0xbb, 0x6f, 0xbe, 0x78, 0x28, 0x30, 0x3e,
  0x8d, 0x06, 0x08, 0xbd, 0xc8, 0x4b, 0xfc, 0xbd, 0xa9, 0x05, 0x4a, 0x3e,
  0x36, 0xe8, 0x8b, 0xbe, 0xe4, 0xf4, 0x18, 0x3e, 0x36, 0x26, 0x2f, 0x3e,
  0x59, 0xf8, 0xcd, 0xbd, 0xda, 0x27, 0x55, 0xbe, 0xd9, 0xba, 0xa5, 0xbe,
  0xfe, 0x09, 0x0e, 0x3d, 0xe4, 0x86, 0x0b, 0xbe, 0x25, 0xad, 0x52, 0xbd,
  0x85, 0x25, 0xcc, 0x3d, 0x4f, 0x5f, 0xb1, 0x3d, 0xeb, 0x1b, 0xa9, 0xbd,
  0xf3, 0x84, 0x45, 0xbd, 0xce, 0x0a, 0xd5, 0xbc, 0x6d, 0x3a, 0x76, 0x3e,
  0xf7, 0x8f, 0xc1, 0x3b, 0x1e, 0x30, 0xbe, 0x3d, 0x17, 0x4f, 0xf8, 0x3d,
  0x4b, 0xd7, 0x80, 0x3d, 0xec, 0x0c, 0x58, 0xbc, 0x58, 0xad, 0xf3, 0xb9,
  0x3c, 0x89, 0xda, 0xbd, 0xc5, 0x52, 0x0b, 0x3d, 0xda, 0x3a, 0xef, 0xbd,
  0x5a, 0xb1, 0x6c, 0x3c, 0x8e, 0x6b, 0x37, 0xbe, 0x3a, 0xba, 0xee, 0xbd,
  0x35, 0x2a, 0x8b, 0xbd, 0x25, 0xe3, 0x1a, 0xbd, 0x31, 0x8e, 0xe5, 0xbc,
  0xf5, 0x60, 0x39, 0x3c, 0x9c, 0x07, 0xc1, 0x3d, 0xe8, 0x7e, 0xe1, 0xbb,
  0x75, 0x0d, 0xae, 0xbd, 0x2c, 0xdc, 0x0d, 0xbe, 0x2d, 0x82, 0x3c, 0x3e,
  0x61, 0x2d, 0x15, 0xbe, 0x0d, 0x5f, 0x59, 0xbd, 0x23, 0x6b, 0x33, 0x3c,
  0x4f, 0x87, 0xbb, 0x3d, 0x1d, 0x10, 0xbe, 0xbd, 0x7f, 0x30, 0x92, 0xbd,
  0x98, 0xc7, 0x50, 0xbe, 0xb9, 0xee, 0x5b, 0xbd, 0x41, 0x21, 0x90, 0x3b,
  0xe4, 0xf7, 0xb6, 0xbd, 0x5c, 0x1b, 0x04, 0xbc, 0x90, 0xb6, 0x4c, 0x3e,
  0xde, 0xcb, 0x1e, 0x3e, 0xad, 0x6c, 0x11, 0xbe, 0x78, 0xa2, 0x75, 0xbe,
  0x39, 0x65, 0x50, 0xbe, 0xc8, 0x87, 0xa5, 0xbd, 0x74, 0x47, 0x39, 0xbe,
  0x35, 0x3d, 0x7f, 0xbd, 0x7d, 0xa9, 0xe7, 0xbc, 0xfa, 0x50, 0x3c, 0xbe,
  0xe4, 0xb7, 0x94, 0xbd, 0x0f, 0x04, 0xa8, 0xbc, 0xb4, 0x7b, 0xc8, 0xbd,
  0x21, 0x7e, 0xeb, 0x3d, 0x6e, 0x1f, 0x7d, 0xbe, 0xab, 0x29, 0x4f, 0x3c,
  0x14, 0x33, 0x10, 0xbe, 0x6b, 0x4a, 0xec, 0x3c, 0xb9, 0xad, 0x66, 0x3d,
  0x4b, 0xfe, 0x90, 0x3d, 0xe9, 0x28, 0xad, 0xbd, 0x38, 0x0a, 0x31, 0x3e,
  0xaf, 0x4d, 0x41, 0xbe, 0x53, 0x73, 0x4f, 0xbd, 0xec, 0x08, 0x80, 0xbe,
  0xd3, 0xe6, 0x28, 0xbe, 0x1c, 0x23, 0x54, 0x3d, 0xf0, 0x0d, 0x73, 0xbe,
  0xb4, 0x41, 0x05, 0xbc, 0x49, 0x4c, 0xe9, 0x3c, 0x71, 0x38, 0xa4, 0x3d,
  0xde, 0x2e, 0x81, 0xbd, 0xb1, 0x4f, 0xb9, 0xbc, 0x7d, 0xdc, 0xf1, 0xbd,
  0x60, 0x22, 0xb8, 0xbd, 0x24, 0x1e, 0x64, 0xbe, 0x01, 0x7f, 0x8a, 0x3d,
  0xd3, 0xfb, 0x6d, 0xbe, 0x05, 0x46, 0x57, 0xbe, 0x91, 0xd5, 0x17, 0x3e,
  0x47, 0x49, 0xe1, 0x3d, 0x68, 0x6a, 0x49, 0xbe, 0x3a, 0xd3, 0x94, 0x3a,
  0x7a, 0xee, 0xa7, 0x3d, 0xde, 0x57, 0x08, 0xbe, 0x44, 0xff, 0x71, 0xbe,
  0x07, 0x02, 0x4a, 0xbe, 0xf3, 0x65, 0x4b, 0xbe, 0x4a, 0x82, 0x09, 0x3e,
  0x29, 0xc4, 0xd2, 0xbd, 0x1d, 0x1c, 0xf4, 0xbd, 0x4a, 0x08, 0x4f, 0xbe,
  0x33, 0x3c, 0x22, 0x3e, 0xe9, 0x9e, 0xd3, 0xbd, 0xff, 0xb7, 0xb4, 0xbd,
  0x91, 0x17, 0x0f, 0x3e, 0xc5, 0x92, 0xeb, 0x3d, 0x1b, 0x53, 0xc4, 0xbd,
  0x1c, 0x86, 0x02, 0x3e, 0x74, 0xf8, 0x3f, 0xbe, 0x38, 0xff, 0x0d, 0xbe,
  0x5b, 0x3c, 0x3b, 0x3e, 0x08, 0x20, 0x96, 0xbe, 0x50, 0xf2, 0x06, 0xbd,
  0x41, 0xeb, 0xfb, 0xbd, 0xf1, 0x90, 0x2c, 0xbe, 0xf2, 0x8a, 0x0c, 0xbe,
  0xd8, 0xeb, 0xb0, 0xbd, 0xd8, 0xb7, 0x3a, 0xbd, 0xf1, 0x23, 0x21, 0xbe,
  0xe6, 0x6b, 0xef, 0xbd, 0xb9, 0x41, 0xbb, 0x3d, 0xcc, 0x3e, 0x7e, 0xbd,
  0xe3, 0x12, 0x09, 0xbe, 0xdb, 0xd8, 0x03, 0xbe, 0x72, 0xbf, 0x73, 0xbd,
  0xf7, 0x61, 0xb9, 0xbd, 0x8e, 0xff, 0x94, 0xbd, 0xb1, 0x69, 0x21, 0xbe,
  0x84, 0x97, 0xeb, 0x3c, 0x32, 0x96, 0x4d, 0x3c, 0xbf, 0x17, 0x8e, 0xbe,
  0xe5, 0x14, 0x4c, 0x3d, 0x78, 0xfd, 0x2e, 0xbd, 0x3d, 0x9a, 0x61, 0x3c,
  0x3c, 0x8f, 0x12, 0xbe, 0x52, 0xbb, 0xd5, 0xbc, 0xfc, 0xa3, 0xf2, 0xbd,
  0xbf, 0x6d, 0x2d, 0xbe, 0x76, 0x55, 0x6c, 0xbe, 0xfd, 0x43, 0xf6, 0x3d,
  0xc1, 0x67, 0xae, 0x3d, 0xa4, 0xf7, 0x26, 0xbe, 0x38, 0xda, 0x31, 0xbc,
  0x22, 0x97, 0x81, 0xbe, 0xeb, 0xb1, 0xb2, 0x3c, 0x63, 0x96, 0x11, 0xbe,
  0xbf, 0xa7, 0x9f, 0x3c, 0x0e, 0x0a, 0x85, 0xbe, 0xbd, 0xbb, 0xb9, 0x3c,
  0x53, 0xf6, 0x32, 0xbe, 0x6d, 0x08, 0x1e, 0x3b, 0x64, 0x83, 0x2a, 0xbe,
  0x75, 0xc3, 0xbc, 0xbd, 0xe0, 0x7d, 0xa1, 0x3d, 0x06, 0xfe, 0xec, 0xbd,
  0x35, 0x77, 0x2a, 0x3e, 0xd6, 0x82, 0xf2, 0x3d, 0xb9, 0xe6, 0x01, 0xbe,
  0xc4, 0x7f, 0xa3, 0xbd, 0x5f, 0xf5, 0xf4, 0xbc, 0xe5, 0x5a, 0xcf, 0x3c,
  0xca, 0x5a, 0xc3, 0xbd, 0x9d, 0x2b, 0x2f, 0xbe, 0xba, 0x30, 0x57, 0xbe,
  0x50, 0x1a, 0xbc, 0x3c, 0xa0, 0xd4, 0x0f, 0xbe, 0x56, 0x86, 0xd6, 0x3d,
  0xeb, 0xbc, 0x6e, 0xbe, 0x3f, 0x8c, 0x8c, 0x3b, 0x86, 0x75, 0xbb, 0x3d,
  0x85, 0x58, 0x2c, 0xbe, 0x7f, 0x82, 0x2b, 0x3e, 0x90, 0xfa, 0x1c, 0xbe,
  0xb2, 0x22, 0x34, 0x3d, 0xa8, 0x61, 0x36, 0x3d, 0xfe, 0x64, 0x8f, 0xbd,
  0x95, 0x02, 0x1c, 0x3c, 0xad, 0xeb, 0x35, 0xbe, 0x20, 0x37, 0x03, 0xbe,
  0xc8, 0xd2, 0x2c, 0xbe, 0x82, 0x55, 0x18, 0x3e, 0x2c, 0xf1, 0x4f, 0x3d,
  0x6b, 0x2c, 0x14, 0x3e, 0x0c, 0x78, 0xd4, 0x3d, 0xcc, 0x32, 0x45, 0xbe,
  0x47, 0x7a, 0x99, 0x3d, 0x6d, 0xfe, 0x84, 0xbe, 0x85, 0xb8, 0x3e, 0x3e,
  0xce, 0xf4, 0x19, 0xbe, 0x60, 0x35, 0xcb, 0x3d, 0x2b, 0xfe, 0xf0, 0xbd,
  0x82, 0x11, 0x75, 0xbe, 0xab, 0x46, 0x06, 0x3d, 0xaf, 0xd8, 0x6e, 0xbe,
  0x11, 0xb2, 0x11, 0x3e, 0x3f, 0xf1, 0xab, 0xbd, 0x16, 0x59, 0x89, 0x3c,
  0xb8, 0xda, 0xb4, 0xbd, 0x3c, 0xfe, 0xc7, 0x3d, 0x95, 0x3c, 0xb5, 0xbd,
  0xb4, 0x25, 0xb1, 0x3d, 0x1a, 0x65, 0xc9, 0x3c, 0x62, 0x3b, 0xb8, 0xbd,
  0xb1, 0x89, 0xb4, 0xbc, 0xb2, 0x8a, 0x55, 0x3a, 0x77, 0x46, 0xaa, 0xbd,
  0x00, 0xa3, 0x62, 0xbe, 0x60, 0xf9, 0x0b, 0xbe, 0x7f, 0x51, 0x8f, 0x3d,
  0x73, 0x64, 0x00, 0xbe, 0x9a, 0x94, 0x93, 0x3c, 0x89, 0xfb, 0x4a, 0x3d,
  0x7c, 0xb3, 0x3d, 0xbd, 0x2e, 0xed, 0x2c, 0xbe, 0x11, 0x3e, 0xd4, 0xbd,
  0x13, 0x8e, 0xb2, 0xbd, 0x4c, 0xb4, 0xdf, 0x3d, 0xa7, 0x7a, 0xb8, 0xbd,
  0x41, 0x22, 0x9c, 0xbe, 0xa5, 0x11, 0x35, 0x3e, 0xc1, 0x12, 0x70, 0xbd,
  0xc9, 0xc5, 0xe3, 0x3d, 0xf4, 0xbd, 0x38, 0x3d, 0x35, 0xed, 0xec, 0x3d,
  0x37, 0x76, 0x06, 0x3b, 0xf6, 0x05, 0x4d, 0x3c, 0xd7, 0xd8, 0x2b, 0xbd,
  0x7f, 0x17, 0x82, 0xbe, 0x03, 0xd0, 0xb3, 0x3d, 0xf9, 0x93, 0x3f, 0x3b,
  0x88, 0xa4, 0x4a, 0xbe, 0xa8, 0x6c, 0x2b, 0xbd, 0xd8, 0x9c, 0x52, 0xbe,
  0x16, 0xe4, 0x5c, 0xbd, 0xd4, 0x78, 0xf7, 0xbd, 0x14, 0x7b, 0x47, 0xbe,
  0x7e, 0xa7, 0x17, 0xbe, 0x80, 0xac, 0x82, 0xbe, 0x0b, 0x06, 0xc8, 0x3d,
  0x60, 0x2e, 0x75, 0xbd, 0x3c, 0x82, 0x40, 0xbd, 0x80, 0xdc, 0x17, 0xbd,
  0xcd, 0xae, 0xa6, 0x3d, 0xcf, 0x82, 0x26, 0x3b, 0x0a, 0x59, 0x8a, 0xbd,
  0xcf, 0xe1, 0xad, 0xbd, 0x08, 0xa7, 0x77, 0xbe, 0xfa, 0x4e, 0xcf, 0x3d,
  0x93, 0xef, 0x79, 0xbe, 0x71, 0x0b, 0x89, 0xbc, 0xdf, 0x11, 0x0b, 0xbe,
  0x08, 0xce, 0x7f, 0xbc, 0xb7, 0xeb, 0x79, 0xbe, 0x3a, 0xbe, 0x49, 0xbe,
  0x28, 0xf3, 0x91, 0xbe, 0x78, 0x1f, 0xfb, 0xbc, 0xe3, 0x86, 0x8d, 0x3d,
  0x74, 0xe6, 0xd2, 0xbe, 0x0b, 0x6f, 0xc5, 0x3d, 0xfa, 0xf9, 0x2f, 0xbd,
  0x77, 0x7f, 0x32, 0xbe, 0xd8, 0x29, 0x72, 0x3e, 0xfb, 0x65, 0xa3, 0x3d,
  0x88, 0xa0, 0x20, 0x3e, 0xe6, 0x15, 0x87, 0x3d, 0x66, 0x2a, 0x2b, 0xbe,
  0x17, 0x8e, 0x6e, 0x3d, 0x04, 0x16, 0xdb, 0x3d, 0x43, 0x97, 0x9b, 0xbe,
  0xe0, 0xc4, 0xd3, 0xbd, 0xe6, 0x38, 0x36, 0xbc, 0x81, 0xc3, 0x09, 0xbd,
  0x65, 0x47, 0xce, 0xbe, 0x74, 0xc1, 0xb5, 0xbd, 0xfc, 0x34, 0x8f, 0x3d,
  0xe5, 0x7d, 0xf3, 0xbd, 0x12, 0x71, 0x48, 0xbe, 0x69, 0xc0, 0x46, 0x3e,
  0x3c, 0xba, 0x92, 0xbc, 0xb3, 0x1c, 0x80, 0x3e, 0x3d, 0xd6, 0x0c, 0x3e,
  0x6a, 0xf0, 0x4a, 0xbe, 0xa8, 0x8c, 0x58, 0x3d, 0x80, 0xbf, 0x3a, 0x3d,
  0x29, 0x51, 0xa8, 0x3d, 0x23, 0xde, 0x86, 0x3d, 0xf1, 0x8b, 0x24, 0x3d,
  0xef, 0xac, 0x60, 0x3d, 0xd4, 0xb1, 0xc4, 0xbe, 0xd5, 0x5c, 0xac, 0xbb,
  0x56, 0x65, 0x4d, 0x3e, 0x84, 0xe6, 0x1c, 0xbe, 0xbd, 0xea, 0xe5, 0xbc,
  0x07, 0x44, 0xb7, 0x3e, 0x89, 0x93, 0xd8, 0xbd, 0x85, 0x6a, 0x33, 0x3e,
  0x15, 0x43, 0x08, 0x3d, 0xcc, 0x68, 0x30, 0x3e, 0x2c, 0x72, 0xf5, 0x3c,
  0x95, 0x37, 0xac, 0x3e, 0x5e, 0xa6, 0x7f, 0x3d, 0xfa, 0xa9, 0x8b, 0x3b,
  0x9c, 0xb1, 0x76, 0x3b, 0xff, 0x97, 0xb4, 0xbb, 0x4a, 0x72, 0x78, 0xbe,
  0xb4, 0xe1, 0x92, 0xbe, 0xe5, 0x44, 0x5a, 0x3d, 0xf4, 0xf0, 0x8f, 0xbd,
  0x0b, 0xe1, 0x77, 0xbe, 0x66, 0xb2, 0x45, 0x3e, 0x62, 0xfc, 0x9d, 0xbd,
  0x54, 0xee, 0x5c, 0x3e, 0xa7, 0x6d, 0x8a, 0xbd, 0xf1, 0xfa, 0x18, 0x3e,
  0xa6, 0x34, 0xe3, 0x3c, 0xb6, 0xbb, 0xa3, 0xbe, 0x37, 0x4d, 0xd1, 0xbd,
  0xc8, 0x72, 0x82, 0xbd, 0xdc, 0x28, 0x1e, 0xbe, 0xc6, 0x74, 0xde, 0xb8,
  0x27, 0xb4, 0x1d, 0xbe, 0x46, 0x0d, 0x66, 0xbe, 0xda, 0xf7, 0x44, 0x3d,
  0x21, 0xb1, 0xc9, 0xbd, 0x57, 0x88, 0x89, 0xbe, 0xcf, 0x58, 0xbd, 0x3e,
  0xb6, 0x78, 0x57, 0xbc, 0x70, 0xcb, 0x19, 0x3e, 0xb0, 0x94, 0x1c, 0x3d,
  0xe3, 0x29, 0x8a, 0xbd, 0x4b, 0x2c, 0xfa, 0x3c, 0x78, 0x0d, 0xf6, 0x3d,
  0x06, 0xc1, 0x36, 0xbe, 0x15, 0x4f, 0x8b, 0xbd, 0x00, 0x85, 0x94, 0xbe,
  0x00, 0xf6, 0x30, 0xbc, 0xd3, 0x67, 0x33, 0x3e, 0x05, 0xc2, 0x04, 0xbf,
  0xda, 0x0f, 0xd5, 0xbb, 0xaa, 0x74, 0xec, 0xbd, 0x7d, 0x42, 0x60, 0xbe,
  0x7a, 0xe8, 0xb0, 0x3e, 0xa9, 0xe2, 0x94, 0x3c, 0x0d, 0xb2, 0x32, 0x3e,
  0x7d, 0xe7, 0x11, 0xbd, 0xbe, 0x9c, 0xfa, 0xbd, 0x6b, 0x44, 0xcb, 0x3b,
  0xb4, 0xeb, 0x90, 0x3d, 0x7f, 0xc5, 0x45, 0xbe, 0xf5, 0x61, 0xd0, 0x3c,
  0x91, 0xa6, 0x95, 0x3c, 0xb7, 0x3e, 0xab, 0xbd, 0x7d, 0xb6, 0x1f, 0x3e,
  0x3b, 0xe3, 0x04, 0xbe, 0xfe, 0x6f, 0xae, 0x3d, 0x00, 0x56, 0x15, 0xbd,
  0x61, 0x65, 0xc2, 0x3b, 0x46, 0xc8, 0x8f, 0x3e, 0x44, 0xaf, 0xea, 0x3d,
  0xcb, 0x81, 0xa2, 0x3c, 0x75, 0x5f, 0xb3, 0x3a, 0x8e, 0xc4, 0xdf, 0xbd,
  0xf7, 0x91, 0xad, 0x3c, 0x65, 0x68, 0x38, 0x3c, 0xe9, 0xb7, 0xb4, 0x3d,
  0xb4, 0x8f, 0x49, 0x3d, 0xb3, 0x2a, 0xd9, 0xbd, 0x43, 0xe1, 0x83, 0xbe,
  0xa7, 0x6d, 0x12, 0xbe, 0xbf, 0x2c, 0x93, 0x3d, 0xf4, 0x10, 0x1d, 0xbe,
  0xf3, 0x27, 0x07, 0xbe, 0x05, 0x6b, 0x5a, 0xbd, 0x92, 0x0c, 0x12, 0xbe,
  0x24, 0x46, 0x01, 0xbe, 0xc2, 0xcb, 0x37, 0x3d, 0x5a, 0x2e, 0x23, 0xbe,
  0x43, 0xd8, 0xc8, 0x3d, 0x8f, 0x80, 0x61, 0xbd, 0xf7, 0xdb, 0x65, 0xbe,
  0xfa, 0x99, 0xdd, 0xbd, 0xef, 0xa8, 0x07, 0x3d, 0x7b, 0x3f, 0x0a, 0xbe,
  0x27, 0x4f, 0x65, 0xbe, 0xed, 0x3f, 0x04, 0xbe, 0x10, 0x76, 0x9a, 0xbd,
  0x8a, 0x70, 0x02, 0xbe, 0x98, 0x74, 0x3e, 0xbd, 0xcb, 0x33, 0x00, 0xbe,
  0xb4, 0x8f, 0xcd, 0x3d, 0x2f, 0x3e, 0x16, 0xbe, 0x4b, 0x25, 0x37, 0xbc,
  0x35, 0x28, 0x0b, 0x3e, 0x4f, 0x29, 0x3f, 0xbe, 0xc3, 0x79, 0xb7, 0xbd,
  0xd8, 0x1c, 0x2d, 0x3e, 0x35, 0xfd, 0x44, 0xbd, 0xd4, 0x09, 0x86, 0x3d,
  0x92, 0xe3, 0x9a, 0x3c, 0x7d, 0xd6, 0x96, 0xbd, 0x4e, 0xba, 0x6b, 0xbd,
  0x67, 0xe3, 0x13, 0xbe, 0x97, 0xf6, 0x2c, 0xbe, 0x35, 0xa2, 0x16, 0x3e,
  0xaa, 0x6c, 0x8b, 0xbd, 0x7c, 0xd0, 0x76, 0xbe, 0x8f, 0x19, 0x4b, 0xbe,
  0x07, 0x2b, 0xc7, 0x3d, 0xba, 0x8f, 0xc5, 0xbc, 0xaa, 0xc6, 0xeb, 0xbd,
  0x17, 0x59, 0x60, 0xbe, 0x00, 0x4a, 0xd4, 0x3c, 0xad, 0x73, 0x5c, 0xbe,
  0x36, 0x85, 0xba, 0x3d, 0x41, 0xbe, 0x00, 0xbc, 0xe5, 0xa1, 0x1f, 0x3c,
  0x55, 0xbc, 0xb5, 0xbc, 0x7b, 0x4f, 0x10, 0xbd, 0xcd, 0x04, 0xdf, 0xbd,
  0x4b, 0x6b, 0x3b, 0xbe, 0x62, 0xd0, 0xbd, 0x3d, 0xdb, 0x66, 0x1f, 0x3d,
  0xa6, 0x6f, 0x14, 0xbe, 0x67, 0x53, 0x99, 0x3d, 0xa7, 0xdc, 0x6a, 0xbe,
  0x3c, 0x02, 0x62, 0xbd, 0x99, 0xe4, 0x8e, 0xbe, 0xd2, 0xac, 0xc6, 0xbd,
  0x03, 0xc7, 0x43, 0xbe, 0x0c, 0xa4, 0x0c, 0x3e, 0x6e, 0x49, 0x85, 0xbd,
  0x7b, 0xc0, 0x05, 0xbe, 0xff, 0x96, 0x9f, 0x3d, 0x64, 0xd3, 0x40, 0x3d,
  0x59, 0xea, 0x25, 0xbd, 0x8c, 0xea, 0xc1, 0x3c, 0x25, 0x08, 0x6b, 0xbe,
  0x09, 0xf1, 0xd4, 0x3d, 0x34, 0xe7, 0xc8, 0xbc, 0xb5, 0x4c, 0xf1, 0x3d,
  0x62, 0xc4, 0x6b, 0xbe, 0x20, 0xec, 0x4f, 0xbe, 0xd1, 0xbd, 0x96, 0xbe,
  0xa7, 0x6e, 0x1c, 0x3c, 0x91, 0x6c, 0x2b, 0xbc, 0x50, 0x46, 0x90, 0x3d,
  0xa1, 0x8b, 0xa1, 0xbd, 0xb1, 0x17, 0x0b, 0xbd, 0xe5, 0xd7, 0x52, 0x3d,
  0x13, 0x1e, 0x61, 0xbe, 0xd6, 0xbb, 0xb5, 0x3d, 0x89, 0x28, 0x06, 0x3d,
  0xff, 0x35, 0x85, 0x3d, 0xfd, 0xb7, 0xfa, 0x3d, 0x93, 0x8b, 0x63, 0xbe,
  0x7c, 0x8e, 0x32, 0xbe, 0x8d, 0x6d, 0xc3, 0x3c, 0x1d, 0xbd, 0x15, 0xbe,
  0x39, 0x36, 0x44, 0xbe, 0x09, 0xf0, 0x38, 0xbc, 0x48, 0x2c, 0x8b, 0xbc,
  0x8d, 0xa1, 0x38, 0xbe, 0x0d, 0xc4, 0xd4, 0xbd, 0xad, 0x7e, 0x83, 0x3b,
  0x92, 0xbb, 0x08, 0xbe, 0x56, 0xa2, 0xaf, 0x3d, 0x76, 0x8c, 0x35, 0xbe,
  0xca, 0x57, 0x75, 0x3d, 0x84, 0xd8, 0x4c, 0xbe, 0xd7, 0x41, 0x4d, 0xbe,
  0xba, 0xd2, 0xd4, 0xbd, 0x4e, 0x5b, 0x07, 0xbd, 0x70, 0x1a, 0x1b, 0xbe,
  0x18, 0x0b, 0x24, 0xbe, 0xb5, 0x51, 0xb1, 0xbe, 0xa7, 0x17, 0x37, 0x3e,
  0xdf, 0xad, 0x80, 0xbe, 0xe7, 0xe9, 0x97, 0x3d, 0x81, 0x48, 0xf8, 0xbd,
  0x0a, 0xce, 0x69, 0xbd, 0x14, 0x4f, 0x28, 0x3e, 0xc7, 0xdf, 0x8f, 0xbd,
  0x29, 0x3b, 0x28, 0x3e, 0x73, 0xb0, 0x0c, 0x3d, 0x04, 0x38, 0xdf, 0xbc,
  0x9b, 0xa4, 0x86, 0x3d, 0xd8, 0x06, 0x4e, 0x3e, 0x9e, 0x60, 0xf1, 0x3d,
  0x17, 0x91, 0x76, 0x3c, 0x08, 0x1a, 0xf6, 0xbd, 0x8c, 0x48, 0xee, 0x3c,
  0x91, 0x01, 0x36, 0xbe, 0x87, 0x54, 0x8a, 0xbe, 0x17, 0x11, 0x74, 0x3e,
  0x50, 0x68, 0x0a, 0x3e, 0x98, 0xe5, 0x9d, 0x3d, 0xbf, 0xe5, 0xa3, 0xbe,
  0x4b, 0xae, 0x0d, 0x3e, 0x2a, 0x70, 0x11, 0xbd, 0xcb, 0x78, 0x1c, 0xbe,
  0x66, 0x33, 0x62, 0xba, 0x16, 0x09, 0xc4, 0xbd, 0x25, 0x9c, 0x3f, 0x3d,
  0xdc, 0xea, 0xc1, 0xbd, 0x2e, 0xb9, 0x53, 0x3d, 0x1b, 0x35, 0x83, 0xbe,
  0x6c, 0x13, 0xeb, 0x3c, 0x25, 0xd7, 0x7b, 0xbe, 0x50, 0x55, 0x82, 0xbe,
  0xc4, 0x23, 0x97, 0xbc, 0x5f, 0x26, 0xc3, 0x3d, 0x55, 0xeb, 0xb7, 0x3d,
  0x7d, 0x52, 0x61, 0xbf, 0xe1, 0x92, 0xfc, 0xbd, 0xe1, 0x8d, 0xbf, 0xbd,
  0xd9, 0x02, 0xea, 0xbe, 0x52, 0xe1, 0x96, 0xbd, 0x4e, 0x92, 0x81, 0xbe,
  0xf6, 0xb6, 0x8c, 0xbe, 0x36, 0x66, 0xe0, 0xbe, 0xb4, 0xc9, 0x05, 0xbf,
  0x26, 0xae, 0xfc, 0x3d, 0xac, 0x16, 0x05, 0x3c, 0xd8, 0xf0, 0x95, 0xbe,
  0x4e, 0x4b, 0x2d, 0xbe, 0x24, 0xaa, 0xc1, 0xbe, 0x22, 0x2d, 0xf4, 0xbd,
  0x9d, 0x68, 0x1a, 0x3d, 0xf8, 0x78, 0x50, 0xbe, 0x15, 0xb7, 0x93, 0xbc,
  0x24, 0xa2, 0xe5, 0xbd, 0x65, 0x6b, 0xf0, 0xbe, 0x56, 0x5b, 0x02, 0xbf,
  0xb9, 0x13, 0x91, 0xbd, 0xce, 0x3e, 0xff, 0x3b, 0x3d, 0x82, 0x81, 0xbe,
  0xb3, 0x48, 0x0c, 0xbf, 0xac, 0x8b, 0x08, 0x3d, 0x0a, 0xda, 0x49, 0x3c,
  0x64, 0x44, 0x02, 0x3f, 0xb2, 0x90, 0xdb, 0xbe, 0x30, 0x70, 0x80, 0x3d,
  0xba, 0x58, 0xa1, 0x3d, 0x3e, 0xaa, 0x75, 0x3d, 0xd0, 0x8b, 0x8b, 0x3d,
  0xf8, 0xc0, 0x83, 0xbe, 0x12, 0xa7, 0xa8, 0xbd, 0x96, 0x87, 0x28, 0xbd,
  0x5d, 0x22, 0xd3, 0xbe, 0x80, 0x0b, 0x45, 0xbd, 0x82, 0x19, 0xa0, 0xbc,
  0x5e, 0x6f, 0x6d, 0x3c, 0xec, 0xa9, 0x86, 0xbe, 0x4a, 0x7c, 0x2e, 0xbe,
  0x3c, 0x29, 0xaf, 0x3c, 0xd7, 0x93, 0xf0, 0x3e, 0x24, 0x69, 0xe3, 0xbe,
  0xfc, 0xbb, 0x1a, 0x3e, 0xc3, 0xc9, 0x59, 0xbe, 0x57, 0xa6, 0x3e, 0xbd,
  0x28, 0xc9, 0x0a, 0x3f, 0xd0, 0xd2, 0xbf, 0xbe, 0x21, 0xe5, 0xa3, 0xbd,
  0x9f, 0xc2, 0xc1, 0xbd, 0x04, 0x39, 0x29, 0xbe, 0x89, 0x32, 0x80, 0x3d,
  0x54, 0x25, 0x10, 0x3e, 0x7d, 0x52, 0x11, 0x3e, 0xff, 0xa9, 0x14, 0x3e,
  0xa2, 0x23, 0xe8, 0xbd, 0xcb, 0x44, 0xef, 0x3b, 0xc8, 0x94, 0xaf, 0x3d,
  0x38, 0x77, 0x6b, 0xbe, 0xe5, 0x52, 0xe6, 0xbc, 0x5f, 0xc2, 0x1e, 0xbd,
  0xe7, 0xc1, 0x8a, 0xbb, 0x82, 0x82, 0xca, 0x3e, 0xa1, 0x59, 0xa9, 0xbd,
  0xcd, 0xed, 0x3f, 0x3e, 0xea, 0x06, 0x35, 0x3d, 0xe2, 0x82, 0x9b, 0x3d,
  0xd6, 0x32, 0x25, 0x3e, 0xd2, 0x60, 0x50, 0x3c, 0x2a, 0x92, 0x3d, 0x3e,
  0xe7, 0xea, 0x87, 0x3d, 0xf3, 0x5a, 0xf8, 0xbd, 0x62, 0xb1, 0x94, 0x3d,
  0x32, 0x52, 0xaa, 0xbd, 0xd4, 0x03, 0x7a, 0xbe, 0x5d, 0x95, 0x74, 0xbe,
  0xf0, 0xe5, 0x52, 0x3d, 0x73, 0x94, 0xbd, 0xbd, 0x17, 0x92, 0xff, 0x3e,
  0xfc, 0x3f, 0xa9, 0xbd, 0x50, 0xf0, 0x52, 0x3d, 0x2b, 0x90, 0xda, 0xbe,
  0x28, 0x54, 0x55, 0xbe, 0xc7, 0x7c, 0x82, 0xbb, 0x6c, 0x9a, 0x14, 0x3d,
  0x32, 0xcb, 0x1b, 0x3c, 0x98, 0xf6, 0xb2, 0xbe, 0xe1, 0x7e, 0x6e, 0xbe,
  0x94, 0xf8, 0x99, 0xbe, 0x23, 0x81, 0x1c, 0xbe, 0x66, 0x3d, 0xb3, 0x3d,
  0x6d, 0x31, 0x29, 0xbe, 0x49, 0x87, 0xf5, 0xbd, 0x6b, 0x41, 0xc2, 0xbd,
  0x67, 0x40, 0x6d, 0x40, 0x91, 0x89, 0x19, 0xbd, 0x3f, 0x68, 0x8d, 0xbe,
  0x72, 0x81, 0x1c, 0x3e, 0x33, 0x61, 0x2e, 0xbe, 0xb1, 0x46, 0x00, 0x3e,
  0xc5, 0xe5, 0x5d, 0x3d, 0xc0, 0xf6, 0xb0, 0xbc, 0xa9, 0xe3, 0x9e, 0xbd,
  0xec, 0x5c, 0x2c, 0xbd, 0x11, 0x0a, 0xe1, 0xbe, 0x3b, 0x67, 0x97, 0xbd,
  0x36, 0xfe, 0x2b, 0xbe, 0xe9, 0xb1, 0xce, 0xbd, 0x77, 0x08, 0x65, 0xbe,
  0x0e, 0xa7, 0x13, 0xbe, 0xe8, 0x61, 0x02, 0x40, 0x22, 0x40, 0xd5, 0xbd,
  0xdb, 0x11, 0x0a, 0xbe, 0x31, 0x52, 0x0d, 0xbe, 0xd1, 0xb5, 0x13, 0xbe,
  0xe8, 0xd5, 0x12, 0xbe, 0xfb, 0x3a, 0x31, 0xbe, 0x1a, 0xee, 0x63, 0xbd,
  0xc4, 0x32, 0xc6, 0xbd, 0x86, 0x3e, 0x51, 0xbe, 0x34, 0x40, 0xd3, 0xbe,
  0xb7, 0x40, 0x4f, 0x3c, 0x13, 0x10, 0x17, 0xbe, 0x5c, 0xe8, 0x40, 0xbe,
  0x38, 0x34, 0xea, 0xbd, 0x62, 0xd3, 0x50, 0xbc, 0x1f, 0x32, 0x03, 0x40,
  0x95, 0x94, 0x0e, 0x3d, 0x82, 0xbe, 0x71, 0xbe, 0x50, 0x78, 0xba, 0x3c,
  0x5a, 0xde, 0x16, 0x3d, 0x44, 0x09, 0x3c, 0xbd, 0x28, 0x22, 0x44, 0xbd,
  0x4c, 0xe4, 0x2f, 0xbe, 0x85, 0xd4, 0x8f, 0x3d, 0x32, 0x9b, 0x56, 0xbe,
  0x4d, 0xd3, 0x03, 0xbf, 0x5d, 0xb3, 0x2c, 0x3e, 0x4d, 0xe1, 0x67, 0xbe,
  0x25, 0x18, 0x2b, 0xbe, 0x8b, 0x49, 0x3b, 0xbe, 0x50, 0x00, 0x22, 0xbe,
  0x75, 0xbe, 0x96, 0x3f, 0x03, 0xde, 0xe2, 0xbc, 0x72, 0xc6, 0x0f, 0xbe,
  0x25, 0x29, 0x15, 0xbe, 0x03, 0xc2, 0x83, 0xbe, 0xd5, 0x6e, 0xbf, 0xbd,
  0x70, 0xaf, 0xf1, 0xbd, 0x06, 0xed, 0x90, 0xbd, 0x3d, 0xc6, 0x3e, 0xbe,
  0x99, 0xf1, 0x4f, 0xbe, 0x62, 0xff, 0x0e, 0xbf, 0x01, 0x12, 0x20, 0xbe,
  0x8c, 0x4f, 0x08, 0x3e, 0x7a, 0x99, 0x58, 0xbe, 0x77, 0x47, 0x56, 0xbd,
  0x6a, 0xda, 0x6c, 0x3e, 0x38, 0x0a, 0x42, 0x3f, 0x89, 0x92, 0xb0, 0x3d,
  0x13, 0x60, 0x45, 0xbd, 0x79, 0x8b, 0x5f, 0xbe, 0xac, 0x9e, 0x34, 0xbe,
  0xec, 0xc6, 0xd1, 0x3d, 0x46, 0x37, 0x95, 0xbd, 0x20, 0xb9, 0xc3, 0xbd,
  0x5f, 0x13, 0xfd, 0xbd, 0xd4, 0xc2, 0x9d, 0xbd, 0xf6, 0xe4, 0xd4, 0xbe,
  0xa3, 0xd7, 0x6d, 0xbd, 0x7d, 0xb2, 0x9a, 0xbc, 0x03, 0xab, 0x90, 0xbe,
  0x93, 0x39, 0xb2, 0xbd, 0xde, 0x05, 0x7a, 0xbe, 0xf6, 0xba, 0x36, 0x3f,
  0xae, 0x47, 0x73, 0x3d, 0xb8, 0xdc, 0x1f, 0xbe, 0xc0, 0x2f, 0x1d, 0xbb,
  0x5f, 0xff, 0x90, 0xbe, 0xde, 0x56, 0x0c, 0x3f, 0xc6, 0xd1, 0x46, 0x3c,
  0x61, 0x88, 0xcd, 0xbd, 0x51, 0x47, 0xb0, 0xbe, 0x26, 0xa9, 0xfd, 0xbd,
  0x42, 0xb5, 0xf1, 0xbe, 0xe6, 0x3e, 0x67, 0xbd, 0xb5, 0x88, 0x78, 0xbc,
  0x35, 0xb5, 0xdf, 0xbc, 0x32, 0x5d, 0xaf, 0xbd, 0x4f, 0xab, 0x8e, 0xbe,
  0xbb, 0x8c, 0x0d, 0xbe, 0xd6, 0xc8, 0x7c, 0xbd, 0x19, 0x46, 0x62, 0xbd,
  0x66, 0x15, 0xcc, 0xbd, 0xb7, 0xc1, 0xf5, 0xbd, 0x62, 0xdf, 0xd5, 0xbc,
  0x86, 0xeb, 0x51, 0xbd, 0xb2, 0x34, 0x17, 0xbe, 0x19, 0xc6, 0x76, 0xbe,
  0x59, 0xaf, 0x0f, 0xbe, 0xc1, 0xe3, 0x9d, 0xbd, 0x21, 0x8b, 0xbb, 0xbd,
  0x93, 0x3e, 0x80, 0xbe, 0xeb, 0x7a, 0xb8, 0xbc, 0x5c, 0x90, 0xfa, 0x3c,
  0xec, 0x45, 0x6f, 0x3d, 0xe5, 0xda, 0x58, 0x3d, 0x03, 0x7f, 0x6a, 0x3d,
  0x19, 0x57, 0x00, 0xbe, 0x57, 0x9e, 0x48, 0xbe, 0x03, 0x74, 0x5c, 0x3d,
  0x65, 0x09, 0x1b, 0xbd, 0xbc, 0xb9, 0x25, 0xbd, 0x12, 0x9c, 0x36, 0xbe,
  0x1e, 0xd2, 0x29, 0xbe, 0x35, 0x66, 0x17, 0x3e, 0x7a, 0x27, 0x1c, 0xbd,
  0xd1, 0x1f, 0xd0, 0x3d, 0xee, 0x42, 0x84, 0xbe, 0xf2, 0x5e, 0x80, 0x3d,
  0xd0, 0xbd, 0x04, 0x3e, 0xc2, 0xa7, 0x80, 0xbe, 0x61, 0x68, 0x16, 0xbe,
  0x81, 0x53, 0xfb, 0x3c, 0xcb, 0xe0, 0x12, 0x3e, 0xfa, 0xc4, 0x2c, 0xbe,
  0xeb, 0x27, 0x9e, 0xbc, 0x1a, 0xa4, 0x17, 0xbe, 0x9c, 0x48, 0x9e, 0xba,
  0x6c, 0xdd, 0x28, 0x3e, 0x42, 0x06, 0x32, 0xbe, 0x52, 0x9d, 0x8e, 0xbc,
  0xbc, 0x90, 0x13, 0xbd, 0xff, 0x8f, 0x0c, 0xbe, 0xb1, 0x92, 0x87, 0xbe,
  0xe2, 0x2f, 0x18, 0xbe, 0xba, 0xc8, 0x93, 0x3d, 0xed, 0xdd, 0x01, 0xbe,
  0x28, 0x81, 0x26, 0x3e, 0x3c, 0xf3, 0xda, 0x3d, 0x89, 0x3e, 0x53, 0xbe,
  0xe9, 0x67, 0xfa, 0xbd, 0xbb, 0x3b, 0xad, 0x3d, 0x93, 0x2e, 0x26, 0x3d,
  0xa0, 0xaf, 0x86, 0x3b, 0x5c, 0x63, 0xaf, 0x3d, 0x53, 0xa9, 0x9c, 0x3c,
  0xd2, 0x25, 0x0b, 0x3c, 0xa0, 0x3e, 0x21, 0xbe, 0xaa, 0x0a, 0xa6, 0xbd,
  0x99, 0xd9, 0x73, 0xbe, 0xe2, 0xa9, 0x8f, 0xbb, 0xc2, 0xed, 0x01, 0x3d,
  0xde, 0xc7, 0xec, 0xbd, 0x9b, 0xf8, 0x0a, 0xbe, 0xdd, 0x87, 0x22, 0xbe,
  0x43, 0xc2, 0xf1, 0xbd, 0x1b, 0x19, 0x1e, 0xbd, 0x32, 0xb3, 0x52, 0x3b,
  0x15, 0x6a, 0xa2, 0xbc, 0x5a, 0x7f, 0x6d, 0xbe, 0x57, 0xd2, 0x36, 0xbe,
  0x94, 0xcc, 0xe5, 0x3b, 0x91, 0xf4, 0x83, 0xbe, 0xa6, 0x8f, 0xa2, 0xbe,
  0x00, 0x67, 0x52, 0xbe, 0x98, 0xa1, 0xd8, 0x3d, 0x6f, 0x03, 0x44, 0xbc,
  0x95, 0xc1, 0x2d, 0xbe, 0xe6, 0xb0, 0x89, 0x3d, 0xe4, 0x70, 0x41, 0xbe,
  0x2c, 0xe5, 0x4f, 0x3e, 0x0e, 0x9d, 0x4e, 0xbe, 0x70, 0xda, 0xbd, 0xbd,
  0x6b, 0xf7, 0x91, 0xbe, 0xdc, 0x8a, 0xcf, 0x3d, 0x65, 0x72, 0xa7, 0x3d,
  0x77, 0xc9, 0x09, 0x3e, 0xf3, 0x4c, 0x49, 0xbd, 0xa0, 0x7e, 0x30, 0xbe,
  0xad, 0xbf, 0x13, 0xbe, 0xee, 0x0f, 0x21, 0x3d, 0x31, 0x89, 0x5a, 0xbd,
  0x0a, 0x04, 0x6f, 0x3d, 0x53, 0x17, 0xd2, 0xbd, 0x8b, 0xde, 0x36, 0xbe,
  0xf3, 0xda, 0x0d, 0xbe, 0x93, 0x4c, 0x03, 0xbe, 0xd4, 0x25, 0x44, 0xbe,
  0x16, 0x5e, 0x27, 0xbe, 0x02, 0x99, 0x1c, 0xbe, 0x35, 0x69, 0xc7, 0xbd,
  0xc8, 0xe5, 0x32, 0xbe, 0x27, 0x22, 0xe2, 0x3d, 0x8d, 0x96, 0x02, 0xbd,
  0x09, 0xc4, 0xac, 0xbd, 0xa0, 0xe5, 0x62, 0xbd, 0x43, 0xa5, 0xbf, 0x3d,
  0xfd, 0x97, 0x84, 0x3c, 0xfb, 0xfd, 0x2b, 0xbe, 0xdf, 0x3a, 0x83, 0xbd,
  0x08, 0xd5, 0xcf, 0xbe, 0x8f, 0x70, 0xac, 0x3e, 0xe6, 0x69, 0x36, 0x3d,
  0x93, 0xa8, 0xa8, 0xbd, 0xc4, 0xcc, 0x15, 0xbe, 0x18, 0xac, 0xa6, 0xbd,
  0xce, 0xa4, 0x0f, 0x3e, 0xea, 0xc6, 0x18, 0xbe, 0x4a, 0xc8, 0xf6, 0xbc,
  0x85, 0x5f, 0x19, 0xbe, 0x69, 0x85, 0x7e, 0xbe, 0x79, 0x9a, 0xc5, 0xbe,
  0x8d, 0xe2, 0x8a, 0x3d, 0x2c, 0xc0, 0x8b, 0xbe, 0xfe, 0x70, 0x7c, 0xbd,
  0x6c, 0x4b, 0x6c, 0xbc, 0x20, 0x7d, 0x33, 0x3d, 0xd3, 0x45, 0xdb, 0x3f,
  0x49, 0x5c, 0x3d, 0xbe, 0xf4, 0x00, 0x17, 0xbe, 0x77, 0x92, 0xeb, 0xbd,
  0xad, 0xc8, 0x9b, 0xbd, 0xe1, 0xd3, 0xa7, 0x3e, 0x84, 0x34, 0x94, 0x3d,
  0x5f, 0x10, 0x57, 0x3d, 0x1f, 0x2e, 0xac, 0xbd, 0xa3, 0x4f, 0xbf, 0xbd,
  0xa2, 0x03, 0x9a, 0xbe, 0x20, 0xd9, 0x8c, 0xbd, 0x73, 0x4a, 0xfd, 0xbb,
  0x0b, 0x0a, 0x24, 0xbe, 0x2f, 0x16, 0xa0, 0x3d, 0xfc, 0x1d, 0x79, 0xbe,
  0x5a, 0xc5, 0xd9, 0x3f, 0x43, 0xb9, 0xe0, 0xbc, 0xa4, 0xfc, 0x07, 0xbe,
  0x9e, 0x72, 0x9b, 0xbb, 0x9e, 0x84, 0x0c, 0xbb, 0x43, 0x99, 0xd1, 0x3d,
  0x7c, 0xc4, 0x1b, 0xbe, 0x3f, 0xff, 0xc7, 0xbd, 0x0d, 0xd8, 0x4c, 0x3d,
  0xbc, 0x18, 0x10, 0xbe, 0xe0, 0x64, 0xb9, 0xbe, 0xb8, 0x7e, 0x87, 0x3d,
  0x71, 0x9a, 0x58, 0xbe, 0x9e, 0xdd, 0x77, 0xbd, 0x37, 0x1d, 0x69, 0xbe,
  0x67, 0xfc, 0x84, 0xbd, 0x09, 0x17, 0x09, 0x40, 0xc4, 0x73, 0x0f, 0x3e,
  0x94, 0xdb, 0x7e, 0xbe, 0xa1, 0x57, 0x38, 0xbe, 0x73, 0x8b, 0xc8, 0xbc,
  0x3d, 0x29, 0xe3, 0x3d, 0x59, 0x44, 0xbb, 0x3d, 0x83, 0xc3, 0x10, 0x3e,
  0x2e, 0x01, 0x40, 0xbe, 0x90, 0x19, 0xed, 0xbd, 0x4f, 0x07, 0x14, 0xbf,
  0x7a, 0xfa, 0x6f, 0xbd, 0x3f, 0x37, 0x52, 0xbe, 0x42, 0xac, 0xe0, 0x3d,
  0x99, 0x95, 0x89, 0xbe, 0x1e, 0xe2, 0xc1, 0xbe, 0x97, 0x6d, 0x23, 0x3f,
  0xd5, 0x92, 0xdf, 0x3d, 0x15, 0x04, 0x96, 0xb9, 0x85, 0x76, 0xa0, 0x3c,
  0x51, 0x9f, 0x12, 0x3e, 0x04, 0x61, 0xb6, 0x3e, 0x14, 0xb3, 0x93, 0xbd,
  0x48, 0x11, 0x5f, 0xbe, 0x05, 0x7a, 0x9d, 0xbd, 0xee, 0x26, 0xb7, 0xbd,
  0xf2, 0x69, 0xcd, 0xbe, 0x9d, 0xe0, 0xa7, 0x3c, 0xbf, 0xc7, 0x26, 0xbc,
  0x92, 0xa6, 0xd4, 0xbd, 0x20, 0x9e, 0x86, 0x3d, 0xb6, 0x6c, 0x49, 0xbd,
  0xa8, 0x2d, 0x23, 0x3f, 0xfd, 0x55, 0x18, 0x3d, 0x53, 0x24, 0x09, 0xbe,
  0x02, 0xce, 0x46, 0xbe, 0x2d, 0x7f, 0x66, 0xbe, 0xca, 0x43, 0x50, 0x3e,
  0xdd, 0x9f, 0x10, 0x3d, 0x37, 0xec, 0x80, 0xbd, 0xa2, 0xb9, 0x48, 0xbe,
  0x4c, 0x76, 0x8f, 0xbd, 0xcc, 0x05, 0xf1, 0xbe, 0xf8, 0x7e, 0x64, 0xbc,
  0xab, 0x8e, 0x5c, 0xbc, 0x2e, 0x2b, 0x38, 0xbe, 0xce, 0xe7, 0x6f, 0xbe,
  0x74, 0xfb, 0x82, 0xbe, 0x8d, 0x3b, 0x0e, 0x3f, 0x00, 0x66, 0x04, 0xbe,
  0xb2, 0xca, 0x1f, 0xbe, 0xed, 0x62, 0x6e, 0xbe, 0xf1, 0x4e, 0xc4, 0xbe,
  0x38, 0xe7, 0xf9, 0x3d, 0x2f, 0x7f, 0x9d, 0xbd, 0xac, 0x72, 0x6d, 0xbe,
  0x6a, 0xd9, 0x47, 0xbe, 0xa6, 0x3b, 0x56, 0xbe, 0x24, 0x2e, 0x78, 0xbe,
  0x60, 0xc9, 0x37, 0xbe, 0x10, 0xa5, 0x03, 0xbe, 0xf7, 0x0a, 0x5f, 0xbe,
  0x52, 0x50, 0x97, 0xbd, 0x88, 0x9c, 0x08, 0xbf, 0xc9, 0xb8, 0xcc, 0xbd,
  0x85, 0xba, 0x10, 0xbe, 0x3f, 0x6b, 0x85, 0xbd, 0xbf, 0xe9, 0x36, 0xbe,
  0xa4, 0xe1, 0x80, 0x3b, 0x97, 0xa7, 0x62, 0x3d, 0xa4, 0x8d, 0x26, 0xbe,
  0x4f, 0x23, 0x5f, 0xbe, 0x89, 0x32, 0x55, 0xbe, 0x33, 0xca, 0x95, 0x3d,
  0x19, 0x15, 0x21, 0xbd, 0x7b, 0x12, 0x1b, 0x3e, 0x25, 0xf4, 0x81, 0x3d,
  0xc4, 0xbd, 0x32, 0x3d, 0xdc, 0x5f, 0x33, 0xbd, 0x6b, 0xe4, 0x04, 0xbf,
  0xf8, 0xee, 0x25, 0xbe, 0x9c, 0x4d, 0x98, 0xbc, 0xdf, 0xe2, 0x01, 0x3e,
  0x63, 0x53, 0x38, 0xb8, 0x9c, 0xeb, 0x51, 0xbe, 0xa4, 0xc5, 0xbb, 0xbd,
  0x57, 0x5a, 0x89, 0x3c, 0xdb, 0xd7, 0x39, 0xbe, 0x39, 0x94, 0x1d, 0xbe,
  0x88, 0x63, 0x11, 0x3d, 0x8d, 0x00, 0x80, 0xbd, 0x7d, 0x56, 0x02, 0x3d,
  0xfc, 0x15, 0xac, 0xbd, 0x58, 0xcd, 0xa1, 0xbc, 0x0f, 0x40, 0xa8, 0xbe,
  0x96, 0xd4, 0x99, 0xbe, 0xfc, 0xf4, 0x60, 0xbe, 0x61, 0x5f, 0xb6, 0x3d,
  0x24, 0x6b, 0xaf, 0x3d, 0xf4, 0x94, 0xc4, 0xbe, 0x5e, 0x41, 0x86, 0xbe,
  0xaa, 0x60, 0x45, 0xbd, 0x4e, 0x9e, 0x08, 0xbe, 0x46, 0xa9, 0x9c, 0xbe,
  0x21, 0xeb, 0x25, 0x3c, 0x9d, 0xee, 0xec, 0xbd, 0xb5, 0xc8, 0xfd, 0xbd,
  0x35, 0x32, 0x51, 0x3d, 0xc0, 0x7c, 0x14, 0xbd, 0xbd, 0x23, 0x87, 0xbe,
  0xca, 0x9c, 0xc8, 0xbe, 0xc7, 0x08, 0xed, 0xbe, 0xac, 0x28, 0x01, 0xbe,
  0x42, 0x0e, 0xed, 0xbd, 0xcf, 0x48, 0x1a, 0xbe, 0x53, 0xe2, 0x92, 0xbe,
  0xfb, 0x99, 0xf1, 0xbc, 0xe8, 0x2d, 0x93, 0xbd, 0x68, 0x55, 0x86, 0x3d,
  0x59, 0xbe, 0x81, 0xbe, 0x8e, 0x42, 0xa3, 0xbd, 0x75, 0xdc, 0x90, 0xbe,
  0x42, 0xa3, 0x1b, 0xbe, 0xe8, 0x07, 0x83, 0x3e, 0x6e, 0xfc, 0x82, 0xbd,
  0x81, 0xcc, 0x9e, 0xbe, 0x42, 0x8e, 0x03, 0xbe, 0x55, 0x50, 0x63, 0xbe,
  0xb8, 0xc4, 0xa2, 0x3e, 0x85, 0x6e, 0x80, 0xbe, 0x68, 0x0d, 0xf5, 0x3d,
  0xe1, 0x51, 0x5e, 0x3d, 0x17, 0x3f, 0x1c, 0xbd, 0xea, 0x43, 0xad, 0xbe,
  0x1f, 0xe8, 0xf4, 0x3e, 0x31, 0x51, 0xf7, 0xbc, 0xa6, 0xd9, 0x95, 0xbb,
  0x2f, 0xbd, 0x39, 0x3e, 0xe2, 0xb3, 0xc5, 0xbd, 0xd0, 0x91, 0xc5, 0x3e,
  0x46, 0x8c, 0x4b, 0xbe, 0xc8, 0x91, 0xe6, 0x3d, 0x8d, 0x85, 0x85, 0xbe,
  0x09, 0x91, 0x92, 0xbd, 0xc1, 0xea, 0x43, 0x3e, 0x4c, 0xd9, 0x68, 0xbd,
  0x24, 0xcc, 0x6a, 0x3e, 0x5d, 0x63, 0x19, 0x3d, 0x7a, 0xec, 0xe1, 0xbc,
  0x0b, 0x37, 0x21, 0x3e, 0xf2, 0xe4, 0xc3, 0x3e, 0x3d, 0x25, 0xaa, 0x3d,
  0x97, 0x17, 0xf9, 0x3d, 0xcc, 0xca, 0xa6, 0x3d, 0x5c, 0xb7, 0x35, 0xbd,
  0x83, 0xb1, 0x50, 0xbe, 0x0d, 0xc4, 0x08, 0xbe, 0x4c, 0x83, 0x36, 0xbe,
  0x0b, 0xbe, 0x45, 0x3d, 0x31, 0xaa, 0x0d, 0x3c, 0xe0, 0x3f, 0x88, 0x3e,
  0x1c, 0x1a, 0xfb, 0x3d, 0xd2, 0x76, 0xbe, 0xbe, 0xca, 0xa5, 0x21, 0xbe,
  0x7b, 0xf8, 0x37, 0x3e, 0x51, 0x40, 0xc7, 0x3d, 0x6a, 0x88, 0xa0, 0xbe,
  0xed, 0x7a, 0x49, 0x3d, 0x2e, 0xdb, 0xfa, 0x3d, 0xaf, 0xda, 0x97, 0xbe,
  0x4f, 0xf3, 0xab, 0xbd, 0xeb, 0x46, 0x81, 0xbc, 0xc0, 0x78, 0xd2, 0x3d,
  0xab, 0x6b, 0x17, 0xbe, 0x36, 0x8a, 0x15, 0x3e, 0x71, 0xdf, 0xb0, 0x3d,
  0xac, 0x43, 0xc1, 0x3c, 0x6d, 0x28, 0xe9, 0x3d, 0x67, 0x59, 0x5c, 0xbe,
  0x1c, 0xc6, 0x03, 0x3d, 0x6d, 0x51, 0xea, 0x3e, 0xc0, 0xae, 0xcb, 0xbd,
  0x3c, 0x9f, 0x92, 0xbe, 0x34, 0x0c, 0xad, 0xbe, 0x39, 0x95, 0x59, 0xbd,
  0xc4, 0xc4, 0x64, 0xbe, 0x43, 0xa9, 0xcc, 0xbd, 0x17, 0xeb, 0x17, 0xbe,
  0xa8, 0x5e, 0x76, 0x3d, 0x8d, 0xfd, 0xe5, 0xbd, 0x7c, 0x91, 0x51, 0xbe,
  0x8e, 0xc4, 0x98, 0xbd, 0x4e, 0x86, 0xb2, 0x3d, 0x7f, 0xb4, 0xe8, 0xbd,
  0xad, 0x80, 0x63, 0xbe, 0x27, 0x1b, 0x84, 0x3e, 0xbe, 0xb3, 0x08, 0x3e,
  0x77, 0xd1, 0xa8, 0xbd, 0xb4, 0xf8, 0x7e, 0x3e, 0x08, 0xca, 0x20, 0xbe,
  0x56, 0xc5, 0x23, 0xbd, 0x43, 0x21, 0xa8, 0xbe, 0x9d, 0x36, 0x3b, 0xbd,
  0x8f, 0x2a, 0xe6, 0xbd, 0xa9, 0x0a, 0x4e, 0xbd, 0x63, 0x87, 0x25, 0x3d,
  0x1d, 0xd0, 0x30, 0xbe, 0xac, 0x52, 0xd8, 0xbd, 0xc5, 0xd0, 0x7a, 0x3d,
  0x88, 0xec, 0xc7, 0x3d, 0x42, 0x7f, 0xe4, 0xbe, 0x7d, 0x2f, 0xa1, 0x3e,
  0x47, 0xe5, 0x81, 0x3e, 0x65, 0xd5, 0x6c, 0x3d, 0x29, 0x93, 0x7c, 0x3c,
  0xca, 0x9d, 0x44, 0xbd, 0xca, 0x6f, 0x99, 0x3e, 0x25, 0x35, 0x6f, 0xbe,
  0x84, 0xa3, 0x49, 0x3c, 0x9b, 0xcd, 0xb3, 0x3d, 0x61, 0x5b, 0xde, 0x3c,
  0x40, 0xe4, 0x09, 0xbe, 0xbf, 0xe9, 0x11, 0x3e, 0xc0, 0x43, 0xbc, 0xbd,
  0x20, 0x0f, 0x8a, 0xbd, 0x46, 0xc2, 0x90, 0x3e, 0xbe, 0xef, 0x17, 0xbe,
  0x06, 0xd5, 0xb6, 0x3e, 0xcc, 0x84, 0x2d, 0x3e, 0xe5, 0x81, 0x4c, 0x3c,
  0x7e, 0x0c, 0x92, 0x3b, 0xb8, 0xfe, 0x45, 0xbe, 0xfb, 0x7d, 0x8a, 0x3e,
  0x17, 0x30, 0x3e, 0x3d, 0xef, 0x86, 0x95, 0xbc, 0x3f, 0x7f, 0xa3, 0xbe,
  0xa0, 0x35, 0x8c, 0x3b, 0x84, 0xad, 0xe3, 0xbd, 0x07, 0x81, 0x01, 0x3e,
  0xd6, 0x5f, 0x29, 0xbd, 0xdb, 0xa8, 0x7b, 0xbe, 0xea, 0xb2, 0xb4, 0x3e,
  0x31, 0x51, 0x44, 0xbe, 0x9b, 0xb6, 0x47, 0x3e, 0x09, 0xf2, 0xe7, 0x3e,
  0x2b, 0xae, 0x93, 0xbe, 0xa0, 0xc2, 0xdc, 0xbd, 0x2c, 0xf8, 0x0b, 0xbe,
  0x49, 0x93, 0xf1, 0x3c, 0xc1, 0x75, 0x3a, 0xbe, 0x54, 0x44, 0xe0, 0xbc,
  0xb4, 0x38, 0x24, 0xbe, 0x8f, 0xb0, 0x91, 0x3c, 0xb7, 0xbd, 0x4f, 0xbe,
  0x18, 0x37, 0xd8, 0x3e, 0xab, 0x84, 0x84, 0x3c, 0x85, 0xd7, 0x38, 0xbe,
  0xa9, 0x38, 0xa2, 0x3e, 0xc7, 0x4a, 0xc6, 0xbe, 0xa6, 0xe9, 0x1f, 0x3e,
  0xd9, 0xef, 0xd0, 0x3e, 0x8b, 0xfd, 0x49, 0xbd, 0xaf, 0xa1, 0xd8, 0xbe,
  0x9b, 0x6c, 0xef, 0xbe, 0xe7, 0xe1, 0x81, 0xbd, 0x8b, 0x13, 0x5a, 0xbe,
  0x85, 0x7b, 0xb8, 0x3c, 0x08, 0x84, 0xfa, 0xbd, 0xed, 0x0c, 0x95, 0x3d,
  0xdd, 0x30, 0x22, 0xbe, 0xe7, 0xb8, 0x05, 0x3d, 0x79, 0xca, 0xc2, 0xbc,
  0xa6, 0xb1, 0xbc, 0xbd, 0x03, 0xc5, 0xd6, 0x3d, 0x4f, 0x17, 0x59, 0xbd,
  0x66, 0x25, 0x95, 0x3d, 0x39, 0x16, 0xa2, 0xbd, 0xdd, 0xcb, 0xe6, 0x39,
  0xb6, 0x02, 0xb9, 0xbe, 0xb9, 0x87, 0xb4, 0xbe, 0xad, 0x41, 0xa5, 0xbc,
  0x99, 0x8e, 0x8c, 0xbe, 0xde, 0x2d, 0xf3, 0xbc, 0x85, 0x51, 0x2f, 0x3e,
  0x1f, 0xf4, 0x4b, 0x3d, 0x6e, 0xc8, 0x1e, 0xba, 0x76, 0x43, 0xeb, 0x3c,
  0xc2, 0x2e, 0xcf, 0xbd, 0xdd, 0xe7, 0xef, 0xbd, 0x53, 0x6a, 0x2f, 0xbd,
  0x47, 0x34, 0xa0, 0xbe, 0x08, 0x68, 0xa8, 0xbe, 0x9f, 0xdc, 0x56, 0xbe,
  0x0e, 0xe0, 0x62, 0xbe, 0xb6, 0x83, 0xb6, 0xbd, 0xae, 0x4e, 0xf1, 0xbd,
  0x35, 0x4d, 0x81, 0xbe, 0x1e, 0x4d, 0xbe, 0xbd, 0x7d, 0x0b, 0x88, 0xbe,
  0x48, 0x6f, 0x12, 0x3d, 0xd2, 0x6a, 0xfb, 0xbc, 0xf8, 0x9d, 0x3a, 0x3d,
  0xf0, 0x53, 0x8e, 0x3d, 0xbd, 0x91, 0x8d, 0xbe, 0x4a, 0xc8, 0x07, 0x3d,
  0x84, 0xd1, 0xeb, 0xbd, 0xc6, 0xf7, 0x98, 0xbd, 0x47, 0x27, 0x2a, 0x3e,
  0xc9, 0x77, 0x7b, 0xbe, 0x45, 0xd5, 0xb0, 0x3a, 0x98, 0x5b, 0x1f, 0x3d,
  0xf3, 0xed, 0x67, 0xbe, 0xd8, 0x65, 0x5e, 0xbe, 0xc5, 0x35, 0x4d, 0x3d,
  0x4d, 0xb8, 0xa6, 0xbe, 0x0a, 0xf7, 0x31, 0x3e, 0xa9, 0x76, 0x83, 0x3d,
  0x1a, 0x3e, 0x14, 0x3e, 0xd1, 0xeb, 0x9f, 0xbd, 0x38, 0xf5, 0x5c, 0xbe,
  0x68, 0xed, 0x0e, 0xbd, 0xda, 0x48, 0xc2, 0x3d, 0x2f, 0x5c, 0x56, 0xbe,
  0xc7, 0x6e, 0x5e, 0xbe, 0xe9, 0xf4, 0x62, 0xbe, 0x62, 0xd2, 0x1b, 0x3e,
  0x9c, 0xbd, 0x47, 0x3c, 0x92, 0xd5, 0x1b, 0xbe, 0x77, 0x88, 0xe2, 0xbd,
  0x4e, 0xae, 0x28, 0xbe, 0xf8, 0xe1, 0x32, 0xbe, 0x1a, 0x06, 0x32, 0xbe,
  0x4b, 0xe6, 0x78, 0xbe, 0xd3, 0xce, 0x1c, 0x3d, 0xcf, 0x32, 0x53, 0xbc,
  0xfc, 0x25, 0x2c, 0xbe, 0x52, 0x3d, 0x59, 0xbe, 0x28, 0x58, 0xbe, 0x3d,
  0x0b, 0xb5, 0x71, 0xbe, 0xf6, 0x69, 0x81, 0x3d, 0x24, 0xc8, 0xff, 0x3d,
  0x0c, 0xd8, 0x33, 0xbe, 0xfe, 0xd6, 0x26, 0xbd, 0xa2, 0x0f, 0x59, 0xbd,
  0x7d, 0x49, 0x4e, 0xbd, 0x9d, 0x41, 0xe4, 0x3d, 0x41, 0x83, 0x76, 0xb9,
  0x84, 0x8b, 0xa0, 0x3d, 0x79, 0x25, 0x87, 0xbd, 0x7b, 0x2e, 0x9b, 0x3d,
  0xc5, 0x30, 0x65, 0xbe, 0x9d, 0x98, 0x3c, 0xbe, 0xf3, 0xbd, 0xfc, 0xbd,
  0x23, 0x07, 0x1b, 0xbe, 0xc6, 0x19, 0xb3, 0x3d, 0xe3, 0x7a, 0x83, 0x3c,
  0x14, 0x54, 0x64, 0xbb, 0xed, 0x0a, 0x45, 0x3e, 0xb2, 0xa1, 0xb3, 0xbc,
  0x6c, 0x15, 0x8a, 0xbe, 0xa5, 0x3c, 0x58, 0xbe, 0x48, 0x5c, 0x58, 0x3e,
  0xf1, 0x5c, 0x59, 0xbe, 0x95, 0x83, 0xf9, 0xbd, 0xfe, 0x5b, 0xdd, 0xbd,
  0x2a, 0x69, 0x63, 0x3e, 0x97, 0x8d, 0x40, 0xbe, 0x04, 0xba, 0x36, 0xbe,
  0xc6, 0xde, 0x89, 0x3d, 0x22, 0x3f, 0x47, 0xbe, 0x50, 0x2a, 0x70, 0xbe,
  0x8e, 0x85, 0xe9, 0xbd, 0x8c, 0xc9, 0xa2, 0x3d, 0xd7, 0xe2, 0xc1, 0x3d,
  0x58, 0x3e, 0x10, 0xbe, 0x3d, 0x88, 0x8e, 0xbe, 0x69, 0xcd, 0x70, 0xbe,
  0x56, 0x89, 0x8a, 0x3d, 0x30, 0x69, 0xc4, 0xbd, 0x43, 0x65, 0x61, 0x3e,
  0x99, 0x7f, 0xcf, 0x39, 0x3b, 0x6a, 0x6e, 0xbe, 0xd1, 0x45, 0x5f, 0xbe,
  0xfd, 0xec, 0x11, 0xbe, 0xa3, 0xdb, 0x12, 0xbd, 0x53, 0xc3, 0x3e, 0xbe,
  0xc2, 0xa7, 0xa1, 0xbe, 0xc6, 0x52, 0x33, 0xbe, 0x59, 0x74, 0x11, 0x3d,
  0xf1, 0x4c, 0x54, 0xbe, 0x31, 0x72, 0x81, 0xbe, 0xb6, 0x2e, 0x42, 0xbe,
  0x00, 0x35, 0x36, 0xbe, 0x5c, 0xcc, 0x42, 0x3e, 0x88, 0xcd, 0x83, 0xbe,
  0x2d, 0x77, 0xb0, 0xbe, 0x4b, 0x49, 0xa8, 0xbe, 0xde, 0x76, 0x87, 0xbe,
  0x16, 0x58, 0x2a, 0xbe, 0x04, 0xbd, 0x8b, 0x3a, 0xdf, 0x75, 0x98, 0xbe,
  0xff, 0x73, 0xd4, 0xbe, 0xe4, 0xbb, 0xe5, 0xbd, 0x46, 0x55, 0xe8, 0xbd,
  0x9a, 0x41, 0x46, 0xbf, 0xca, 0x16, 0xb4, 0x3e, 0x93, 0xbe, 0xab, 0xbe,
  0x37, 0x97, 0xd7, 0x3c, 0x92, 0xa2, 0xde, 0x3d, 0xd8, 0x9e, 0xdf, 0xbe,
  0x26, 0x64, 0xc0, 0x3c, 0x58, 0xfd, 0x92, 0x3e, 0x0e, 0x50, 0xce, 0xbe,
  0x63, 0x89, 0x8b, 0xbd, 0xa9, 0x90, 0x64, 0x3e, 0xc5, 0x80, 0xc2, 0x3c,
  0x81, 0xfd, 0xbe, 0xbc, 0xb4, 0x35, 0xb8, 0xbd, 0x49, 0x95, 0x0a, 0x3e,
  0xf8, 0xcb, 0x18, 0xbe, 0xff, 0x49, 0x40, 0xbf, 0x30, 0x5e, 0xe3, 0x3e,
  0xe7, 0xb4, 0x1b, 0x3d, 0xb6, 0xc1, 0xc4, 0x3e, 0x15, 0x6c, 0x66, 0x3d,
  0x88, 0x36, 0xad, 0xbe, 0xac, 0x3c, 0x85, 0x3d, 0x40, 0x97, 0x1f, 0x3e,
  0xe5, 0x72, 0x53, 0x3e, 0xf7, 0xda, 0x03, 0x3e, 0xfd, 0x17, 0x0a, 0x3e,
  0x12, 0x46, 0xc5, 0x3c, 0x80, 0x37, 0x77, 0x3e, 0x09, 0x6e, 0x69, 0xbe,
  0x96, 0xeb, 0x6b, 0x3e, 0x76, 0xbe, 0xed, 0xbd, 0xdb, 0x1f, 0xf0, 0xbd,
  0xba, 0x94, 0xe1, 0x3e, 0xe7, 0xa2, 0x17, 0x3d, 0xba, 0x3f, 0xb0, 0x3e,
  0x8d, 0x1c, 0xdc, 0x3d, 0xc8, 0xc6, 0xa0, 0x3d, 0x64, 0x3c, 0xc7, 0x3b,
  0x9c, 0x60, 0xc1, 0x3e, 0x13, 0xfe, 0xa9, 0x3c, 0x75, 0x82, 0x52, 0x3e,
  0x6c, 0xa9, 0xfb, 0x3d, 0x17, 0x8a, 0xb2, 0x3c, 0x4f, 0x63, 0xb1, 0x3e,
  0x8e, 0x79, 0xc0, 0xbe, 0xe9, 0x83, 0xca, 0x3d, 0xa5, 0x40, 0x00, 0xbe,
  0xc5, 0xa8, 0xd5, 0xbd, 0x45, 0xdb, 0xf2, 0x3d, 0xbe, 0x14, 0x52, 0x3d,
  0xa9, 0x75, 0xbe, 0x3e, 0x27, 0xde, 0x77, 0x3d, 0x4a, 0xde, 0x8e, 0x3e,
  0x95, 0xcf, 0x4b, 0x3d, 0xbd, 0xa4, 0xef, 0xbd, 0x2a, 0x5e, 0xec, 0xbd,
  0x3e, 0x57, 0x8f, 0xbc, 0x2a, 0x2f, 0xf4, 0xbd, 0x7e, 0x48, 0x97, 0x3b,
  0xd4, 0x8d, 0x10, 0xbf, 0xdc, 0x22, 0xa1, 0xbe, 0x9b, 0x6f, 0xb3, 0x3d,
  0x25, 0x4c, 0x36, 0xbe, 0x66, 0xc9, 0x89, 0xbe, 0x39, 0xb6, 0x1f, 0x3e,
  0xf3, 0x72, 0x2a, 0x3c, 0xbd, 0x74, 0x39, 0x3e, 0x08, 0xaf, 0xed, 0x3d,
  0xe6, 0x2f, 0xf1, 0xbd, 0xd4, 0xdd, 0x9b, 0x3c, 0xd8, 0x0c, 0xf2, 0xbd,
  0xa2, 0x7c, 0x29, 0xbe, 0xf3, 0x7f, 0x40, 0xbe, 0x9b, 0xc5, 0x8c, 0xbe,
  0x41, 0xfc, 0x39, 0x3d, 0x4c, 0x46, 0xbc, 0xbe, 0x54, 0xbf, 0x0a, 0xbf,
  0xbf, 0xec, 0xe1, 0x3d, 0x47, 0x5f, 0xe2, 0xbe, 0x69, 0xd0, 0xc2, 0xbe,
  0x9d, 0x81, 0xd9, 0x3e, 0x53, 0xbf, 0x67, 0x3d, 0x26, 0x3e, 0x84, 0x3e,
  0xa1, 0x86, 0xd2, 0xbd, 0xef, 0x79, 0x0d, 0xbe, 0x18, 0xd3, 0xf7, 0x3b,
  0xba, 0x35, 0xa9, 0x3c, 0xc3, 0xa6, 0xfa, 0xbd, 0x4a, 0x4c, 0xa0, 0xbd,
  0xaa, 0xc5, 0x4c, 0x3d, 0xee, 0x21, 0x93, 0xbd, 0x2b, 0xfd, 0xef, 0xbe,
  0x71, 0x16, 0x15, 0xbe, 0x51, 0xce, 0x15, 0xbe, 0xf9, 0xbb, 0x97, 0xbe,
  0xd8, 0xf0, 0x8a, 0xbd, 0xcf, 0xd0, 0x99, 0x3e, 0xcb, 0x62, 0x47, 0xbd,
  0x7a, 0xc4, 0x53, 0x3e, 0xb3, 0x86, 0xa4, 0xbd, 0x0a, 0x1b, 0x55, 0xbe,
  0xcc, 0xb4, 0x48, 0xbd, 0x28, 0x6d, 0x06, 0x3d, 0x3e, 0x1a, 0x3d, 0xbe,
  0xfc, 0x22, 0xb9, 0x3c, 0x75, 0xbc, 0xbc, 0xbe, 0x83, 0x9e, 0x02, 0xbf,
  0xc5, 0x83, 0x2b, 0xbe, 0x70, 0xcd, 0xac, 0x3d, 0x44, 0xc0, 0x42, 0x3d,
  0xfd, 0x11, 0x5d, 0xbe, 0xe7, 0x3d, 0x6b, 0xbe, 0x76, 0xd4, 0x89, 0xbd,
  0xd2, 0xb7, 0xa1, 0xbe, 0x88, 0x37, 0x0d, 0xbe, 0x32, 0x96, 0x01, 0xbe,
  0x9b, 0xdb, 0x08, 0xbe, 0xee, 0x88, 0x12, 0xbe, 0xa3, 0x92, 0x61, 0xbd,
  0x32, 0xff, 0x3c, 0xbe, 0xa0, 0x19, 0x55, 0xbe, 0xd5, 0xb6, 0x3e, 0xbe,
  0x56, 0xb1, 0xb7, 0xbe, 0x7b, 0x88, 0x57, 0xbe, 0x9f, 0x55, 0xf4, 0xbd,
  0x31, 0xf3, 0xcd, 0xbd, 0x90, 0xb2, 0x88, 0xbb, 0x63, 0x24, 0x83, 0xbe,
  0xe8, 0xd7, 0xaa, 0xbd, 0xaa, 0xb0, 0x41, 0xbe, 0xe6, 0x02, 0x92, 0xbe,
  0x2a, 0xb6, 0xdc, 0x3c, 0x30, 0xde, 0xfb, 0xbc, 0x62, 0xed, 0x04, 0xbe,
  0xf1, 0x08, 0x55, 0xbe, 0x29, 0xbe, 0x88, 0xbe, 0x57, 0x2e, 0x34, 0xbe,
  0x72, 0xf8, 0xa0, 0xbe, 0x5f, 0xae, 0x87, 0xbe, 0x78, 0x70, 0x3a, 0xbe,
  0xf0, 0xd5, 0x2e, 0x3d, 0x6c, 0xa0, 0xb3, 0x3d, 0xbf, 0x9f, 0x52, 0xbe,
  0x24, 0xbd, 0xed, 0x3c, 0xda, 0xb0, 0xe4, 0x3d, 0xfe, 0x72, 0x32, 0xbe,
  0x2d, 0xcc, 0x31, 0xbe, 0x23, 0x5e, 0xe4, 0x3d, 0xa9, 0x58, 0x9d, 0x3d,
  0xd7, 0x59, 0x46, 0xbd, 0xbf, 0x9d, 0x4b, 0xbd, 0xd9, 0xd4, 0x8c, 0xbe,
  0xf1, 0x5c, 0x16, 0xbd, 0x27, 0x13, 0x0c, 0xbe, 0x11, 0x29, 0x26, 0xbf,
  0x35, 0x01, 0x12, 0xbd, 0x7e, 0x93, 0x98, 0xbc, 0x29, 0x5a, 0x9a, 0x3c,
  0xfe, 0x48, 0xd2, 0xbe, 0x85, 0x50, 0x53, 0xbd, 0xb8, 0xb2, 0x03, 0x3e,
  0x28, 0xda, 0xe3, 0x3b, 0xc1, 0x24, 0xda, 0xbe, 0x60, 0x07, 0x0a, 0xbe,
  0x8d, 0x65, 0x9d, 0xbd, 0xfb, 0xfd, 0x44, 0xbd, 0xa1, 0xd8, 0x5e, 0x3e,
  0x87, 0x4d, 0xaa, 0xbe, 0x5a, 0x1d, 0x18, 0xbe, 0x21, 0x25, 0xc3, 0xbd,
  0xac, 0x15, 0xdc, 0xbe, 0x91, 0x34, 0x4e, 0x3e, 0x24, 0xb4, 0x16, 0x3b,
  0x9e, 0x8f, 0x21, 0xbd, 0x13, 0x96, 0x8e, 0x3d, 0x75, 0xa9, 0x38, 0x3d,
  0x03, 0xbf, 0x9c, 0xbd, 0x10, 0xe8, 0x78, 0x3e, 0x07, 0x88, 0xea, 0xbd,
  0x4c, 0x9c, 0x05, 0x3e, 0xe8, 0x02, 0x83, 0x3d, 0x5b, 0xc4, 0x99, 0xbd,
  0xb9, 0x1b, 0xdc, 0x3e, 0x28, 0x72, 0xa5, 0xbe, 0x76, 0x19, 0xf1, 0x3d,
  0xc0, 0xdf, 0x7f, 0xbe, 0x19, 0x16, 0x43, 0xbe, 0xae, 0x38, 0x12, 0x3e,
  0x9c, 0x93, 0xbf, 0xbc, 0x18, 0xc0, 0xfa, 0x3d, 0x12, 0x3f, 0x0f, 0xbc,
  0x94, 0xb0, 0x16, 0x3c, 0x2b, 0x09, 0x45, 0xbe, 0xcb, 0x2f, 0x81, 0x3e,
  0xfa, 0x8d, 0x28, 0x3e, 0x34, 0xb5, 0x45, 0x3d, 0xb6, 0xe1, 0x1a, 0x3e,
  0xaf, 0x02, 0x23, 0x3e, 0x68, 0xad, 0xd2, 0xbd, 0xad, 0xcf, 0x28, 0xbe,
  0x23, 0xbb, 0xd4, 0xbd, 0x39, 0xcc, 0x0a, 0x3e, 0x63, 0x77, 0x3e, 0x3e,
  0xb1, 0xef, 0x87, 0xbd, 0x51, 0x37, 0x0b, 0x3c, 0x80, 0xaa, 0xe2, 0xbd,
  0x85, 0xf6, 0x36, 0xbd, 0x53, 0x83, 0xf5, 0x3d, 0x5a, 0x91, 0xa6, 0x3d,
  0x14, 0x3e, 0x30, 0xbe, 0xc2, 0x96, 0xa9, 0xbd, 0xc3, 0x92, 0x71, 0x3e,
  0xf6, 0x76, 0xfb, 0xba, 0x54, 0xa3, 0x9f, 0xbd, 0xe7, 0x54, 0xac, 0x3e,
  0x00, 0x1b, 0xa3, 0xbe, 0xfb, 0x08, 0xcd, 0x3d, 0xde, 0x3a, 0x75, 0xbe,
  0x41, 0x02, 0x35, 0xbe, 0xd2, 0xe8, 0x8e, 0x3e, 0x8c, 0x65, 0xbf, 0xbc,
  0x29, 0xac, 0xa6, 0x3e, 0x4d, 0xf2, 0xc8, 0x3d, 0xcf, 0x04, 0x1c, 0x3d,
  0xb5, 0xc5, 0x7f, 0xbe, 0x5b, 0xd8, 0x9a, 0x3e, 0x94, 0x6d, 0x9f, 0x3d,
  0xfd, 0xba, 0x15, 0x3d, 0x9a, 0x19, 0xd3, 0x3d, 0xa2, 0x50, 0x2a, 0x3e,
  0xa6, 0x55, 0x58, 0xbc, 0xf1, 0x0f, 0x34, 0xbe, 0x88, 0x72, 0xa2, 0xbb,
  0x15, 0x67, 0xd0, 0x3d, 0xfb, 0x07, 0x54, 0xbd, 0x20, 0x1c, 0x00, 0x3f,
  0x2e, 0xe3, 0x13, 0xbe, 0xf2, 0xd6, 0x05, 0xbe, 0xbb, 0xec, 0xbf, 0xbe,
  0xfc, 0xc7, 0x74, 0x3e, 0x7f, 0x9a, 0x2c, 0xbe, 0x4e, 0x67, 0x43, 0xbd,
  0x2e, 0xbb, 0x5a, 0xbe, 0xe0, 0xbb, 0xc4, 0x36, 0xbf, 0xf3, 0xf8, 0xbd,
  0x81, 0x60, 0x30, 0xbd, 0xb4, 0xba, 0xf3, 0xbb, 0x14, 0x4e, 0x49, 0xbc,
  0x6a, 0x80, 0x41, 0xbe, 0xbf, 0xd9, 0xdc, 0x3c, 0xa1, 0x8c, 0x83, 0x3d,
  0x74, 0x0e, 0x4f, 0x3f, 0x7f, 0x45, 0x1f, 0xbd, 0x09, 0xd4, 0x73, 0xbd,
  0x88, 0x26, 0x08, 0xbf, 0xcf, 0xec, 0x0a, 0xbd, 0x64, 0x90, 0x36, 0xbe,
  0x78, 0xc7, 0x43, 0xbe, 0x4e, 0x37, 0x0d, 0xbf, 0x73, 0xd4, 0x22, 0xbf,
  0xfd, 0xb5, 0x22, 0xbd, 0xa1, 0x67, 0xbb, 0xbd, 0x2e, 0x97, 0x77, 0xbe,
  0xf4, 0x0e, 0x87, 0xbd, 0x97, 0x68, 0xb4, 0xbe, 0xad, 0x06, 0x14, 0xbd,
  0xcc, 0xe0, 0xd5, 0x3d, 0xbc, 0x5d, 0x34, 0x3f, 0xe9, 0xeb, 0xc5, 0xbe,
  0x1b, 0x37, 0xff, 0xbd, 0x7a, 0xd0, 0x01, 0xbf, 0x62, 0x5a, 0x06, 0xbf,
  0xe1, 0x09, 0xae, 0xbe, 0x51, 0x44, 0xa3, 0xbe, 0xbf, 0x1b, 0xf1, 0xbe,
  0x67, 0x5b, 0x22, 0xbf, 0x5f, 0x9d, 0x77, 0xbc, 0x9c, 0xe6, 0x89, 0xbd,
  0xca, 0x11, 0x70, 0xbd, 0x2a, 0xdd, 0x53, 0xbe, 0x17, 0x4c, 0xe6, 0xbd,
  0x99, 0xf5, 0xe7, 0xbc, 0x1c, 0xe7, 0xd5, 0x3b, 0x0b, 0x01, 0x2a, 0x3f,
  0x50, 0xb7, 0xe4, 0xbd, 0x4c, 0x3b, 0xbc, 0xbc, 0x80, 0x57, 0x99, 0xbe,
  0xd0, 0x35, 0xdc, 0xbd, 0x9b, 0xff, 0x98, 0xbe, 0x65, 0x58, 0x6a, 0xbd,
  0x64, 0x35, 0xa7, 0xbe, 0xf3, 0x54, 0x84, 0xbe, 0x6e, 0xcc, 0xb5, 0x3c,
  0x31, 0xf6, 0xa1, 0xbd, 0x6c, 0x60, 0xec, 0x3e, 0x11, 0x74, 0x48, 0xbe,
  0xac, 0x2b, 0x5f, 0x3d, 0x6c, 0x76, 0xff, 0x3b, 0x26, 0x9d, 0xfc, 0xbc,
  0x1b, 0xda, 0x5f, 0x3f, 0x12, 0xe2, 0xa3, 0xbd, 0xa1, 0xbd, 0x00, 0xbe,
  0x17, 0x76, 0x4b, 0x3e, 0x0e, 0xd3, 0x3e, 0xbe, 0x3c, 0x45, 0x0f, 0xbe,
  0x58, 0xca, 0xbd, 0xbc, 0x9f, 0x81, 0xc3, 0xbc, 0x80, 0x0d, 0x26, 0xbc,
  0x6a, 0x57, 0xfa, 0xbd, 0xd0, 0x4c, 0xf4, 0xbc, 0xd9, 0x77, 0x51, 0xbe,
  0xa3, 0xe0, 0xad, 0xbd, 0xb6, 0x3b, 0x8d, 0x3b, 0xab, 0xde, 0xd4, 0x3d,
  0xf7, 0xca, 0x5d, 0xbc, 0xbe, 0xcb, 0x09, 0x3d, 0xb4, 0xe0, 0xc4, 0xbc,
  0x39, 0xc1, 0xcd, 0xbd, 0x8d, 0xbd, 0x53, 0x3d, 0xdc, 0x35, 0x10, 0x3d,
  0x59, 0x9c, 0xd8, 0xbd, 0xf6, 0x2c, 0x43, 0x3d, 0xbd, 0x26, 0xcb, 0x3d,
  0xe3, 0x51, 0x04, 0x3e, 0xd3, 0x23, 0x99, 0xbc, 0x32, 0xa9, 0xd2, 0xbd,
  0x46, 0xfe, 0xff, 0xff, 0x10, 0x00, 0x00, 0x00, 0x05, 0x00, 0x00, 0x00,
  0x14, 0x00, 0x00, 0x00, 0x2c, 0x00, 0x00, 0x00, 0x02, 0x00, 0x00, 0x00,
  0x10, 0x00, 0x00, 0x00, 0x70, 0x00, 0x00, 0x00, 0x17, 0x00, 0x00, 0x00,
  0x73, 0x65, 0x71, 0x75, 0x65, 0x6e, 0x74, 0x69, 0x61, 0x6c, 0x2f, 0x64,
  0x65, 0x6e, 0x73, 0x65, 0x2f, 0x4d, 0x61, 0x74, 0x4d, 0x75, 0x6c, 0x00,
  0x34, 0xfe, 0xff, 0xff, 0x2a, 0xff, 0xff, 0xff, 0x04, 0x00, 0x00, 0x00,
  0x08, 0x00, 0x00, 0x00, 0xff, 0xff, 0xff, 0xff, 0x70, 0x00, 0x00, 0x00,
  0x00, 0x00, 0x0e, 0x00, 0x18, 0x00, 0x08, 0x00, 0x07, 0x00, 0x0c, 0x00,
  0x10, 0x00, 0x14, 0x00, 0x0e, 0x00, 0x00, 0x00, 0x00, 0x00, 0x00, 0x02,
  0x10, 0x00, 0x00, 0x00, 0x04, 0x00, 0x00, 0x00, 0x10, 0x00, 0x00, 0x00,
  0x2c, 0x00, 0x00, 0x00, 0x01, 0x00, 0x00, 0x00, 0x02, 0x00, 0x00, 0x00,
  0x18, 0x00, 0x00, 0x00, 0x73, 0x65, 0x71, 0x75, 0x65, 0x6e, 0x74, 0x69,
  0x61, 0x6c, 0x2f, 0x66, 0x6c, 0x61, 0x74, 0x74, 0x65, 0x6e, 0x2f, 0x43,
  0x6f, 0x6e, 0x73, 0x74, 0x00, 0x00, 0x00, 0x00, 0x9c, 0xfe, 0xff, 0xff,
  0x92, 0xff, 0xff, 0xff, 0x04, 0x00, 0x00, 0x00, 0x10, 0x00, 0x00, 0x00,
  0xb1, 0x0c, 0xe0, 0xbf, 0x87, 0xc2, 0xa9, 0xc0, 0x6d, 0x94, 0xd2, 0x3f,
  0x3d, 0xaf, 0x8d, 0x3c, 0x0a, 0xff, 0xff, 0xff, 0x10, 0x00, 0x00, 0x00,
  0x03, 0x00, 0x00, 0x00, 0x10, 0x00, 0x00, 0x00, 0x3c, 0x00, 0x00, 0x00,
  0x01, 0x00, 0x00, 0x00, 0x04, 0x00, 0x00, 0x00, 0x29, 0x00, 0x00, 0x00,
  0x73, 0x65, 0x71, 0x75, 0x65, 0x6e, 0x74, 0x69, 0x61, 0x6c, 0x2f, 0x64,
  0x65, 0x6e, 0x73, 0x65, 0x5f, 0x31, 0x2f, 0x42, 0x69, 0x61, 0x73, 0x41,
  0x64, 0x64, 0x2f, 0x52, 0x65, 0x61, 0x64, 0x56, 0x61, 0x72, 0x69, 0x61,
  0x62, 0x6c, 0x65, 0x4f, 0x70, 0x00, 0x00, 0x00, 0x60, 0xff, 0xff, 0xff,
  0x00, 0x00, 0x06, 0x00, 0x08, 0x00, 0x04, 0x00, 0x06, 0x00, 0x00, 0x00,
  0x04, 0x00, 0x00, 0x00, 0x40, 0x00, 0x00, 0x00, 0xb1, 0x46, 0xe0, 0x3d,
  0xb9, 0xcf, 0x85, 0xbf, 0x0d, 0x4b, 0x3b, 0xbe, 0xff, 0x3f, 0xa0, 0xbe,
  0x10, 0x06, 0x0f, 0x40, 0x30, 0x29, 0x49, 0xbe, 0xb6, 0x00, 0x0c, 0x3f,
  0x26, 0xc6, 0x66, 0x3f, 0x83, 0xe6, 0x48, 0xbe, 0x45, 0xa2, 0x33, 0x3f,
  0x22, 0x0a, 0x1c, 0xbf, 0x27, 0xc4, 0xc6, 0xbe, 0xea, 0x7e, 0x24, 0xbe,
  0x64, 0xa5, 0x45, 0x40, 0x91, 0x61, 0xf8, 0xbe, 0x76, 0x40, 0xdc, 0xbe,
  0xae, 0xff, 0xff, 0xff, 0x10, 0x00, 0x00, 0x00, 0x02, 0x00, 0x00, 0x00,
  0x10, 0x00, 0x00, 0x00, 0x3c, 0x00, 0x00, 0x00, 0x01, 0x00, 0x00, 0x00,
  0x10, 0x00, 0x00, 0x00, 0x27, 0x00, 0x00, 0x00, 0x73, 0x65, 0x71, 0x75,
  0x65, 0x6e, 0x74, 0x69, 0x61, 0x6c, 0x2f, 0x64, 0x65, 0x6e, 0x73, 0x65,
  0x2f, 0x42, 0x69, 0x61, 0x73, 0x41, 0x64, 0x64, 0x2f, 0x52, 0x65, 0x61,
  0x64, 0x56, 0x61, 0x72, 0x69, 0x61, 0x62, 0x6c, 0x65, 0x4f, 0x70, 0x00,
  0x04, 0x00, 0x06, 0x00, 0x04, 0x00, 0x00, 0x00, 0x00, 0x00, 0x0e, 0x00,
  0x14, 0x00, 0x04, 0x00, 0x00, 0x00, 0x08, 0x00, 0x0c, 0x00, 0x10, 0x00,
  0x0e, 0x00, 0x00, 0x00, 0x10, 0x00, 0x00, 0x00, 0x01, 0x00, 0x00, 0x00,
  0x1c, 0x00, 0x00, 0x00, 0x2c, 0x00, 0x00, 0x00, 0x04, 0x00, 0x00, 0x00,
  0x01, 0x00, 0x00, 0x00, 0x40, 0x00, 0x00, 0x00, 0x03, 0x00, 0x00, 0x00,
  0x01, 0x00, 0x00, 0x00, 0x0c, 0x00, 0x00, 0x00, 0x63, 0x6f, 0x6e, 0x76,
  0x32, 0x64, 0x5f, 0x69, 0x6e, 0x70, 0x75, 0x74, 0x00, 0x00, 0x00, 0x00,
  0xfc, 0xff, 0xff, 0xff, 0x04, 0x00, 0x04, 0x00, 0x04, 0x00, 0x00, 0x00
};
unsigned int model_tflite_len = 12384;



